{
  "version": "1.0",
  "truncation": null,
  "padding": null,
  "added_tokens": [
    {
      "id": 0,
      "content": "[PAD]",
      "single_word": false,
      "lstrip": false,
      "rstrip": false,
      "normalized": false,
      "special": true
    },
    {
      "id": 1,
      "content": "[END]",
      "single_word": false,
      "lstrip": false,
      "rstrip": false,
      "normalized": false,
      "special": true
    },
    {
      "id": 2,
      "content": "[PROMPT]",
      "single_word": false,
      "lstrip": false,
      "rstrip": false,
      "normalized": false,
      "special": true
    },
    {
      "id": 3,
      "content": "[AI]",
      "single_word": false,
      "lstrip": false,
      "rstrip": false,
      "normalized": false,
      "special": true
    },
    {
      "id": 4,
      "content": "[SEP]",
      "single_word": false,
      "lstrip": false,
      "rstrip": false,
      "normalized": false,
      "special": true
    },
    {
      "id": 5,
      "content": "[START]",
      "single_word": false,
      "lstrip": false,
      "rstrip": false,
      "normalized": false,
      "special": true
    },
    {
      "id": 6,
      "content": "[UNK]",
      "single_word": false,
      "lstrip": false,
      "rstrip": false,
      "normalized": false,
      "special": true
    }
  ],
  "normalizer": null,
  "pre_tokenizer": {
    "type": "Whitespace"
  },
  "post_processor": null,
  "decoder": null,
  "model": {
    "type": "BPE",
    "dropout": null,
    "unk_token": null,
    "continuing_subword_prefix": null,
    "end_of_word_suffix": null,
    "fuse_unk": false,
    "byte_fallback": false,
    "ignore_merges": false,
    "vocab": {
      "[PAD]": 0,
      "[END]": 1,
      "[PROMPT]": 2,
      "[AI]": 3,
      "[SEP]": 4,
      "[START]": 5,
      "[UNK]": 6,
      "!": 7,
      "\"": 8,
      "%": 9,
      "'": 10,
      "(": 11,
      ")": 12,
      "*": 13,
      "+": 14,
      ",": 15,
      "-": 16,
      ".": 17,
      "/": 18,
      "0": 19,
      "1": 20,
      "2": 21,
      "3": 22,
      "4": 23,
      "5": 24,
      "6": 25,
      "7": 26,
      "8": 27,
      "9": 28,
      ":": 29,
      "=": 30,
      ">": 31,
      "?": 32,
      "A": 33,
      "B": 34,
      "C": 35,
      "D": 36,
      "E": 37,
      "F": 38,
      "G": 39,
      "H": 40,
      "I": 41,
      "J": 42,
      "K": 43,
      "L": 44,
      "M": 45,
      "N": 46,
      "O": 47,
      "P": 48,
      "Q": 49,
      "R": 50,
      "S": 51,
      "T": 52,
      "U": 53,
      "V": 54,
      "W": 55,
      "X": 56,
      "Y": 57,
      "Z": 58,
      "a": 59,
      "b": 60,
      "c": 61,
      "d": 62,
      "e": 63,
      "f": 64,
      "g": 65,
      "h": 66,
      "i": 67,
      "j": 68,
      "k": 69,
      "l": 70,
      "m": 71,
      "n": 72,
      "o": 73,
      "p": 74,
      "q": 75,
      "r": 76,
      "s": 77,
      "t": 78,
      "u": 79,
      "v": 80,
      "w": 81,
      "x": 82,
      "y": 83,
      "z": 84,
      "²": 85,
      "π": 86,
      "ல": 87,
      "வ": 88,
      "–": 89,
      "’": 90,
      "₂": 91,
      "→": 92,
      "☀": 93,
      "☔": 94,
      "️": 95,
      "🐱": 96,
      "🔥": 97,
      "🥹": 98,
      "an": 99,
      "in": 100,
      "da": 101,
      "en": 102,
      "er": 103,
      "at": 104,
      "?,": 105,
      "or": 106,
      "on": 107,
      "th": 108,
      "ou": 109,
      "al": 110,
      "re": 111,
      "ing": 112,
      "na": 113,
      "es": 114,
      "ro": 115,
      "is": 116,
      "ar": 117,
      "nna": 118,
      "ti": 119,
      "am": 120,
      "le": 121,
      "it": 122,
      "st": 123,
      "bro": 124,
      "pan": 125,
      "me": 126,
      "ir": 127,
      "oo": 128,
      "you": 129,
      "ve": 130,
      "aa": 131,
      "hat": 132,
      "ed": 133,
      "and": 134,
      "ce": 135,
      "ch": 136,
      "to": 137,
      "la": 138,
      "el": 139,
      "il": 140,
      "iru": 141,
      "ver": 142,
      "ku": 143,
      "ic": 144,
      "ent": 145,
      "se": 146,
      "ion": 147,
      "Enna": 148,
      "the": 149,
      "ha": 150,
      "gh": 151,
      "ad": 152,
      "fe": 153,
      "ri": 154,
      "lo": 155,
      "for": 156,
      "li": 157,
      "what": 158,
      "pann": 159,
      "om": 160,
      "ra": 161,
      "et": 162,
      "Unna": 163,
      "ter": 164,
      "oru": 165,
      "pp": 166,
      "ay": 167,
      "ly": 168,
      "of": 169,
      "ul": 170,
      "ut": 171,
      "iruk": 172,
      "as": 173,
      "tion": 174,
      "ne": 175,
      "ol": 176,
      "um": 177,
      "un": 178,
      "est": 179,
      "ge": 180,
      "no": 181,
      "ation": 182,
      "ur": 183,
      "ct": 184,
      "ght": 185,
      "ke": 186,
      "ood": 187,
      "Aam": 188,
      "id": 189,
      "thing": 190,
      "pannu": 191,
      "?,\"": 192,
      "You": 193,
      "ab": 194,
      "di": 195,
      "ooda": 196,
      "kooda": 197,
      "ess": 198,
      "are": 199,
      "he": 200,
      ".\"": 201,
      "aan": 202,
      "ven": 203,
      "Aamaa": 204,
      "unna": 205,
      "im": 206,
      "po": 207,
      "pe": 208,
      "us": 209,
      "be": 210,
      "eng": 211,
      "pa": 212,
      "ith": 213,
      "ho": 214,
      "pro": 215,
      "per": 216,
      "ex": 217,
      "day": 218,
      "Naan": 219,
      "con": 220,
      "ity": 221,
      "ala": 222,
      "ant": 223,
      "ure": 224,
      "ate": 225,
      "wor": 226,
      "all": 227,
      "ci": 228,
      "enna": 229,
      "with": 230,
      "te": 231,
      "end": 232,
      "tr": 233,
      "way": 234,
      "ful": 235,
      "very": 236,
      "pl": 237,
      "ple": 238,
      "out": 239,
      "mor": 240,
      "art": 241,
      "mo": 242,
      "com": 243,
      "de": 244,
      "What": 245,
      "ma": 246,
      "so": 247,
      "ath": 248,
      "engala": 249,
      "one": 250,
      "we": 251,
      "ther": 252,
      "gu": 253,
      "ac": 254,
      "ort": 255,
      "that": 256,
      "nd": 257,
      "time": 258,
      "res": 259,
      "kum": 260,
      "do": 261,
      "ways": 262,
      "ight": 263,
      "love": 264,
      "No": 265,
      "qu": 266,
      "ist": 267,
      "pon": 268,
      "rom": 269,
      "ment": 270,
      "In": 271,
      "now": 272,
      "ah": 273,
      "our": 274,
      "ld": 275,
      "That": 276,
      "ta": 277,
      "kku": 278,
      "ep": 279,
      "panna": 280,
      "age": 281,
      "ance": 282,
      "Al": 283,
      "ust": 284,
      "ine": 285,
      "ence": 286,
      "king": 287,
      "av": 288,
      "wh": 289,
      "feel": 290,
      "ach": 291,
      "ice": 292,
      "veengala": 293,
      "ning": 294,
      "su": 295,
      "si": 296,
      "pannuveengala": 297,
      "Ne": 298,
      "like": 299,
      "atha": 300,
      "ag": 301,
      "my": 302,
      "about": 303,
      "pona": 304,
      "ong": 305,
      "amil": 306,
      "port": 307,
      "than": 308,
      "plan": 309,
      "inter": 310,
      "your": 311,
      "ill": 312,
      "ck": 313,
      "ere": 314,
      "ie": 315,
      "rou": 316,
      "em": 317,
      "irukaa": 318,
      "ll": 319,
      "Th": 320,
      "Yes": 321,
      "sh": 322,
      "ry": 323,
      "use": 324,
      "ind": 325,
      "Ennakum": 326,
      "life": 327,
      "but": 328,
      "go": 329,
      "need": 330,
      "paatha": 331,
      "ear": 332,
      "ould": 333,
      "ig": 334,
      "ph": 335,
      "tic": 336,
      "aagu": 337,
      "Ennakku": 338,
      "du": 339,
      "hel": 340,
      "iruka": 341,
      "Good": 342,
      "op": 343,
      "up": 344,
      "ore": 345,
      "ome": 346,
      "adi": 347,
      "der": 348,
      "sol": 349,
      "ten": 350,
      "ide": 351,
      "app": 352,
      "cre": 353,
      "low": 354,
      "good": 355,
      "ous": 356,
      "help": 357,
      "ble": 358,
      "sm": 359,
      "ally": 360,
      "work": 361,
      "ast": 362,
      "if": 363,
      "bo": 364,
      "man": 365,
      "ite": 366,
      "ell": 367,
      "happ": 368,
      "De": 369,
      "sa": 370,
      "ish": 371,
      "lu": 372,
      "ater": 373,
      "Every": 374,
      "hu": 375,
      "kay": 376,
      "spe": 377,
      "riend": 378,
      "ction": 379,
      "every": 380,
      "anum": 381,
      "ers": 382,
      "Tamil": 383,
      "irukk": 384,
      "some": 385,
      "can": 386,
      "ream": 387,
      "ise": 388,
      "more": 389,
      "Always": 390,
      "interest": 391,
      "Re": 392,
      "night": 393,
      "always": 394,
      "row": 395,
      "mat": 396,
      "Ch": 397,
      "iy": 398,
      "ile": 399,
      "read": 400,
      "try": 401,
      "ff": 402,
      "war": 403,
      "from": 404,
      "tra": 405,
      "able": 406,
      "fore": 407,
      "know": 408,
      "lam": 409,
      "chan": 410,
      "ily": 411,
      "portant": 412,
      "ive": 413,
      "over": 414,
      "iruku": 415,
      "by": 416,
      "jo": 417,
      "oun": 418,
      "En": 419,
      "best": 420,
      "irst": 421,
      "Un": 422,
      "au": 423,
      "dy": 424,
      "food": 425,
      "var": 426,
      "ga": 427,
      "ru": 428,
      "how": 429,
      "peri": 430,
      "The": 431,
      "vo": 432,
      "panlam": 433,
      "ical": 434,
      "fect": 435,
      "cial": 436,
      "pla": 437,
      "ving": 438,
      "alk": 439,
      "iss": 440,
      "right": 441,
      "friend": 442,
      "ip": 443,
      "other": 444,
      "ss": 445,
      "old": 446,
      "ress": 447,
      "br": 448,
      "ree": 449,
      "form": 450,
      "St": 451,
      "ty": 452,
      "ary": 453,
      "ds": 454,
      "thin": 455,
      "va": 456,
      "ans": 457,
      "panra": 458,
      "An": 459,
      "ak": 460,
      "important": 461,
      "aaguven": 462,
      "gy": 463,
      "ren": 464,
      "ser": 465,
      "ult": 466,
      "bu": 467,
      "dream": 468,
      "pt": 469,
      "not": 470,
      "But": 471,
      "ber": 472,
      "ies": 473,
      "ins": 474,
      "ild": 475,
      "ace": 476,
      "des": 477,
      "ka": 478,
      "pre": 479,
      "tri": 480,
      "reat": 481,
      "needed": 482,
      "col": 483,
      "ual": 484,
      "ound": 485,
      "ely": 486,
      "ready": 487,
      "get": 488,
      "val": 489,
      "ory": 490,
      "start": 491,
      "ents": 492,
      "morning": 493,
      "ba": 494,
      "epp": 495,
      "first": 496,
      "mar": 497,
      "ough": 498,
      "ook": 499,
      "vel": 500,
      "set": 501,
      "Nee": 502,
      "ca": 503,
      "cti": 504,
      "int": 505,
      "daily": 506,
      "lear": 507,
      "elf": 508,
      "pannuven": 509,
      "dia": 510,
      "experi": 511,
      "gen": 512,
      "ket": 513,
      "path": 514,
      "sy": 515,
      "year": 516,
      "gether": 517,
      "Your": 518,
      "irukken": 519,
      "care": 520,
      "dis": 521,
      "ard": 522,
      "tim": 523,
      "ility": 524,
      "ural": 525,
      "ship": 526,
      "Com": 527,
      "bet": 528,
      "ow": 529,
      "arm": 530,
      "tions": 531,
      "under": 532,
      "when": 533,
      "ain": 534,
      "mess": 535,
      "par": 536,
      "sha": 537,
      "ang": 538,
      "ool": 539,
      "che": 540,
      "nee": 541,
      "new": 542,
      "imple": 543,
      "cess": 544,
      "ama": 545,
      "chu": 546,
      "vers": 547,
      "voice": 548,
      "experience": 549,
      "Wor": 550,
      "cal": 551,
      "less": 552,
      "pic": 553,
      "wa": 554,
      "would": 555,
      "water": 556,
      "alth": 557,
      "tiful": 558,
      "illa": 559,
      "autiful": 560,
      "Lo": 561,
      "Per": 562,
      "ek": 563,
      "pri": 564,
      "Not": 565,
      "son": 566,
      "vs": 567,
      "vis": 568,
      "want": 569,
      "thu": 570,
      "aag": 571,
      "ass": 572,
      "weet": 573,
      "Be": 574,
      "cur": 575,
      "fic": 576,
      "ated": 577,
      "ame": 578,
      "where": 579,
      "smile": 580,
      "Ex": 581,
      "Okay": 582,
      "ap": 583,
      "fin": 584,
      "fun": 585,
      "ire": 586,
      "ious": 587,
      "yes": 588,
      "inion": 589,
      "ery": 590,
      "have": 591,
      "ppo": 592,
      "ason": 593,
      "rough": 594,
      "opinion": 595,
      "air": 596,
      "min": 597,
      "miss": 598,
      "any": 599,
      "uture": 600,
      "qual": 601,
      "India": 602,
      "happen": 603,
      "message": 604,
      "co": 605,
      "okay": 606,
      "pr": 607,
      "ting": 608,
      "ank": 609,
      "atch": 610,
      "this": 611,
      "through": 612,
      "light": 613,
      "person": 614,
      "feeling": 615,
      "sollu": 616,
      "Dei": 617,
      "forever": 618,
      "times": 619,
      "He": 620,
      "Li": 621,
      "call": 622,
      "hand": 623,
      "ner": 624,
      "pu": 625,
      "stand": 626,
      "fee": 627,
      "offee": 628,
      "avour": 629,
      "blem": 630,
      "everything": 631,
      "eppadi": 632,
      "Con": 633,
      "We": 634,
      "self": 635,
      "sweet": 636,
      "vie": 637,
      "let": 638,
      "problem": 639,
      "phy": 640,
      "small": 641,
      "change": 642,
      "avourite": 643,
      "cy": 644,
      "jam": 645,
      "mom": 646,
      "oc": 647,
      "ric": 648,
      "ties": 649,
      "today": 650,
      "ennai": 651,
      "comm": 652,
      "wait": 653,
      "clo": 654,
      "lan": 655,
      "ople": 656,
      "vom": 657,
      "ating": 658,
      "onjam": 659,
      "ought": 660,
      "real": 661,
      "irund": 662,
      "ade": 663,
      "often": 664,
      "noda": 665,
      "Aamam": 666,
      "ext": 667,
      "epdi": 668,
      "iya": 669,
      "Just": 670,
      "To": 671,
      "dha": 672,
      "here": 673,
      "late": 674,
      "pra": 675,
      "ts": 676,
      "enough": 677,
      "org": 678,
      "edu": 679,
      "most": 680,
      "tain": 681,
      "pathi": 682,
      "00": 683,
      "Some": 684,
      "act": 685,
      "bit": 686,
      "cer": 687,
      "leep": 688,
      "memor": 689,
      "last": 690,
      "pannuvom": 691,
      "amily": 692,
      "Best": 693,
      "hi": 694,
      "kes": 695,
      "mind": 696,
      "sk": 697,
      "ani": 698,
      "onest": 699,
      "als": 700,
      "stem": 701,
      "things": 702,
      "diff": 703,
      "heart": 704,
      "people": 705,
      "enga": 706,
      "ques": 707,
      "share": 708,
      "Nanum": 709,
      "cor": 710,
      "sc": 711,
      "sun": 712,
      "wr": 713,
      "eness": 714,
      "itu": 715,
      "elie": 716,
      "health": 717,
      "beautiful": 718,
      "week": 719,
      "ack": 720,
      "special": 721,
      "matter": 722,
      "wareness": 723,
      "On": 724,
      "grou": 725,
      "ida": 726,
      "nu": 727,
      "nat": 728,
      "ness": 729,
      "say": 730,
      "sur": 731,
      "till": 732,
      "stu": 733,
      "comple": 734,
      "Chennai": 735,
      "think": 736,
      "better": 737,
      "Perfect": 738,
      "My": 739,
      "One": 740,
      "Ph": 741,
      "gn": 742,
      "gr": 743,
      "grow": 744,
      "nen": 745,
      "pres": 746,
      "will": 747,
      "walk": 748,
      "thought": 749,
      "str": 750,
      "panu": 751,
      "cept": 752,
      "pport": 753,
      "vening": 754,
      "usic": 755,
      "full": 756,
      "happy": 757,
      "something": 758,
      "Ear": 759,
      "Pro": 760,
      "ai": 761,
      "awareness": 762,
      "coun": 763,
      "fi": 764,
      "ippo": 765,
      "mon": 766,
      "paa": 767,
      "who": 768,
      "only": 769,
      "pos": 770,
      "romba": 771,
      "Po": 772,
      "ake": 773,
      "bre": 774,
      "cent": 775,
      "come": 776,
      "fer": 777,
      "future": 778,
      "sp": 779,
      "panren": 780,
      "med": 781,
      "chool": 782,
      "together": 783,
      "ollow": 784,
      "varu": 785,
      "illai": 786,
      "dhaan": 787,
      "Don": 788,
      "Very": 789,
      "ele": 790,
      "hal": 791,
      "je": 792,
      "mu": 793,
      "saa": 794,
      "asic": 795,
      "hoto": 796,
      "days": 797,
      "joy": 798,
      "build": 799,
      "understand": 800,
      "Sm": 801,
      "Simple": 802,
      "af": 803,
      "bi": 804,
      "bl": 805,
      "ever": 806,
      "each": 807,
      "iku": 808,
      "part": 809,
      "was": 810,
      "issu": 811,
      "its": 812,
      "lass": 813,
      "rain": 814,
      "ability": 815,
      "pect": 816,
      "used": 817,
      "before": 818,
      "world": 819,
      "tem": 820,
      "athu": 821,
      "ift": 822,
      "many": 823,
      "ulture": 824,
      "trip": 825,
      "system": 826,
      "Love": 827,
      "quality": 828,
      "moment": 829,
      "differ": 830,
      "Bo": 831,
      "ase": 832,
      "bir": 833,
      "belie": 834,
      "ces": 835,
      "car": 836,
      "dhu": 837,
      "math": 838,
      "sing": 839,
      "tell": 840,
      "ue": 841,
      "iness": 842,
      "ings": 843,
      "tive": 844,
      "fort": 845,
      "tional": 846,
      "nex": 847,
      "prom": 848,
      "cons": 849,
      "words": 850,
      "Thank": 851,
      "place": 852,
      "thinking": 853,
      "nenach": 854,
      "Im": 855,
      "coffee": 856,
      "dist": 857,
      "lit": 858,
      "sen": 859,
      "tle": 860,
      "talk": 861,
      "ves": 862,
      "watch": 863,
      "ale": 864,
      "peace": 865,
      "cont": 866,
      "trust": 867,
      "possi": 868,
      "It": 869,
      "Konjam": 870,
      "Let": 871,
      "Mo": 872,
      "Su": 873,
      "don": 874,
      "follow": 875,
      "lar": 876,
      "mer": 877,
      "made": 878,
      "num": 879,
      "ps": 880,
      "pen": 881,
      "press": 882,
      "sho": 883,
      "ener": 884,
      "ors": 885,
      "orry": 886,
      "also": 887,
      "story": 888,
      "ute": 889,
      "ations": 890,
      "home": 891,
      "process": 892,
      "phone": 893,
      "Work": 894,
      "next": 895,
      "Ad": 896,
      "Se": 897,
      "aar": 898,
      "gift": 899,
      "song": 900,
      "tw": 901,
      "wer": 902,
      "yo": 903,
      "lebr": 904,
      "iri": 905,
      "celebr": 906,
      "else": 907,
      "prote": 908,
      "plant": 909,
      "ign": 910,
      "both": 911,
      "body": 912,
      "Co": 913,
      "How": 914,
      "More": 915,
      "cus": 916,
      "ef": 917,
      "gra": 918,
      "lla": 919,
      "line": 920,
      "photo": 921,
      "ature": 922,
      "orm": 923,
      "then": 924,
      "red": 925,
      "habit": 926,
      "logy": 927,
      "pannur": 928,
      "off": 929,
      "aby": 930,
      "impro": 931,
      "perfect": 932,
      "main": 933,
      "make": 934,
      "cause": 935,
      "Ser": 936,
      "With": 937,
      "farm": 938,
      "hy": 939,
      "iz": 940,
      "kan": 941,
      "sleep": 942,
      "ugh": 943,
      "vand": 944,
      "vity": 945,
      "wn": 946,
      "reg": 947,
      "rel": 948,
      "stru": 949,
      "them": 950,
      "adu": 951,
      "ask": 952,
      "never": 953,
      "conf": 954,
      "safe": 955,
      "colle": 956,
      "learn": 957,
      "saap": 958,
      "!\"": 959,
      "Col": 960,
      "PM": 961,
      "book": 962,
      "eat": 963,
      "evening": 964,
      "free": 965,
      "kaa": 966,
      "long": 967,
      "mb": 968,
      "rent": 969,
      "still": 970,
      "ero": 971,
      "reme": 972,
      "esti": 973,
      "see": 974,
      "idu": 975,
      "there": 976,
      "iyum": 977,
      "friends": 978,
      "ject": 979,
      "Both": 980,
      "possible": 981,
      "estival": 982,
      "ding": 983,
      "favourite": 984,
      "family": 985,
      "hold": 986,
      "kka": 987,
      "list": 988,
      "rust": 989,
      "spa": 990,
      "side": 991,
      "tu": 992,
      "vent": 993,
      "well": 994,
      "anim": 995,
      "ati": 996,
      "once": 997,
      "rep": 998,
      "reci": 999,
      "led": 1000,
      "iting": 1001,
      "panrom": 1002,
      "laugh": 1003,
      "ick": 1004,
      "ication": 1005,
      "cture": 1006,
      "support": 1007,
      "travel": 1008,
      "years": 1009,
      "visit": 1010,
      "question": 1011,
      "Earth": 1012,
      "month": 1013,
      "energy": 1014,
      "And": 1015,
      "Par": 1016,
      "Sun": 1017,
      "bus": 1018,
      "back": 1019,
      "cl": 1020,
      "cu": 1021,
      "din": 1022,
      "find": 1023,
      "gest": 1024,
      "hum": 1025,
      "ich": 1026,
      "mber": 1027,
      "ob": 1028,
      "od": 1029,
      "pes": 1030,
      "pol": 1031,
      "ris": 1032,
      "too": 1033,
      "wish": 1034,
      "zing": 1035,
      "ink": 1036,
      "ining": 1037,
      "reason": 1038,
      "ooking": 1039,
      "vement": 1040,
      "pannine": 1041,
      "asure": 1042,
      "ummer": 1043,
      "nodu": 1044,
      "pannura": 1045,
      "respon": 1046,
      "All": 1047,
      "sub": 1048,
      "New": 1049,
      "rying": 1050,
      "tical": 1051,
      "formation": 1052,
      "discus": 1053,
      "check": 1054,
      "Together": 1055,
      "different": 1056,
      "pannineengala": 1057,
      "Baby": 1058,
      "Long": 1059,
      "Me": 1060,
      "So": 1061,
      "bal": 1062,
      "bility": 1063,
      "cation": 1064,
      "city": 1065,
      "ime": 1066,
      "music": 1067,
      "nal": 1068,
      "nel": 1069,
      "show": 1070,
      "vice": 1071,
      "erve": 1072,
      "level": 1073,
      "adhe": 1074,
      "ung": 1075,
      "unity": 1076,
      "ush": 1077,
      "using": 1078,
      "being": 1079,
      "concept": 1080,
      "said": 1081,
      "Eng": 1082,
      "Ennodu": 1083,
      "ctive": 1084,
      "Life": 1085,
      "irundha": 1086,
      "natural": 1087,
      "study": 1088,
      "strong": 1089,
      "mathiri": 1090,
      "promise": 1091,
      "App": 1092,
      "Fe": 1093,
      "Friend": 1094,
      "Illa": 1095,
      "Pe": 1096,
      "Rom": 1097,
      "Te": 1098,
      "agu": 1099,
      "dhal": 1100,
      "les": 1101,
      "lish": 1102,
      "sil": 1103,
      "sound": 1104,
      "yani": 1105,
      "rest": 1106,
      "naan": 1107,
      "ism": 1108,
      "mean": 1109,
      "velo": 1110,
      "aasa": 1111,
      "cha": 1112,
      "season": 1113,
      "ull": 1114,
      "ular": 1115,
      "pot": 1116,
      "produ": 1117,
      "word": 1118,
      "worth": 1119,
      "tradi": 1120,
      "fully": 1121,
      "movie": 1122,
      "guage": 1123,
      "istory": 1124,
      "aste": 1125,
      "interesting": 1126,
      "ward": 1127,
      "ctice": 1128,
      "happened": 1129,
      "close": 1130,
      "memory": 1131,
      "believe": 1132,
      "aasai": 1133,
      "Bir": 1134,
      "Favourite": 1135,
      "Ho": 1136,
      "Happ": 1137,
      "Will": 1138,
      "big": 1139,
      "cle": 1140,
      "fall": 1141,
      "fact": 1142,
      "festival": 1143,
      "great": 1144,
      "kk": 1145,
      "por": 1146,
      "sci": 1147,
      "treat": 1148,
      "vol": 1149,
      "vest": 1150,
      "enti": 1151,
      "ering": 1152,
      "ouse": 1153,
      "ulti": 1154,
      "iruke": 1155,
      "exc": 1156,
      "convers": 1157,
      "Inter": 1158,
      "Never": 1159,
      "ages": 1160,
      "should": 1161,
      "manage": 1162,
      "speci": 1163,
      "irukka": 1164,
      "Real": 1165,
      "Start": 1166,
      "design": 1167,
      "phys": 1168,
      "practice": 1169,
      "complete": 1170,
      "building": 1171,
      "kaadhal": 1172,
      "discuss": 1173,
      "velop": 1174,
      "AI": 1175,
      "Am": 1176,
      "Ar": 1177,
      "Fore": 1178,
      "Home": 1179,
      "Mor": 1180,
      "Tw": 1181,
      "Time": 1182,
      "aw": 1183,
      "clear": 1184,
      "del": 1185,
      "flow": 1186,
      "gi": 1187,
      "gre": 1188,
      "gla": 1189,
      "give": 1190,
      "hour": 1191,
      "iet": 1192,
      "just": 1193,
      "ni": 1194,
      "pass": 1195,
      "simple": 1196,
      "same": 1197,
      "information": 1198,
      "ates": 1199,
      "ative": 1200,
      "thday": 1201,
      "ita": 1202,
      "stant": 1203,
      "topic": 1204,
      "irukum": 1205,
      "ions": 1206,
      "has": 1207,
      "ters": 1208,
      "point": 1209,
      "paar": 1210,
      "paath": 1211,
      "tech": 1212,
      "makes": 1213,
      "ween": 1214,
      "sive": 1215,
      "sign": 1216,
      "Need": 1217,
      "hug": 1218,
      "Ennoda": 1219,
      "play": 1220,
      "Only": 1221,
      "break": 1222,
      "after": 1223,
      "issue": 1224,
      "number": 1225,
      "yosi": 1226,
      "ormal": 1227,
      "pannuren": 1228,
      ",\"": 1229,
      "20": 1230,
      "Big": 1231,
      "Honest": 1232,
      "Lear": 1233,
      "Man": 1234,
      "Night": 1235,
      "Our": 1236,
      "Sh": 1237,
      "School": 1238,
      "Would": 1239,
      "did": 1240,
      "fast": 1241,
      "face": 1242,
      "gin": 1243,
      "honest": 1244,
      "lat": 1245,
      "sorry": 1246,
      "upp": 1247,
      "vir": 1248,
      "vide": 1249,
      "yer": 1250,
      "into": 1251,
      "orth": 1252,
      "ority": 1253,
      "alam": 1254,
      "rect": 1255,
      "ars": 1256,
      "leg": 1257,
      "ital": 1258,
      "ved": 1259,
      "chen": 1260,
      "char": 1261,
      "chem": 1262,
      "ics": 1263,
      "log": 1264,
      "forget": 1265,
      "ulation": 1266,
      "irukku": 1267,
      "uni": 1268,
      "unch": 1269,
      "ational": 1270,
      "ationship": 1271,
      "uring": 1272,
      "keep": 1273,
      "exam": 1274,
      "conne": 1275,
      "concer": 1276,
      "tru": 1277,
      "develop": 1278,
      "take": 1279,
      "avor": 1280,
      "cks": 1281,
      "roud": 1282,
      "This": 1283,
      "going": 1284,
      "tics": 1285,
      "aaguthe": 1286,
      "open": 1287,
      "ctions": 1288,
      "job": 1289,
      "Any": 1290,
      "prefer": 1291,
      "news": 1292,
      "aagut": 1293,
      "anything": 1294,
      "ground": 1295,
      "Phone": 1296,
      "count": 1297,
      "much": 1298,
      "Small": 1299,
      "nenachen": 1300,
      "structure": 1301,
      "Forever": 1302,
      "Morning": 1303,
      "Basic": 1304,
      "Dream": 1305,
      "First": 1306,
      "Gr": 1307,
      "Le": 1308,
      "Late": 1309,
      "Off": 1310,
      "Pre": 1311,
      "Res": 1312,
      "cra": 1313,
      "class": 1314,
      "culture": 1315,
      "dr": 1316,
      "fla": 1317,
      "gress": 1318,
      "hen": 1319,
      "hard": 1320,
      "history": 1321,
      "igh": 1322,
      "net": 1323,
      "sion": 1324,
      "ud": 1325,
      "vid": 1326,
      "anupp": 1327,
      "ene": 1328,
      "tha": 1329,
      "alum": 1330,
      "ari": 1331,
      "meet": 1332,
      "cean": 1333,
      "cho": 1334,
      "top": 1335,
      "utri": 1336,
      "ney": 1337,
      "power": 1338,
      "trans": 1339,
      "dec": 1340,
      "super": 1341,
      "round": 1342,
      "appreci": 1343,
      "Comple": 1344,
      "between": 1345,
      "prise": 1346,
      "weekend": 1347,
      "growing": 1348,
      "panuven": 1349,
      "Adhe": 1350,
      "two": 1351,
      "Colle": 1352,
      "iyumaa": 1353,
      "irukeengala": 1354,
      "avorite": 1355,
      "?\"": 1356,
      "Ab": 1357,
      "Da": 1358,
      "Family": 1359,
      "Full": 1360,
      "Miss": 1361,
      "Pri": 1362,
      "Trying": 1363,
      "ada": 1364,
      "ail": 1365,
      "bor": 1366,
      "bon": 1367,
      "basic": 1368,
      "cute": 1369,
      "dom": 1370,
      "dance": 1371,
      "emo": 1372,
      "fly": 1373,
      "ition": 1374,
      "land": 1375,
      "ns": 1376,
      "sw": 1377,
      "school": 1378,
      "ution": 1379,
      "van": 1380,
      "yen": 1381,
      "yet": 1382,
      "dar": 1383,
      "date": 1384,
      "atter": 1385,
      "order": 1386,
      "onder": 1387,
      "already": 1388,
      "panirukeengala": 1389,
      "ira": 1390,
      "chall": 1391,
      "adhu": 1392,
      "living": 1393,
      "uru": 1394,
      "ctor": 1395,
      "area": 1396,
      "expl": 1397,
      "exist": 1398,
      "action": 1399,
      "Now": 1400,
      "why": 1401,
      "again": 1402,
      "thank": 1403,
      "Then": 1404,
      "lowly": 1405,
      "matt": 1406,
      "friendship": 1407,
      "serious": 1408,
      "amazing": 1409,
      "Because": 1410,
      "language": 1411,
      "organ": 1412,
      "skill": 1413,
      "matters": 1414,
      "present": 1415,
      "fix": 1416,
      "graphy": 1417,
      "Seri": 1418,
      "remember": 1419,
      "meaning": 1420,
      "physical": 1421,
      "glad": 1422,
      "aagutaa": 1423,
      "Bet": 1424,
      "Can": 1425,
      "Coffee": 1426,
      "For": 1427,
      "Grow": 1428,
      "Next": 1429,
      "Right": 1430,
      "Sa": 1431,
      "Tru": 1432,
      "aha": 1433,
      "bore": 1434,
      "cover": 1435,
      "den": 1436,
      "dou": 1437,
      "dri": 1438,
      "fra": 1439,
      "fine": 1440,
      "favorite": 1441,
      "ging": 1442,
      "her": 1443,
      "house": 1444,
      "iti": 1445,
      "kind": 1446,
      "mil": 1447,
      "padi": 1448,
      "sal": 1449,
      "situ": 1450,
      "summer": 1451,
      "ula": 1452,
      "vation": 1453,
      "were": 1454,
      "waste": 1455,
      "ze": 1456,
      "ena": 1457,
      "onment": 1458,
      "outh": 1459,
      "ali": 1460,
      "road": 1461,
      "aring": 1462,
      "lect": 1463,
      "panen": 1464,
      "aay": 1465,
      "ilo": 1466,
      "icy": 1467,
      "secre": 1468,
      "riage": 1469,
      "rare": 1470,
      "utes": 1471,
      "irukiya": 1472,
      "dian": 1473,
      "venum": 1474,
      "beat": 1475,
      "cially": 1476,
      "ending": 1477,
      "compan": 1478,
      "comfort": 1479,
      "defin": 1480,
      "does": 1481,
      "down": 1482,
      "which": 1483,
      "channel": 1484,
      "Unnoda": 1485,
      "rights": 1486,
      "typic": 1487,
      "dreams": 1488,
      "deserve": 1489,
      "market": 1490,
      "calm": 1491,
      "priv": 1492,
      "view": 1493,
      "education": 1494,
      "high": 1495,
      "questions": 1496,
      "group": 1497,
      "elect": 1498,
      "pressure": 1499,
      "relationship": 1500,
      "listen": 1501,
      "space": 1502,
      "dinner": 1503,
      "Peace": 1504,
      "Happy": 1505,
      "conversation": 1506,
      "mattum": 1507,
      "Better": 1508,
      "typically": 1509,
      "Go": 1510,
      "Mar": 1511,
      "Music": 1512,
      "Sol": 1513,
      "She": 1514,
      "Sleep": 1515,
      "bad": 1516,
      "cas": 1517,
      "could": 1518,
      "dro": 1519,
      "ft": 1520,
      "fil": 1521,
      "found": 1522,
      "hood": 1523,
      "ix": 1524,
      "ial": 1525,
      "jour": 1526,
      "kira": 1527,
      "nment": 1528,
      "nutri": 1529,
      "ocean": 1530,
      "pati": 1531,
      "ram": 1532,
      "tely": 1533,
      "vi": 1534,
      "vaan": 1535,
      "era": 1536,
      "att": 1537,
      "nakku": 1538,
      "cell": 1539,
      "ict": 1540,
      "their": 1541,
      "add": 1542,
      "fear": 1543,
      "live": 1544,
      "pannanum": 1545,
      "utely": 1546,
      "ument": 1547,
      "head": 1548,
      "post": 1549,
      "begin": 1550,
      "progress": 1551,
      "teach": 1552,
      "coming": 1553,
      "dep": 1554,
      "deep": 1555,
      "mag": 1556,
      "ather": 1557,
      "acy": 1558,
      "Already": 1559,
      "aga": 1560,
      "yourself": 1561,
      "solutely": 1562,
      "create": 1563,
      "works": 1564,
      "sometimes": 1565,
      "gener": 1566,
      "Beautiful": 1567,
      "current": 1568,
      "minutes": 1569,
      "happening": 1570,
      "Health": 1571,
      "Like": 1572,
      "pudi": 1573,
      "sunset": 1574,
      "thoughts": 1575,
      "varuthe": 1576,
      "bio": 1577,
      "birthday": 1578,
      "Important": 1579,
      "little": 1580,
      "large": 1581,
      "See": 1582,
      "farming": 1583,
      "English": 1584,
      "vironment": 1585,
      "truth": 1586,
      "Office": 1587,
      "Daily": 1588,
      "explore": 1589,
      "100": 1590,
      "Au": 1591,
      "Bi": 1592,
      "Class": 1593,
      "Di": 1594,
      "Do": 1595,
      "Fin": 1596,
      "Future": 1597,
      "Haha": 1598,
      "Lit": 1599,
      "Last": 1600,
      "Med": 1601,
      "Oru": 1602,
      "Rain": 1603,
      "Trust": 1604,
      "Yaar": 1605,
      "bar": 1606,
      "bas": 1607,
      "cro": 1608,
      "fan": 1609,
      "fight": 1610,
      "konjam": 1611,
      "mood": 1612,
      "ny": 1613,
      "sim": 1614,
      "ton": 1615,
      "tre": 1616,
      "tur": 1617,
      "ume": 1618,
      "vach": 1619,
      "vents": 1620,
      "ya": 1621,
      "ys": 1622,
      "yenna": 1623,
      "inen": 1624,
      "ination": 1625,
      "data": 1626,
      "enjoy": 1627,
      "ones": 1628,
      "alu": 1629,
      "alking": 1630,
      "reed": 1631,
      "rol": 1632,
      "lead": 1633,
      "stay": 1634,
      "state": 1635,
      "step": 1636,
      "means": 1637,
      "oose": 1638,
      "tomor": 1639,
      "ional": 1640,
      "lim": 1641,
      "pping": 1642,
      "utu": 1643,
      "asy": 1644,
      "unication": 1645,
      "nothing": 1646,
      "key": 1647,
      "hear": 1648,
      "working": 1649,
      "oney": 1650,
      "active": 1651,
      "respect": 1652,
      "Nothing": 1653,
      "happiness": 1654,
      "someone": 1655,
      "Child": 1656,
      "ffic": 1657,
      "ounda": 1658,
      "They": 1659,
      "tried": 1660,
      "color": 1661,
      "marriage": 1662,
      "assist": 1663,
      "Cons": 1664,
      "prayer": 1665,
      "certain": 1666,
      "memories": 1667,
      "sky": 1668,
      "wrong": 1669,
      "understanding": 1670,
      "issues": 1671,
      "contin": 1672,
      "shop": 1673,
      "office": 1674,
      "maintain": 1675,
      "Social": 1676,
      "Romba": 1677,
      "Amma": 1678,
      "Learning": 1679,
      "anuppu": 1680,
      "College": 1681,
      "True": 1682,
      "iloso": 1683,
      "tomorrow": 1684,
      "..": 1685,
      "Ac": 1686,
      "Car": 1687,
      "Multi": 1688,
      "Pra": 1689,
      "Prom": 1690,
      "Sur": 1691,
      "Tri": 1692,
      "Tom": 1693,
      "Take": 1694,
      "aking": 1695,
      "ban": 1696,
      "ball": 1697,
      "cri": 1698,
      "done": 1699,
      "eyes": 1700,
      "fo": 1701,
      "gan": 1702,
      "ges": 1703,
      "har": 1704,
      "ities": 1705,
      "ja": 1706,
      "ken": 1707,
      "os": 1708,
      "pir": 1709,
      "sad": 1710,
      "tar": 1711,
      "ye": 1712,
      "yam": 1713,
      "ange": 1714,
      "another": 1715,
      "inc": 1716,
      "ines": 1717,
      "incre": 1718,
      "dam": 1719,
      "dat": 1720,
      "ency": 1721,
      "ator": 1722,
      "thes": 1723,
      "espe": 1724,
      "istic": 1725,
      "arch": 1726,
      "itch": 1727,
      "sty": 1728,
      "measure": 1729,
      "aachu": 1730,
      "seem": 1731,
      "few": 1732,
      "litics": 1733,
      "esting": 1734,
      "Aama": 1735,
      "pannuva": 1736,
      "areas": 1737,
      "import": 1738,
      "peti": 1739,
      "engaa": 1740,
      "past": 1741,
      "paathu": 1742,
      "project": 1743,
      "cip": 1744,
      "tea": 1745,
      "ends": 1746,
      "soon": 1747,
      "que": 1748,
      "ments": 1749,
      "achie": 1750,
      "sitive": 1751,
      "planning": 1752,
      "goal": 1753,
      "aaguthu": 1754,
      "appro": 1755,
      "creen": 1756,
      "helps": 1757,
      "ellam": 1758,
      "Read": 1759,
      "join": 1760,
      "period": 1761,
      "ultural": 1762,
      "valu": 1763,
      "learning": 1764,
      "anger": 1765,
      "priority": 1766,
      "final": 1767,
      "fund": 1768,
      "Sometimes": 1769,
      "temple": 1770,
      "single": 1771,
      "Thanks": 1772,
      "distance": 1773,
      "liter": 1774,
      "peaceful": 1775,
      "celebrate": 1776,
      "Without": 1777,
      "kanav": 1778,
      "venture": 1779,
      "animals": 1780,
      "human": 1781,
      "aguthu": 1782,
      "Biryani": 1783,
      "science": 1784,
      "specific": 1785,
      "aware": 1786,
      "paaru": 1787,
      "connect": 1788,
      "appreciate": 1789,
      "Absolutely": 1790,
      "onderful": 1791,
      "especially": 1792,
      "importance": 1793,
      "\"\"": 1794,
      "Af": 1795,
      "Cal": 1796,
      "Call": 1797,
      "Dig": 1798,
      "Evening": 1799,
      "Great": 1800,
      "High": 1801,
      "Ind": 1802,
      "Ke": 1803,
      "MI": 1804,
      "Met": 1805,
      "North": 1806,
      "Pers": 1807,
      "Str": 1808,
      "Same": 1809,
      "Sorry": 1810,
      "Tu": 1811,
      "Tell": 1812,
      "ave": 1813,
      "aur": 1814,
      "bes": 1815,
      "cand": 1816,
      "cul": 1817,
      "cast": 1818,
      "ded": 1819,
      "dish": 1820,
      "events": 1821,
      "ged": 1822,
      "hic": 1823,
      "later": 1824,
      "ming": 1825,
      "oda": 1826,
      "plo": 1827,
      "patha": 1828,
      "proud": 1829,
      "ron": 1830,
      "rout": 1831,
      "rise": 1832,
      "text": 1833,
      "vic": 1834,
      "vida": 1835,
      "zy": 1836,
      "anch": 1837,
      "antic": 1838,
      "indo": 1839,
      "invest": 1840,
      "enge": 1841,
      "atur": 1842,
      "tho": 1843,
      "three": 1844,
      "allow": 1845,
      "remind": 1846,
      "name": 1847,
      "leav": 1848,
      "ited": 1849,
      "ste": 1850,
      "sto": 1851,
      "stan": 1852,
      "stor": 1853,
      "media": 1854,
      "vehic": 1855,
      "secon": 1856,
      "they": 1857,
      "river": 1858,
      "pannom": 1859,
      "pannala": 1860,
      "panninen": 1861,
      "nego": 1862,
      "unning": 1863,
      "urance": 1864,
      "ider": 1865,
      "pop": 1866,
      "poem": 1867,
      "express": 1868,
      "ants": 1869,
      "ateful": 1870,
      "cious": 1871,
      "true": 1872,
      "comp": 1873,
      "deb": 1874,
      "making": 1875,
      "weather": 1876,
      "ists": 1877,
      "mental": 1878,
      "Indian": 1879,
      "sibility": 1880,
      "ports": 1881,
      "cky": 1882,
      "gover": 1883,
      "lution": 1884,
      "Everything": 1885,
      "speed": 1886,
      "ount": 1887,
      "Ung": 1888,
      "varum": 1889,
      "others": 1890,
      "answer": 1891,
      "seri": 1892,
      "started": 1893,
      "eppo": 1894,
      "lesson": 1895,
      "illage": 1896,
      "funny": 1897,
      "ired": 1898,
      "letter": 1899,
      "organi": 1900,
      "scri": 1901,
      "blood": 1902,
      "celebration": 1903,
      "improve": 1904,
      "safety": 1905,
      "reply": 1906,
      "balance": 1907,
      "Feel": 1908,
      "Illai": 1909,
      "tradition": 1910,
      "management": 1911,
      "hours": 1912,
      "challenge": 1913,
      "doub": 1914,
      "secret": 1915,
      "channels": 1916,
      "journey": 1917,
      "pudikum": 1918,
      "Little": 1919,
      "based": 1920,
      "routine": 1921,
      "indow": 1922,
      "negoti": 1923,
      "Ag": 1924,
      "Air": 1925,
      "Bal": 1926,
      "Che": 1927,
      "Dis": 1928,
      "Dist": 1929,
      "Dif": 1930,
      "Lan": 1931,
      "Many": 1932,
      "Nadu": 1933,
      "PS": 1934,
      "Qu": 1935,
      "Ro": 1936,
      "Spe": 1937,
      "Still": 1938,
      "South": 1939,
      "Too": 1940,
      "Tem": 1941,
      "Und": 1942,
      "bra": 1943,
      "ced": 1944,
      "cour": 1945,
      "cking": 1946,
      "cook": 1947,
      "det": 1948,
      "fl": 1949,
      "fess": 1950,
      "fair": 1951,
      "foc": 1952,
      "fail": 1953,
      "gas": 1954,
      "hur": 1955,
      "ju": 1956,
      "kar": 1957,
      "must": 1958,
      "ox": 1959,
      "pur": 1960,
      "pie": 1961,
      "ral": 1962,
      "rural": 1963,
      "ses": 1964,
      "sid": 1965,
      "sure": 1966,
      "sight": 1967,
      "sav": 1968,
      "tool": 1969,
      "vous": 1970,
      "vies": 1971,
      "yaar": 1972,
      "ana": 1973,
      "indi": 1974,
      "iniku": 1975,
      "initi": 1976,
      "enu": 1977,
      "ately": 1978,
      "oring": 1979,
      "orrow": 1980,
      "alent": 1981,
      "rele": 1982,
      "reli": 1983,
      "reet": 1984,
      "redu": 1985,
      "reform": 1986,
      "reco": 1987,
      "naal": 1988,
      "ision": 1989,
      "around": 1990,
      "tice": 1991,
      "tific": 1992,
      "tired": 1993,
      "ticip": 1994,
      "itten": 1995,
      "itual": 1996,
      "stop": 1997,
      "met": 1998,
      "mela": 1999,
      "elt": 2000,
      "kudi": 2001,
      "ently": 2002,
      "adha": 2003,
      "ries": 2004,
      "rai": 2005,
      "ids": 2006,
      "YouTu": 2007,
      "imag": 2008,
      "pog": 2009,
      "pogu": 2010,
      "politics": 2011,
      "hob": 2012,
      "hope": 2013,
      "percent": 2014,
      "perature": 2015,
      "extra": 2016,
      "condi": 2017,
      "moon": 2018,
      "moving": 2019,
      "movement": 2020,
      "model": 2021,
      "competi": 2022,
      "deal": 2023,
      "Whats": 2024,
      "Iniku": 2025,
      "sug": 2026,
      "ago": 2027,
      "yours": 2028,
      "There": 2029,
      "tention": 2030,
      "workers": 2031,
      "Deep": 2032,
      "joke": 2033,
      "akes": 2034,
      "buy": 2035,
      "bution": 2036,
      "ounds": 2037,
      "arden": 2038,
      "Comm": 2039,
      "own": 2040,
      "curity": 2041,
      "Week": 2042,
      "actly": 2043,
      "write": 2044,
      "surprise": 2045,
      "completely": 2046,
      "presence": 2047,
      "panuva": 2048,
      "paaku": 2049,
      "paakka": 2050,
      "sense": 2051,
      "protection": 2052,
      "plants": 2053,
      "Serious": 2054,
      "vandha": 2055,
      "vandhu": 2056,
      "college": 2057,
      "animal": 2058,
      "risk": 2059,
      "response": 2060,
      "Two": 2061,
      "drive": 2062,
      "situation": 2063,
      "nutrients": 2064,
      "depend": 2065,
      "reedom": 2066,
      "Promise": 2067,
      "seems": 2068,
      "Person": 2069,
      "piece": 2070,
      "YouTube": 2071,
      "AM": 2072,
      "Book": 2073,
      "CO": 2074,
      "Cooking": 2075,
      "Ena": 2076,
      "Fri": 2077,
      "Free": 2078,
      "Gover": 2079,
      "Genu": 2080,
      "Hand": 2081,
      "Is": 2082,
      "Jo": 2083,
      "Kar": 2084,
      "Lu": 2085,
      "Ment": 2086,
      "Madu": 2087,
      "Net": 2088,
      "Sha": 2089,
      "Tra": 2090,
      "Water": 2091,
      "Watch": 2092,
      "aver": 2093,
      "ben": 2094,
      "ctic": 2095,
      "cold": 2096,
      "ccess": 2097,
      "during": 2098,
      "dcast": 2099,
      "equal": 2100,
      "flo": 2101,
      "fas": 2102,
      "gs": 2103,
      "gam": 2104,
      "harm": 2105,
      "ient": 2106,
      "kita": 2107,
      "kaga": 2108,
      "ling": 2109,
      "mine": 2110,
      "non": 2111,
      "nice": 2112,
      "oid": 2113,
      "opport": 2114,
      "ping": 2115,
      "ption": 2116,
      "ring": 2117,
      "sam": 2118,
      "she": 2119,
      "squ": 2120,
      "site": 2121,
      "slowly": 2122,
      "table": 2123,
      "ually": 2124,
      "viru": 2125,
      "village": 2126,
      "winter": 2127,
      "ygen": 2128,
      "zh": 2129,
      "iny": 2130,
      "erc": 2131,
      "ert": 2132,
      "atk": 2133,
      "atitu": 2134,
      "ouch": 2135,
      "ref": 2136,
      "rece": 2137,
      "requ": 2138,
      "rection": 2139,
      "recomm": 2140,
      "rot": 2141,
      "iten": 2142,
      "itely": 2143,
      "iring": 2144,
      "oog": 2145,
      "chance": 2146,
      "choose": 2147,
      "tom": 2148,
      "lax": 2149,
      "kudu": 2150,
      "icate": 2151,
      "security": 2152,
      "advice": 2153,
      "adventure": 2154,
      "fection": 2155,
      "local": 2156,
      "Unnakku": 2157,
      "term": 2158,
      "teriyumaa": 2159,
      "aybe": 2160,
      "ury": 2161,
      "ident": 2162,
      "idence": 2163,
      "diy": 2164,
      "direct": 2165,
      "vendam": 2166,
      "impa": 2167,
      "pochu": 2168,
      "perform": 2169,
      "expla": 2170,
      "cipl": 2171,
      "team": 2172,
      "mode": 2173,
      "comb": 2174,
      "acti": 2175,
      "actions": 2176,
      "accept": 2177,
      "istent": 2178,
      "ustain": 2179,
      "avoid": 2180,
      "sition": 2181,
      "ager": 2182,
      "ills": 2183,
      "cket": 2184,
      "sharing": 2185,
      "butter": 2186,
      "needs": 2187,
      "option": 2188,
      "idea": 2189,
      "appear": 2190,
      "cream": 2191,
      "ific": 2192,
      "lue": 2193,
      "speak": 2194,
      "Reg": 2195,
      "training": 2196,
      "brary": 2197,
      "ctivity": 2198,
      "Working": 2199,
      "aaganum": 2200,
      "apy": 2201,
      "pring": 2202,
      "feelings": 2203,
      "handle": 2204,
      "selfie": 2205,
      "moments": 2206,
      "community": 2207,
      "waiting": 2208,
      "correct": 2209,
      "Once": 2210,
      "grand": 2211,
      "country": 2212,
      "blic": 2213,
      "temperature": 2214,
      "biryani": 2215,
      "telling": 2216,
      "nenachale": 2217,
      "protect": 2218,
      "ized": 2219,
      "ledge": 2220,
      "Sunday": 2221,
      "business": 2222,
      "pollution": 2223,
      "responsibility": 2224,
      "subscri": 2225,
      "nalla": 2226,
      "Friendship": 2227,
      "restaur": 2228,
      "ential": 2229,
      "signific": 2230,
      "Should": 2231,
      "charac": 2232,
      "flav": 2233,
      "switch": 2234,
      "Safe": 2235,
      "aayidu": 2236,
      "electric": 2237,
      "vaang": 2238,
      "Classic": 2239,
      "style": 2240,
      "allowing": 2241,
      "debate": 2242,
      "doubt": 2243,
      "Balance": 2244,
      "Under": 2245,
      "course": 2246,
      "WhatsApp": 2247,
      "Personal": 2248,
      "Friday": 2249,
      "Madurai": 2250,
      "atitude": 2251,
      "10": 2252,
      "30": 2253,
      "Bu": 2254,
      "Cur": 2255,
      "Dep": 2256,
      "Goog": 2257,
      "Hu": 2258,
      "Hel": 2259,
      "II": 2260,
      "IP": 2261,
      "Jour": 2262,
      "Kind": 2263,
      "Less": 2264,
      "NE": 2265,
      "Or": 2266,
      "Over": 2267,
      "Old": 2268,
      "Pa": 2269,
      "Pu": 2270,
      "Ram": 2271,
      "Rest": 2272,
      "Sw": 2273,
      "Sci": 2274,
      "Show": 2275,
      "Self": 2276,
      "Summer": 2277,
      "Satur": 2278,
      "Tr": 2279,
      "Tiru": 2280,
      "Up": 2281,
      "Vis": 2282,
      "Wake": 2283,
      "When": 2284,
      "Window": 2285,
      "aj": 2286,
      "cr": 2287,
      "ctical": 2288,
      "dh": 2289,
      "eco": 2290,
      "fli": 2291,
      "fac": 2292,
      "garden": 2293,
      "hion": 2294,
      "ila": 2295,
      "ible": 2296,
      "mill": 2297,
      "moun": 2298,
      "ned": 2299,
      "normal": 2300,
      "ote": 2301,
      "oint": 2302,
      "ology": 2303,
      "pet": 2304,
      "push": 2305,
      "rate": 2306,
      "schem": 2307,
      "screen": 2308,
      "tent": 2309,
      "tual": 2310,
      "tough": 2311,
      "touch": 2312,
      "wis": 2313,
      "yal": 2314,
      "zen": 2315,
      "anam": 2316,
      "ennoda": 2317,
      "ences": 2318,
      "environment": 2319,
      "atom": 2320,
      "aling": 2321,
      "alone": 2322,
      "recor": 2323,
      "retur": 2324,
      "ised": 2325,
      "titu": 2326,
      "amma": 2327,
      "itation": 2328,
      "itness": 2329,
      "star": 2330,
      "medi": 2331,
      "mell": 2332,
      "irl": 2333,
      "oom": 2334,
      "chut": 2335,
      "child": 2336,
      "town": 2337,
      "toward": 2338,
      "els": 2339,
      "ilar": 2340,
      "search": 2341,
      "hayam": 2342,
      "adm": 2343,
      "formed": 2344,
      "limb": 2345,
      "panni": 2346,
      "pannitu": 2347,
      "pannalam": 2348,
      "raw": 2349,
      "rass": 2350,
      "asing": 2351,
      "near": 2352,
      "pose": 2353,
      "poga": 2354,
      "beach": 2355,
      "because": 2356,
      "ength": 2357,
      "pain": 2358,
      "expect": 2359,
      "conta": 2360,
      "conser": 2361,
      "contri": 2362,
      "worry": 2363,
      "please": 2364,
      "comes": 2365,
      "compu": 2366,
      "maat": 2367,
      "theriyumaa": 2368,
      "account": 2369,
      "Inst": 2370,
      "takes": 2371,
      "ineering": 2372,
      "avy": 2373,
      "agram": 2374,
      "Three": 2375,
      "Think": 2376,
      "short": 2377,
      "got": 2378,
      "ups": 2379,
      "tension": 2380,
      "appoint": 2381,
      "Deal": 2382,
      "reading": 2383,
      "warm": 2384,
      "auto": 2385,
      "bring": 2386,
      "brand": 2387,
      "rene": 2388,
      "inside": 2389,
      "kada": 2390,
      "colate": 2391,
      "mark": 2392,
      "inting": 2393,
      "Comfort": 2394,
      "whenever": 2395,
      "versity": 2396,
      "versary": 2397,
      "price": 2398,
      "ireengala": 2399,
      "occas": 2400,
      "riculture": 2401,
      "lanket": 2402,
      "Today": 2403,
      "mostly": 2404,
      "sunrise": 2405,
      "written": 2406,
      "surround": 2407,
      "Philoso": 2408,
      "Early": 2409,
      "Produ": 2410,
      "aila": 2411,
      "fiel": 2412,
      "Pole": 2413,
      "varuva": 2414,
      "Smart": 2415,
      "party": 2416,
      "Impro": 2417,
      "senti": 2418,
      "Movie": 2419,
      "pensive": 2420,
      "pannuradhu": 2421,
      "improvement": 2422,
      "months": 2423,
      "cling": 2424,
      "Tea": 2425,
      "silence": 2426,
      "sounds": 2427,
      "traditional": 2428,
      "Hot": 2429,
      "Interesting": 2430,
      "designed": 2431,
      "green": 2432,
      "niversary": 2433,
      "Honesty": 2434,
      "chemical": 2435,
      "development": 2436,
      "meeting": 2437,
      "Growing": 2438,
      "frastructure": 2439,
      "company": 2440,
      "Peaceful": 2441,
      "attend": 2442,
      "cellent": 2443,
      "Tomorrow": 2444,
      "Digital": 2445,
      "beside": 2446,
      "candida": 2447,
      "vehicle": 2448,
      "Temple": 2449,
      "oxygen": 2450,
      "reduce": 2451,
      "recogn": 2452,
      "hobby": 2453,
      "competition": 2454,
      "Weekend": 2455,
      "Government": 2456,
      "benef": 2457,
      "impact": 2458,
      "significance": 2459,
      "Google": 2460,
      "schemes": 2461,
      "25": 2462,
      "AR": 2463,
      "Bl": 2464,
      "Cy": 2465,
      "Cho": 2466,
      "Come": 2467,
      "Culture": 2468,
      "Dr": 2469,
      "Din": 2470,
      "Day": 2471,
      "Did": 2472,
      "Edu": 2473,
      "Elect": 2474,
      "Fun": 2475,
      "Food": 2476,
      "Five": 2477,
      "Gre": 2478,
      "Get": 2479,
      "Give": 2480,
      "Hard": 2481,
      "Id": 2482,
      "Ja": 2483,
      "Job": 2484,
      "Light": 2485,
      "Lunch": 2486,
      "Mon": 2487,
      "NG": 2488,
      "Pla": 2489,
      "Pure": 2490,
      "Part": 2491,
      "Pass": 2492,
      "Plan": 2493,
      "Proud": 2494,
      "Rel": 2495,
      "Rural": 2496,
      "Running": 2497,
      "Sk": 2498,
      "Slowly": 2499,
      "Sustain": 2500,
      "Tang": 2501,
      "Use": 2502,
      "Vi": 2503,
      "Vir": 2504,
      "Vera": 2505,
      "Yen": 2506,
      "Zero": 2507,
      "cool": 2508,
      "came": 2509,
      "cris": 2510,
      "cooking": 2511,
      "dise": 2512,
      "equ": 2513,
      "fam": 2514,
      "fish": 2515,
      "file": 2516,
      "five": 2517,
      "fru": 2518,
      "felt": 2519,
      "ger": 2520,
      "gri": 2521,
      "glo": 2522,
      "gence": 2523,
      "ivery": 2524,
      "kit": 2525,
      "kanum": 2526,
      "kiss": 2527,
      "look": 2528,
      "lunch": 2529,
      "men": 2530,
      "multi": 2531,
      "money": 2532,
      "national": 2533,
      "pay": 2534,
      "ration": 2535,
      "rated": 2536,
      "sna": 2537,
      "sent": 2538,
      "sche": 2539,
      "smell": 2540,
      "task": 2541,
      "una": 2542,
      "vac": 2543,
      "vious": 2544,
      "viya": 2545,
      "wed": 2546,
      "wonderful": 2547,
      "xic": 2548,
      "anal": 2549,
      "anga": 2550,
      "ancial": 2551,
      "inct": 2552,
      "inking": 2553,
      "endar": 2554,
      "ata": 2555,
      "ats": 2556,
      "attention": 2557,
      "ony": 2558,
      "though": 2559,
      "recre": 2560,
      "research": 2561,
      "nam": 2562,
      "naatk": 2563,
      "role": 2564,
      "ister": 2565,
      "tire": 2566,
      "amount": 2567,
      "leave": 2568,
      "stage": 2569,
      "stress": 2570,
      "oot": 2571,
      "veget": 2572,
      "veengaa": 2573,
      "chain": 2574,
      "chap": 2575,
      "chedu": 2576,
      "lazy": 2577,
      "irupp": 2578,
      "kut": 2579,
      "enter": 2580,
      "seed": 2581,
      "sect": 2582,
      "ribution": 2583,
      "forward": 2584,
      "lio": 2585,
      "race": 2586,
      "oft": 2587,
      "utual": 2588,
      "irukena": 2589,
      "urs": 2590,
      "cts": 2591,
      "pannuveengaa": 2592,
      "ably": 2593,
      "direction": 2594,
      "pothe": 2595,
      "usion": 2596,
      "pace": 2597,
      "hot": 2598,
      "proper": 2599,
      "provide": 2600,
      "constant": 2601,
      "ures": 2602,
      "movies": 2603,
      "athi": 2604,
      "athing": 2605,
      "result": 2606,
      "doc": 2607,
      "doing": 2608,
      "loved": 2609,
      "quid": 2610,
      "quiet": 2611,
      "Inga": 2612,
      "ours": 2613,
      "supp": 2614,
      "agriculture": 2615,
      "lifetime": 2616,
      "goes": 2617,
      "goals": 2618,
      "aagudhu": 2619,
      "solution": 2620,
      "ideas": 2621,
      "aster": 2622,
      "ify": 2623,
      "speaking": 2624,
      "everyone": 2625,
      "matten": 2626,
      "trying": 2627,
      "changing": 2628,
      "Stay": 2629,
      "Stars": 2630,
      "series": 2631,
      "service": 2632,
      "insp": 2633,
      "insurance": 2634,
      "prep": 2635,
      "getting": 2636,
      "cap": 2637,
      "intel": 2638,
      "gene": 2639,
      "genre": 2640,
      "ketta": 2641,
      "pathy": 2642,
      "disappoint": 2643,
      "messages": 2644,
      "park": 2645,
      "parents": 2646,
      "particip": 2647,
      "Local": 2648,
      "vishayam": 2649,
      "aagum": 2650,
      "fiction": 2651,
      "Exam": 2652,
      "finish": 2653,
      "personal": 2654,
      "nervous": 2655,
      "standing": 2656,
      "Conf": 2657,
      "occur": 2658,
      "communication": 2659,
      "eduthu": 2660,
      "000": 2661,
      "diffic": 2662,
      "corn": 2663,
      "gram": 2664,
      "grateful": 2665,
      "strength": 2666,
      "difference": 2667,
      "consider": 2668,
      "watching": 2669,
      "Most": 2670,
      "shopping": 2671,
      "songs": 2672,
      "ization": 2673,
      "regulation": 2674,
      "saapida": 2675,
      "eaten": 2676,
      "Parents": 2677,
      "policy": 2678,
      "Meet": 2679,
      "Hope": 2680,
      "biggest": 2681,
      "excuse": 2682,
      "exciting": 2683,
      "kaadhali": 2684,
      "topics": 2685,
      "honesty": 2686,
      "concern": 2687,
      "developing": 2688,
      "Anything": 2689,
      "Gratitude": 2690,
      "drama": 2691,
      "transport": 2692,
      "comfortable": 2693,
      "definition": 2694,
      "listening": 2695,
      "Sollu": 2696,
      "similar": 2697,
      "treasure": 2698,
      "vachu": 2699,
      "oundation": 2700,
      "Multiple": 2701,
      "folio": 2702,
      "target": 2703,
      "measures": 2704,
      "approach": 2705,
      "valuable": 2706,
      "literature": 2707,
      "connected": 2708,
      "After": 2709,
      "Keep": 2710,
      "leaves": 2711,
      "stories": 2712,
      "second": 2713,
      "organiz": 2714,
      "hurt": 2715,
      "sides": 2716,
      "poguthe": 2717,
      "Joy": 2718,
      "square": 2719,
      "virupu": 2720,
      "ercise": 2721,
      "recommend": 2722,
      "restaurant": 2723,
      "Depends": 2724,
      "Saturday": 2725,
      "ecosystem": 2726,
      "wisdom": 2727,
      "Instagram": 2728,
      "Japan": 2729,
      "Tanglish": 2730,
      "famous": 2731,
      "scheme": 2732,
      "!!": 2733,
      "50": 2734,
      "AC": 2735,
      "Anna": 2736,
      "BG": 2737,
      "Bre": 2738,
      "Bus": 2739,
      "Bang": 2740,
      "CS": 2741,
      "Cor": 2742,
      "Cle": 2743,
      "Cand": 2744,
      "Cri": 2745,
      "City": 2746,
      "Dire": 2747,
      "Doc": 2748,
      "Epp": 2749,
      "Emo": 2750,
      "EMI": 2751,
      "Fa": 2752,
      "Fish": 2753,
      "Hal": 2754,
      "Min": 2755,
      "Mil": 2756,
      "Mom": 2757,
      "Mag": 2758,
      "Mind": 2759,
      "Make": 2760,
      "NR": 2761,
      "Non": 2762,
      "Nature": 2763,
      "Normal": 2764,
      "Namma": 2765,
      "Oc": 2766,
      "Of": 2767,
      "PF": 2768,
      "PR": 2769,
      "Pan": 2770,
      "Pol": 2771,
      "Port": 2772,
      "Photo": 2773,
      "Qual": 2774,
      "Raj": 2775,
      "Sy": 2776,
      "Sen": 2777,
      "Sal": 2778,
      "Sna": 2779,
      "Sto": 2780,
      "Sil": 2781,
      "Sweet": 2782,
      "Sounds": 2783,
      "Space": 2784,
      "Try": 2785,
      "Una": 2786,
      "Vet": 2787,
      "Why": 2788,
      "Yo": 2789,
      "away": 2790,
      "bri": 2791,
      "bers": 2792,
      "cou": 2793,
      "cing": 2794,
      "cku": 2795,
      "cut": 2796,
      "cine": 2797,
      "cau": 2798,
      "card": 2799,
      "cision": 2800,
      "dle": 2801,
      "dest": 2802,
      "ez": 2803,
      "eas": 2804,
      "easy": 2805,
      "fle": 2806,
      "freedom": 2807,
      "game": 2808,
      "him": 2809,
      "hero": 2810,
      "ia": 2811,
      "ience": 2812,
      "ibility": 2813,
      "jaa": 2814,
      "kh": 2815,
      "lou": 2816,
      "lic": 2817,
      "mi": 2818,
      "mis": 2819,
      "mall": 2820,
      "mater": 2821,
      "north": 2822,
      "osa": 2823,
      "spo": 2824,
      "sport": 2825,
      "spring": 2826,
      "ted": 2827,
      "uku": 2828,
      "ught": 2829,
      "unakku": 2830,
      "wood": 2831,
      "wind": 2832,
      "wide": 2833,
      "wild": 2834,
      "walking": 2835,
      "anti": 2836,
      "anniversary": 2837,
      "ina": 2838,
      "inj": 2839,
      "inely": 2840,
      "invol": 2841,
      "instant": 2842,
      "dal": 2843,
      "ato": 2844,
      "atis": 2845,
      "atile": 2846,
      "thi": 2847,
      "really": 2848,
      "reaction": 2849,
      "ingers": 2850,
      "nar": 2851,
      "roo": 2852,
      "ross": 2853,
      "ising": 2854,
      "ises": 2855,
      "itage": 2856,
      "stric": 2857,
      "storm": 2858,
      "broad": 2859,
      "member": 2860,
      "irmed": 2861,
      "veenga": 2862,
      "cher": 2863,
      "illi": 2864,
      "verb": 2865,
      "verse": 2866,
      "iction": 2867,
      "icine": 2868,
      "enty": 2869,
      "hai": 2870,
      "ghter": 2871,
      "rice": 2872,
      "lot": 2873,
      "loss": 2874,
      "forest": 2875,
      "lives": 2876,
      "library": 2877,
      "ligence": 2878,
      "panniten": 2879,
      "etry": 2880,
      "terday": 2881,
      "irukanum": 2882,
      "necess": 2883,
      "unit": 2884,
      "uncertain": 2885,
      "noon": 2886,
      "note": 2887,
      "nology": 2888,
      "dig": 2889,
      "hemat": 2890,
      "veness": 2891,
      "imal": 2892,
      "poda": 2893,
      "podu": 2894,
      "podcast": 2895,
      "exper": 2896,
      "exactly": 2897,
      "conom": 2898,
      "conven": 2899,
      "ante": 2900,
      "cities": 2901,
      "ennakku": 2902,
      "trend": 2903,
      "mos": 2904,
      "mole": 2905,
      "combo": 2906,
      "deed": 2907,
      "machan": 2908,
      "soci": 2909,
      "social": 2910,
      "web": 2911,
      "weight": 2912,
      "theriyum": 2913,
      "therapy": 2914,
      "across": 2915,
      "resh": 2916,
      "quanti": 2917,
      "istor": 2918,
      "romantic": 2919,
      "tains": 2920,
      "avum": 2921,
      "availa": 2922,
      "suff": 2923,
      "illama": 2924,
      "emplo": 2925,
      "useful": 2926,
      "bute": 2927,
      "earch": 2928,
      "early": 2929,
      "soll": 2930,
      "created": 2931,
      "goods": 2932,
      "helped": 2933,
      "Everyone": 2934,
      "irukkiya": 2935,
      "match": 2936,
      "train": 2937,
      "known": 2938,
      "knowledge": 2939,
      "Environment": 2940,
      "Uni": 2941,
      "vara": 2942,
      "Stress": 2943,
      "Street": 2944,
      "descri": 2945,
      "reathe": 2946,
      "valid": 2947,
      "value": 2948,
      "setup": 2949,
      "genu": 2950,
      "gency": 2951,
      "sym": 2952,
      "symb": 2953,
      "paration": 2954,
      "angle": 2955,
      "version": 2956,
      "pick": 2957,
      "curry": 2958,
      "ficult": 2959,
      "apart": 2960,
      "missed": 2961,
      "mission": 2962,
      "puri": 2963,
      "Content": 2964,
      "cycle": 2965,
      "cycling": 2966,
      "ennaikum": 2967,
      "common": 2968,
      "clothes": 2969,
      "irundu": 2970,
      "organs": 2971,
      "mindset": 2972,
      "writing": 2973,
      "stuck": 2974,
      "Phys": 2975,
      "monit": 2976,
      "Positive": 2977,
      "comedy": 2978,
      "spir": 2979,
      "medical": 2980,
      "bike": 2981,
      "worldwide": 2982,
      "belief": 2983,
      "prompt": 2984,
      "conscious": 2985,
      "content": 2986,
      "control": 2987,
      "Sub": 2988,
      "Super": 2989,
      "effect": 2990,
      "effort": 2991,
      "photography": 2992,
      "improving": 2993,
      "regul": 2994,
      "related": 2995,
      "books": 2996,
      "holding": 2997,
      "laughter": 2998,
      "visited": 2999,
      "object": 3000,
      "shows": 3001,
      "ungga": 3002,
      "Engineering": 3003,
      "Friends": 3004,
      "Tech": 3005,
      "species": 3006,
      "Twenty": 3007,
      "delivery": 3008,
      "iety": 3009,
      "paathen": 3010,
      "technology": 3011,
      "yosikira": 3012,
      "video": 3013,
      "opening": 3014,
      "Anywhere": 3015,
      "Complex": 3016,
      "Complete": 3017,
      "organism": 3018,
      "heritage": 3019,
      "miles": 3020,
      "padichen": 3021,
      "salary": 3022,
      "roads": 3023,
      "beats": 3024,
      "definitely": 3025,
      "private": 3026,
      "views": 3027,
      "relationships": 3028,
      "filter": 3029,
      "ixed": 3030,
      "beginning": 3031,
      "teacher": 3032,
      "Bike": 3033,
      "Financial": 3034,
      "aluku": 3035,
      "limate": 3036,
      "Childhood": 3037,
      "continue": 3038,
      "...": 3039,
      "Tried": 3040,
      "Ready": 3041,
      "specifically": 3042,
      "Metro": 3043,
      "Strong": 3044,
      "government": 3045,
      "Difficult": 3046,
      "brave": 3047,
      "fessional": 3048,
      "purpose": 3049,
      "initiative": 3050,
      "Communication": 3051,
      "Genuine": 3052,
      "Lucky": 3053,
      "fashion": 3054,
      "opportunity": 3055,
      "performance": 3056,
      "activity": 3057,
      "aayiduchu": 3058,
      "electricity": 3059,
      "Journal": 3060,
      "Science": 3061,
      "record": 3062,
      "rassing": 3063,
      "conservation": 3064,
      "maaten": 3065,
      "Philosophy": 3066,
      "recognition": 3067,
      "Electric": 3068,
      "Green": 3069,
      "Idli": 3070,
      "Sustainable": 3071,
      "Virtual": 3072,
      "disease": 3073,
      "chapter": 3074,
      "document": 3075,
      "Meeting": 3076,
      "Clean": 3077,
      "Document": 3078,
      "Quality": 3079,
      "ezhu": 3080,
      "strict": 3081,
      "available": 3082,
      "symbol": 3083,
      "!,": 3084,
      "12": 3085,
      "15": 3086,
      "19": 3087,
      "Action": 3088,
      "By": 3089,
      "Bas": 3090,
      "Back": 3091,
      "Bud": 3092,
      "Bhar": 3093,
      "Ci": 3094,
      "Cer": 3095,
      "Cam": 3096,
      "Cas": 3097,
      "DS": 3098,
      "Dh": 3099,
      "Data": 3100,
      "Ef": 3101,
      "Even": 3102,
      "Fil": 3103,
      "Foc": 3104,
      "Forg": 3105,
      "Festival": 3106,
      "GP": 3107,
      "Gold": 3108,
      "HR": 3109,
      "Hy": 3110,
      "Hung": 3111,
      "House": 3112,
      "ID": 3113,
      "IS": 3114,
      "Ice": 3115,
      "Je": 3116,
      "Kon": 3117,
      "Kit": 3118,
      "Koda": 3119,
      "Lab": 3120,
      "Link": 3121,
      "MS": 3122,
      "Mic": 3123,
      "Mah": 3124,
      "Muru": 3125,
      "Mutual": 3126,
      "NA": 3127,
      "OM": 3128,
      "Open": 3129,
      "PC": 3130,
      "Pet": 3131,
      "Pop": 3132,
      "RO": 3133,
      "SS": 3134,
      "ST": 3135,
      "Sp": 3136,
      "Sam": 3137,
      "Set": 3138,
      "Sure": 3139,
      "Side": 3140,
      "Sai": 3141,
      "Sports": 3142,
      "SIP": 3143,
      "TR": 3144,
      "Tho": 3145,
      "Teach": 3146,
      "Ur": 3147,
      "Us": 3148,
      "Unakku": 3149,
      "Val": 3150,
      "Wi": 3151,
      "Who": 3152,
      "Wind": 3153,
      "Wonderful": 3154,
      "ax": 3155,
      "aut": 3156,
      "bat": 3157,
      "bel": 3158,
      "bum": 3159,
      "bill": 3160,
      "bile": 3161,
      "bak": 3162,
      "baby": 3163,
      "blue": 3164,
      "blanket": 3165,
      "breathe": 3166,
      "cam": 3167,
      "cir": 3168,
      "cla": 3169,
      "catch": 3170,
      "clar": 3171,
      "cultural": 3172,
      "dress": 3173,
      "eth": 3174,
      "ect": 3175,
      "event": 3176,
      "econom": 3177,
      "fro": 3178,
      "fur": 3179,
      "fig": 3180,
      "flu": 3181,
      "gment": 3182,
      "gious": 3183,
      "ior": 3184,
      "iving": 3185,
      "ials": 3186,
      "ikan": 3187,
      "ji": 3188,
      "ko": 3189,
      "kids": 3190,
      "lon": 3191,
      "lines": 3192,
      "mal": 3193,
      "mus": 3194,
      "mass": 3195,
      "maybe": 3196,
      "nic": 3197,
      "nance": 3198,
      "nual": 3199,
      "nick": 3200,
      "oppo": 3201,
      "pid": 3202,
      "patter": 3203,
      "ror": 3204,
      "rand": 3205,
      "rul": 3206,
      "run": 3207,
      "rates": 3208,
      "sir": 3209,
      "sour": 3210,
      "slow": 3211,
      "talking": 3212,
      "talent": 3213,
      "tiny": 3214,
      "vil": 3215,
      "vate": 3216,
      "whe": 3217,
      "wise": 3218,
      "wali": 3219,
      "xiety": 3220,
      "zz": 3221,
      "zero": 3222,
      "ansition": 3223,
      "inary": 3224,
      "inste": 3225,
      "infrastructure": 3226,
      "insect": 3227,
      "ense": 3228,
      "ership": 3229,
      "ermin": 3230,
      "aturing": 3231,
      "atmos": 3232,
      "ond": 3233,
      "thar": 3234,
      "thod": 3235,
      "almost": 3236,
      "replace": 3237,
      "represent": 3238,
      "ese": 3239,
      "esh": 3240,
      "room": 3241,
      "roof": 3242,
      "roid": 3243,
      "aran": 3244,
      "itam": 3245,
      "itta": 3246,
      "itself": 3247,
      "stream": 3248,
      "stability": 3249,
      "stars": 3250,
      "mel": 3251,
      "meant": 3252,
      "method": 3253,
      "irm": 3254,
      "ooth": 3255,
      "edIn": 3256,
      "told": 3257,
      "law": 3258,
      "lake": 3259,
      "irun": 3260,
      "vert": 3261,
      "verte": 3262,
      "entists": 3263,
      "sea": 3264,
      "seat": 3265,
      "sector": 3266,
      "havi": 3267,
      "featuring": 3268,
      "liday": 3269,
      "whatever": 3270,
      "pannen": 3271,
      "omes": 3272,
      "rage": 3273,
      "offer": 3274,
      "assive": 3275,
      "netic": 3276,
      "unga": 3277,
      "urally": 3278,
      "keda": 3279,
      "kept": 3280,
      "kekka": 3281,
      "ared": 3282,
      "heard": 3283,
      "heavy": 3284,
      "vendiy": 3285,
      "images": 3286,
      "immedi": 3287,
      "pov": 3288,
      "poetry": 3289,
      "peat": 3290,
      "uses": 3291,
      "become": 3292,
      "behavi": 3293,
      "pack": 3294,
      "painting": 3295,
      "hosp": 3296,
      "holiday": 3297,
      "perspe": 3298,
      "expan": 3299,
      "exchange": 3300,
      "expensive": 3301,
      "alai": 3302,
      "cient": 3303,
      "without": 3304,
      "transition": 3305,
      "plit": 3306,
      "outside": 3307,
      "artistic": 3308,
      "moves": 3309,
      "mocra": 3310,
      "compass": 3311,
      "device": 3312,
      "maari": 3313,
      "weak": 3314,
      "gue": 3315,
      "guages": 3316,
      "acid": 3317,
      "access": 3318,
      "dosa": 3319,
      "doctor": 3320,
      "quote": 3321,
      "istency": 3322,
      "mentation": 3323,
      "Instant": 3324,
      "tag": 3325,
      "taste": 3326,
      "taught": 3327,
      "feels": 3328,
      "aching": 3329,
      "success": 3330,
      "agar": 3331,
      "planned": 3332,
      "international": 3333,
      "illness": 3334,
      "ieties": 3335,
      "emer": 3336,
      "pher": 3337,
      "philoso": 3338,
      "options": 3339,
      "update": 3340,
      "solar": 3341,
      "apps": 3342,
      "cred": 3343,
      "creating": 3344,
      "helpful": 3345,
      "astal": 3346,
      "boss": 3347,
      "board": 3348,
      "bodhu": 3349,
      "mani": 3350,
      "mango": 3351,
      "manager": 3352,
      "save": 3353,
      "luck": 3354,
      "someday": 3355,
      "interests": 3356,
      "mathemat": 3357,
      "Change": 3358,
      "iyar": 3359,
      "iyam": 3360,
      "bye": 3361,
      "Unga": 3362,
      "varen": 3363,
      "varieties": 3364,
      "places": 3365,
      "brate": 3366,
      "forms": 3367,
      "forming": 3368,
      "rench": 3369,
      "servic": 3370,
      "inspir": 3371,
      "precious": 3372,
      "colour": 3373,
      "caused": 3374,
      "elfare": 3375,
      "pathuku": 3376,
      "cared": 3377,
      "career": 3378,
      "carefully": 3379,
      "discipl": 3380,
      "ower": 3381,
      "checku": 3382,
      "Worth": 3383,
      "pride": 3384,
      "vision": 3385,
      "Beach": 3386,
      "Exc": 3387,
      "Experi": 3388,
      "minute": 3389,
      "missing": 3390,
      "prin": 3391,
      "Heart": 3392,
      "public": 3393,
      "smallest": 3394,
      "closing": 3395,
      "certific": 3396,
      "memorial": 3397,
      "skin": 3398,
      "heartbeat": 3399,
      "scene": 3400,
      "sunlight": 3401,
      "healthy": 3402,
      "Online": 3403,
      "naturally": 3404,
      "surpr": 3405,
      "Smile": 3406,
      "carry": 3407,
      "consum": 3408,
      "consistent": 3409,
      "distra": 3410,
      "distribution": 3411,
      "senses": 3412,
      "talks": 3413,
      "numbers": 3414,
      "twice": 3415,
      "protein": 3416,
      "Code": 3417,
      "photos": 3418,
      "habitat": 3419,
      "hydro": 3420,
      "ize": 3421,
      "region": 3422,
      "confirmed": 3423,
      "collection": 3424,
      "colleagu": 3425,
      "learned": 3426,
      "mbar": 3427,
      "reprene": 3428,
      "recipe": 3429,
      "busy": 3430,
      "clou": 3431,
      "subject": 3432,
      "Few": 3433,
      "Romantic": 3434,
      "Team": 3435,
      "silent": 3436,
      "Birthday": 3437,
      "porate": 3438,
      "Startup": 3439,
      "Ambi": 3440,
      "flowers": 3441,
      "points": 3442,
      "paathale": 3443,
      "Needs": 3444,
      "yosichen": 3445,
      "latest": 3446,
      "legacy": 3447,
      "charge": 3448,
      "logic": 3449,
      "logical": 3450,
      "forgettable": 3451,
      "unique": 3452,
      "Grand": 3453,
      "Leg": 3454,
      "Lead": 3455,
      "Research": 3456,
      "crack": 3457,
      "vidual": 3458,
      "choice": 3459,
      "powerful": 3460,
      "decide": 3461,
      "Price": 3462,
      "boring": 3463,
      "emotions": 3464,
      "emotional": 3465,
      "attery": 3466,
      "challeng": 3467,
      "skills": 3468,
      "milk": 3469,
      "situations": 3470,
      "companies": 3471,
      "doesn": 3472,
      "Solar": 3473,
      "badly": 3474,
      "patience": 3475,
      "magnetic": 3476,
      "currently": 3477,
      "Auto": 3478,
      "Diwali": 3479,
      "tonight": 3480,
      "tongue": 3481,
      "ysis": 3482,
      "limit": 3483,
      "fficient": 3484,
      "assistance": 3485,
      "Account": 3486,
      "Surprise": 3487,
      "harvest": 3488,
      "osity": 3489,
      "incident": 3490,
      "increase": 3491,
      "increasing": 3492,
      "projects": 3493,
      "achieve": 3494,
      "Reading": 3495,
      "kanavula": 3496,
      "Calcul": 3497,
      "Indust": 3498,
      "dishes": 3499,
      "reminder": 3500,
      "stocks": 3501,
      "stances": 3502,
      "popular": 3503,
      "answered": 3504,
      "blooded": 3505,
      "negotiable": 3506,
      "Agree": 3507,
      "Language": 3508,
      "savings": 3509,
      "individual": 3510,
      "release": 3511,
      "condition": 3512,
      "sugar": 3513,
      "dependent": 3514,
      "Enakum": 3515,
      "Mental": 3516,
      "Share": 3517,
      "Travel": 3518,
      "average": 3519,
      "zhun": 3520,
      "refers": 3521,
      "receive": 3522,
      "explain": 3523,
      "characters": 3524,
      "IIT": 3525,
      "Organ": 3526,
      "mountain": 3527,
      "chutten": 3528,
      "computer": 3529,
      "candidate": 3530,
      "benefit": 3531,
      "Dinner": 3532,
      "Education": 3533,
      "Getting": 3534,
      "crisis": 3535,
      "fruit": 3536,
      "tasks": 3537,
      "viously": 3538,
      "recreation": 3539,
      "vegetable": 3540,
      "chedule": 3541,
      "intelligence": 3542,
      "participate": 3543,
      "Confidence": 3544,
      "kaadhaliken": 3545,
      "Direct": 3546,
      "Eppavum": 3547,
      "Portfolio": 3548,
      "Salary": 3549,
      "brid": 3550,
      "osaurs": 3551,
      "necessary": 3552,
      "objects": 3553,
      "Basket": 3554,
      "Casual": 3555,
      "Kodaikan": 3556,
      "LinkedIn": 3557,
      "Murugan": 3558,
      "Popcorn": 3559,
      "Those": 3560,
      "Urban": 3561,
      "nickname": 3562,
      "rules": 3563,
      "vertebrate": 3564,
      "behavior": 3565,
      "mocracy": 3566,
      "services": 3567,
      "Kodaikanal": 3568,
      "14": 3569,
      "24": 3570,
      "40": 3571,
      "45": 3572,
      "60": 3573,
      "80": 3574,
      "90": 3575,
      "Ay": 3576,
      "Avo": 3577,
      "Actions": 3578,
      "BI": 3579,
      "BP": 3580,
      "Belie": 3581,
      "Bounda": 3582,
      "Blue": 3583,
      "CA": 3584,
      "CR": 3585,
      "Cu": 3586,
      "Chat": 3587,
      "Coun": 3588,
      "Cap": 3589,
      "Cultural": 3590,
      "Dar": 3591,
      "Del": 3592,
      "Dad": 3593,
      "Dest": 3594,
      "Done": 3595,
      "DNA": 3596,
      "EL": 3597,
      "EV": 3598,
      "End": 3599,
      "Each": 3600,
      "Ess": 3601,
      "Easy": 3602,
      "FA": 3603,
      "FD": 3604,
      "Fr": 3605,
      "From": 3606,
      "Fast": 3607,
      "Fake": 3608,
      "Formal": 3609,
      "Fail": 3610,
      "Freedom": 3611,
      "Fixed": 3612,
      "French": 3613,
      "Grou": 3614,
      "Gener": 3615,
      "Hor": 3616,
      "Har": 3617,
      "Hum": 3618,
      "Hear": 3619,
      "History": 3620,
      "Histor": 3621,
      "IR": 3622,
      "If": 3623,
      "Kan": 3624,
      "Kum": 3625,
      "Later": 3626,
      "Maybe": 3627,
      "Nat": 3628,
      "OT": 3629,
      "Oh": 3630,
      "Pl": 3631,
      "Pon": 3632,
      "Ple": 3633,
      "Pong": 3634,
      "Pack": 3635,
      "Power": 3636,
      "Ris": 3637,
      "Sad": 3638,
      "Say": 3639,
      "Sim": 3640,
      "Send": 3641,
      "Screen": 3642,
      "TV": 3643,
      "Talk": 3644,
      "Tree": 3645,
      "Tired": 3646,
      "Tax": 3647,
      "Ve": 3648,
      "Vol": 3649,
      "Valent": 3650,
      "VID": 3651,
      "Wr": 3652,
      "Winter": 3653,
      "Warm": 3654,
      "Where": 3655,
      "Whi": 3656,
      "Yenna": 3657,
      "Year": 3658,
      "aven": 3659,
      "ahead": 3660,
      "abroad": 3661,
      "band": 3662,
      "bla": 3663,
      "bil": 3664,
      "bag": 3665,
      "bold": 3666,
      "bless": 3667,
      "brain": 3668,
      "cin": 3669,
      "chat": 3670,
      "cure": 3671,
      "cere": 3672,
      "cry": 3673,
      "crow": 3674,
      "cated": 3675,
      "cular": 3676,
      "climb": 3677,
      "climate": 3678,
      "dra": 3679,
      "dget": 3680,
      "danger": 3681,
      "ddle": 3682,
      "even": 3683,
      "eating": 3684,
      "eye": 3685,
      "far": 3686,
      "four": 3687,
      "fire": 3688,
      "frust": 3689,
      "fles": 3690,
      "flat": 3691,
      "fume": 3692,
      "fitness": 3693,
      "foundation": 3694,
      "gic": 3695,
      "gala": 3696,
      "gold": 3697,
      "gery": 3698,
      "girl": 3699,
      "ham": 3700,
      "hit": 3701,
      "hol": 3702,
      "iency": 3703,
      "jay": 3704,
      "jum": 3705,
      "jud": 3706,
      "kkum": 3707,
      "kav": 3708,
      "knew": 3709,
      "mam": 3710,
      "mit": 3711,
      "mary": 3712,
      "mouth": 3713,
      "nation": 3714,
      "noun": 3715,
      "nthes": 3716,
      "oh": 3717,
      "oing": 3718,
      "odi": 3719,
      "pi": 3720,
      "ped": 3721,
      "pore": 3722,
      "rang": 3723,
      "rating": 3724,
      "rush": 3725,
      "running": 3726,
      "sli": 3727,
      "sess": 3728,
      "sity": 3729,
      "snow": 3730,
      "stic": 3731,
      "sell": 3732,
      "sports": 3733,
      "soft": 3734,
      "satis": 3735,
      "sthi": 3736,
      "tor": 3737,
      "tro": 3738,
      "test": 3739,
      "took": 3740,
      "won": 3741,
      "went": 3742,
      "wers": 3743,
      "wins": 3744,
      "wings": 3745,
      "welfare": 3746,
      "xim": 3747,
      "ym": 3748,
      "ying": 3749,
      "yel": 3750,
      "yment": 3751,
      "yellam": 3752,
      "yond": 3753,
      "zes": 3754,
      "anj": 3755,
      "anxiety": 3756,
      "ined": 3757,
      "inction": 3758,
      "instru": 3759,
      "intake": 3760,
      "dalam": 3761,
      "ens": 3762,
      "ergy": 3763,
      "atic": 3764,
      "attra": 3765,
      "ators": 3766,
      "oro": 3767,
      "oration": 3768,
      "orange": 3769,
      "online": 3770,
      "outer": 3771,
      "alli": 3772,
      "alarm": 3773,
      "aloda": 3774,
      "rema": 3775,
      "recent": 3776,
      "relax": 3777,
      "reels": 3778,
      "reaching": 3779,
      "nav": 3780,
      "escal": 3781,
      "roll": 3782,
      "ison": 3783,
      "tig": 3784,
      "tial": 3785,
      "tight": 3786,
      "tips": 3787,
      "tivation": 3788,
      "least": 3789,
      "iter": 3790,
      "itment": 3791,
      "street": 3792,
      "panr": 3793,
      "pany": 3794,
      "meal": 3795,
      "melo": 3796,
      "iren": 3797,
      "ooper": 3798,
      "oosing": 3799,
      "edly": 3800,
      "editing": 3801,
      "charm": 3802,
      "choosing": 3803,
      "toxic": 3804,
      "labor": 3805,
      "elu": 3806,
      "ils": 3807,
      "ilgri": 3808,
      "ilience": 3809,
      "irupen": 3810,
      "kuren": 3811,
      "entreprene": 3812,
      "sem": 3813,
      "sequ": 3814,
      "select": 3815,
      "ading": 3816,
      "feet": 3817,
      "fective": 3818,
      "ried": 3819,
      "rious": 3820,
      "lose": 3821,
      "lock": 3822,
      "loans": 3823,
      "loyal": 3824,
      "lif": 3825,
      "lied": 3826,
      "litical": 3827,
      "liquid": 3828,
      "pannidu": 3829,
      "pannita": 3830,
      "omen": 3831,
      "ety": 3832,
      "tery": 3833,
      "terrace": 3834,
      "ppe": 3835,
      "ayal": 3836,
      "lywood": 3837,
      "oftw": 3838,
      "utral": 3839,
      "iruken": 3840,
      "irukkum": 3841,
      "olution": 3842,
      "ollywood": 3843,
      "uma": 3844,
      "umn": 3845,
      "unk": 3846,
      "union": 3847,
      "nose": 3848,
      "novel": 3849,
      "notice": 3850,
      "urn": 3851,
      "kek": 3852,
      "idum": 3853,
      "identi": 3854,
      "abs": 3855,
      "divid": 3856,
      "essert": 3857,
      "essential": 3858,
      "heat": 3859,
      "imming": 3860,
      "poten": 3861,
      "positive": 3862,
      "position": 3863,
      "usually": 3864,
      "becoming": 3865,
      "paat": 3866,
      "paid": 3867,
      "paper": 3868,
      "ithu": 3869,
      "ither": 3870,
      "promo": 3871,
      "provid": 3872,
      "program": 3873,
      "perman": 3874,
      "excellent": 3875,
      "exercise": 3876,
      "cier": 3877,
      "ennaku": 3878,
      "within": 3879,
      "tegr": 3880,
      "ples": 3881,
      "plets": 3882,
      "pleasure": 3883,
      "outdo": 3884,
      "move": 3885,
      "mobile": 3886,
      "compla": 3887,
      "dele": 3888,
      "devo": 3889,
      "decor": 3890,
      "mage": 3891,
      "wear": 3892,
      "thern": 3893,
      "guar": 3894,
      "guess": 3895,
      "accur": 3896,
      "resour": 3897,
      "resolution": 3898,
      "quick": 3899,
      "Indeed": 3900,
      "Independent": 3901,
      "tax": 3902,
      "Alright": 3903,
      "ustom": 3904,
      "while": 3905,
      "achu": 3906,
      "Neenga": 3907,
      "ongoing": 3908,
      "plans": 3909,
      "interpre": 3910,
      "internet": 3911,
      "iller": 3912,
      "cker": 3913,
      "embar": 3914,
      "empathy": 3915,
      "Ther": 3916,
      "Thinking": 3917,
      "igration": 3918,
      "phere": 3919,
      "phical": 3920,
      "ticular": 3921,
      "aditional": 3922,
      "solve": 3923,
      "goodbye": 3924,
      "helping": 3925,
      "smart": 3926,
      "workplace": 3927,
      "ification": 3928,
      "bow": 3929,
      "itecture": 3930,
      "elling": 3931,
      "Defin": 3932,
      "saved": 3933,
      "lucky": 3934,
      "everywhere": 3935,
      "irukkaan": 3936,
      "Relax": 3937,
      "Retire": 3938,
      "Remember": 3939,
      "wards": 3940,
      "knows": 3941,
      "changes": 3942,
      "jokes": 3943,
      "foods": 3944,
      "various": 3945,
      "gap": 3946,
      "rucial": 3947,
      "panlama": 3948,
      "friendly": 3949,
      "branch": 3950,
      "brilli": 3951,
      "formula": 3952,
      "State": 3953,
      "Stud": 3954,
      "type": 3955,
      "Anim": 3956,
      "Antar": 3957,
      "Annual": 3958,
      "gym": 3959,
      "rency": 3960,
      "budget": 3961,
      "notes": 3962,
      "kaila": 3963,
      "predat": 3964,
      "valle": 3965,
      "starting": 3966,
      "setting": 3967,
      "settle": 3968,
      "case": 3969,
      "synthes": 3970,
      "careful": 3971,
      "timing": 3972,
      "Company": 3973,
      "underground": 3974,
      "parties": 3975,
      "parison": 3976,
      "particular": 3977,
      "shape": 3978,
      "Words": 3979,
      "called": 3980,
      "calendar": 3981,
      "picnic": 3982,
      "Periyar": 3983,
      "visions": 3984,
      "wants": 3985,
      "assurance": 3986,
      "Exactly": 3987,
      "Excellent": 3988,
      "yesterday": 3989,
      "qualities": 3990,
      "Heaven": 3991,
      "hands": 3992,
      "puzz": 3993,
      "letters": 3994,
      "problems": 3995,
      "smaller": 3996,
      "languages": 3997,
      "irunden": 3998,
      "irundhu": 3999,
      "extreme": 4000,
      "practical": 4001,
      "Someday": 4002,
      "scary": 4003,
      "weekly": 4004,
      "groups": 4005,
      "nature": 4006,
      "saying": 4007,
      "surface": 4008,
      "stuff": 4009,
      "complex": 4010,
      "growth": 4011,
      "nenai": 4012,
      "preserve": 4013,
      "paadalam": 4014,
      "whole": 4015,
      "Post": 4016,
      "brella": 4017,
      "breathing": 4018,
      "central": 4019,
      "ferent": 4020,
      "spend": 4021,
      "medicine": 4022,
      "jective": 4023,
      "mudi": 4024,
      "saapt": 4025,
      "parts": 4026,
      "partner": 4027,
      "tempt": 4028,
      "temples": 4029,
      "bird": 4030,
      "believing": 4031,
      "carrying": 4032,
      "watched": 4033,
      "possibility": 4034,
      "Success": 4035,
      "largest": 4036,
      "Works": 4037,
      "farmers": 4038,
      "kanam": 4039,
      "sleepy": 4040,
      "sleeping": 4041,
      "regular": 4042,
      "asked": 4043,
      "confidence": 4044,
      "saapidu": 4045,
      "spaper": 4046,
      "spaces": 4047,
      "Sunset": 4048,
      "cuddle": 4049,
      "finds": 4050,
      "humans": 4051,
      "pesa": 4052,
      "poll": 4053,
      "substances": 4054,
      "studying": 4055,
      "produce": 4056,
      "productivity": 4057,
      "clean": 4058,
      "kkam": 4059,
      "scientists": 4060,
      "treating": 4061,
      "volution": 4062,
      "volume": 4063,
      "shoulder": 4064,
      "Starting": 4065,
      "Started": 4066,
      "Art": 4067,
      "Arctic": 4068,
      "clearly": 4069,
      "flower": 4070,
      "flowing": 4071,
      "giving": 4072,
      "greed": 4073,
      "paathutu": 4074,
      "afternoon": 4075,
      "BigBasket": 4076,
      "Learn": 4077,
      "Manager": 4078,
      "didn": 4079,
      "legs": 4080,
      "legend": 4081,
      "keeping": 4082,
      "connection": 4083,
      "concert": 4084,
      "concerns": 4085,
      "jobs": 4086,
      "Grateful": 4087,
      "Premi": 4088,
      "Respect": 4089,
      "craft": 4090,
      "hardest": 4091,
      "network": 4092,
      "chocolate": 4093,
      "decid": 4094,
      "decision": 4095,
      "appreciation": 4096,
      "Completely": 4097,
      "weekends": 4098,
      "Private": 4099,
      "emotion": 4100,
      "flying": 4101,
      "thanks": 4102,
      "thankful": 4103,
      "seriously": 4104,
      "organic": 4105,
      "meaningful": 4106,
      "Cannot": 4107,
      "Growth": 4108,
      "covering": 4109,
      "enakku": 4110,
      "secrets": 4111,
      "electron": 4112,
      "Market": 4113,
      "casional": 4114,
      "drop": 4115,
      "droplets": 4116,
      "patient": 4117,
      "magic": 4118,
      "magical": 4119,
      "generations": 4120,
      "biography": 4121,
      "Classical": 4122,
      "Doctor": 4123,
      "Final": 4124,
      "cross": 4125,
      "crops": 4126,
      "trees": 4127,
      "steps": 4128,
      "Consistency": 4129,
      "Accept": 4130,
      "Practical": 4131,
      "inclu": 4132,
      "dated": 4133,
      "measured": 4134,
      "gedy": 4135,
      "investment": 4136,
      "those": 4137,
      "thokkam": 4138,
      "leaving": 4139,
      "expressing": 4140,
      "compli": 4141,
      "governance": 4142,
      "Ungaloda": 4143,
      "Feeling": 4144,
      "secretly": 4145,
      "negotiate": 4146,
      "Distance": 4147,
      "Different": 4148,
      "PSC": 4149,
      "Ques": 4150,
      "Special": 4151,
      "detect": 4152,
      "determin": 4153,
      "fessor": 4154,
      "focus": 4155,
      "focused": 4156,
      "tools": 4157,
      "tification": 4158,
      "imaginary": 4159,
      "pogireengala": 4160,
      "conditions": 4161,
      "suggest": 4162,
      "vandhuchu": 4163,
      "COVID": 4164,
      "Netfli": 4165,
      "ctica": 4166,
      "directly": 4167,
      "appears": 4168,
      "countryside": 4169,
      "temperatures": 4170,
      "subscription": 4171,
      "character": 4172,
      "flavors": 4173,
      "Safety": 4174,
      "vaangitta": 4175,
      "Hub": 4176,
      "Kindness": 4177,
      "Overthinking": 4178,
      "Public": 4179,
      "Trans": 4180,
      "Traditional": 4181,
      "crush": 4182,
      "flies": 4183,
      "atoms": 4184,
      "returns": 4185,
      "children": 4186,
      "admire": 4187,
      "limbs": 4188,
      "rawing": 4189,
      "contact": 4190,
      "accountability": 4191,
      "marks": 4192,
      "priceless": 4193,
      "occasion": 4194,
      "Productivity": 4195,
      "fields": 4196,
      "Improving": 4197,
      "Chocolate": 4198,
      "Drama": 4199,
      "NGO": 4200,
      "Play": 4201,
      "Planning": 4202,
      "Useful": 4203,
      "Vijay": 4204,
      "global": 4205,
      "multiple": 4206,
      "sentence": 4207,
      "wedding": 4208,
      "analysis": 4209,
      "naatkalum": 4210,
      "kutty": 4211,
      "properties": 4212,
      "inspire": 4213,
      "disappointed": 4214,
      "difficult": 4215,
      "Mostly": 4216,
      "BGMI": 4217,
      "Critical": 4218,
      "Emotional": 4219,
      "Milk": 4220,
      "Magical": 4221,
      "NRI": 4222,
      "Occasional": 4223,
      "System": 4224,
      "Snacks": 4225,
      "destination": 4226,
      "easily": 4227,
      "flex": 4228,
      "jaasthi": 4229,
      "materials": 4230,
      "wildlife": 4231,
      "injury": 4232,
      "involving": 4233,
      "cherry": 4234,
      "digital": 4235,
      "podcasts": 4236,
      "experim": 4237,
      "quantity": 4238,
      "suffering": 4239,
      "apartment": 4240,
      "irunduchu": 4241,
      "Physics": 4242,
      "consciousness": 4243,
      "regulator": 4244,
      "organisms": 4245,
      "symbols": 4246,
      "Budget": 4247,
      "Civic": 4248,
      "Filter": 4249,
      "Focus": 4250,
      "Hungry": 4251,
      "ISRO": 4252,
      "Kitchen": 4253,
      "Teaching": 4254,
      "Valid": 4255,
      "further": 4256,
      "opposite": 4257,
      "random": 4258,
      "atmosphere": 4259,
      "laws": 4260,
      "vendiyiruku": 4261,
      "emergency": 4262,
      "checkup": 4263,
      "Experience": 4264,
      "hydrogen": 4265,
      "colleague": 4266,
      "Leadership": 4267,
      "Accountability": 4268,
      "Organic": 4269,
      "Avoid": 4270,
      "Dark": 4271,
      "Group": 4272,
      "OTT": 4273,
      "Please": 4274,
      "Pongal": 4275,
      "Risk": 4276,
      "Valentine": 4277,
      "Which": 4278,
      "flesh": 4279,
      "satisf": 4280,
      "remains": 4281,
      "melody": 4282,
      "ilgrimage": 4283,
      "sequence": 4284,
      "oftware": 4285,
      "accurate": 4286,
      "Student": 4287,
      "Antarctica": 4288,
      "synthesis": 4289,
      "Netflix": 4290,
      "16": 4291,
      "36": 4292,
      "500": 4293,
      "70": 4294,
      "AS": 4295,
      "As": 4296,
      "Aw": 4297,
      "Ada": 4298,
      "Are": 4299,
      "Ama": 4300,
      "Aust": 4301,
      "Ady": 4302,
      "Awareness": 4303,
      "Apart": 4304,
      "Amb": 4305,
      "ANG": 4306,
      "Agreed": 4307,
      "BS": 4308,
      "Bad": 4309,
      "Bab": 4310,
      "Bear": 4311,
      "Bright": 4312,
      "Brain": 4313,
      "Border": 4314,
      "Blanket": 4315,
      "Battery": 4316,
      "Care": 4317,
      "Cour": 4318,
      "Cry": 4319,
      "Creat": 4320,
      "Cric": 4321,
      "Cake": 4322,
      "Cred": 4323,
      "Count": 4324,
      "Clou": 4325,
      "DA": 4326,
      "Du": 4327,
      "Dal": 4328,
      "Des": 4329,
      "Dance": 4330,
      "Diet": 4331,
      "Drawing": 4332,
      "EE": 4333,
      "ET": 4334,
      "Ed": 4335,
      "Em": 4336,
      "Eat": 4337,
      "Ele": 4338,
      "Ever": 4339,
      "Epic": 4340,
      "Enakku": 4341,
      "Einste": 4342,
      "Embar": 4343,
      "Ezhun": 4344,
      "FH": 4345,
      "Fas": 4346,
      "Flow": 4347,
      "Farm": 4348,
      "Fair": 4349,
      "Follow": 4350,
      "Flat": 4351,
      "Fitness": 4352,
      "Foundation": 4353,
      "Fingers": 4354,
      "Fresh": 4355,
      "Ge": 4356,
      "Gam": 4357,
      "Git": 4358,
      "Gand": 4359,
      "Gra": 4360,
      "Gut": 4361,
      "God": 4362,
      "Gene": 4363,
      "Girl": 4364,
      "Hi": 4365,
      "Hab": 4366,
      "Hindi": 4367,
      "Ippo": 4368,
      "Ign": 4369,
      "Ju": 4370,
      "JEE": 4371,
      "Ker": 4372,
      "Kaa": 4373,
      "Know": 4374,
      "Kada": 4375,
      "Kollywood": 4376,
      "List": 4377,
      "Live": 4378,
      "Lau": 4379,
      "Law": 4380,
      "MB": 4381,
      "MF": 4382,
      "MG": 4383,
      "May": 4384,
      "Mid": 4385,
      "Munna": 4386,
      "Mus": 4387,
      "Mach": 4388,
      "Moun": 4389,
      "Mix": 4390,
      "Makes": 4391,
      "Massive": 4392,
      "Nu": 4393,
      "Ner": 4394,
      "Nay": 4395,
      "Nice": 4396,
      "National": 4397,
      "Nutri": 4398,
      "Nagar": 4399,
      "Oo": 4400,
      "Ola": 4401,
      "Ocean": 4402,
      "PI": 4403,
      "PO": 4404,
      "Py": 4405,
      "Pinterest": 4406,
      "Press": 4407,
      "Pati": 4408,
      "Prep": 4409,
      "Plat": 4410,
      "Rat": 4411,
      "Roo": 4412,
      "Red": 4413,
      "Rah": 4414,
      "Rice": 4415,
      "Relie": 4416,
      "Rich": 4417,
      "Rene": 4418,
      "SA": 4419,
      "Sing": 4420,
      "Sit": 4421,
      "Sri": 4422,
      "Sho": 4423,
      "Swe": 4424,
      "Soc": 4425,
      "Spir": 4426,
      "SCO": 4427,
      "Spring": 4428,
      "Sister": 4429,
      "Soft": 4430,
      "Scared": 4431,
      "TI": 4432,
      "Ter": 4433,
      "Ton": 4434,
      "Tough": 4435,
      "Tele": 4436,
      "Testing": 4437,
      "Thai": 4438,
      "US": 4439,
      "UNE": 4440,
      "UPSC": 4441,
      "Va": 4442,
      "Vo": 4443,
      "Vin": 4444,
      "Ver": 4445,
      "Vast": 4446,
      "Vote": 4447,
      "Wa": 4448,
      "Won": 4449,
      "Wed": 4450,
      "Wish": 4451,
      "Walk": 4452,
      "WFH": 4453,
      "Zep": 4454,
      "apo": 4455,
      "adays": 4456,
      "aale": 4457,
      "bs": 4458,
      "bing": 4459,
      "bed": 4460,
      "bay": 4461,
      "bly": 4462,
      "bul": 4463,
      "bour": 4464,
      "blow": 4465,
      "bally": 4466,
      "bright": 4467,
      "bank": 4468,
      "booking": 4469,
      "bicy": 4470,
      "cat": 4471,
      "cab": 4472,
      "cup": 4473,
      "core": 4474,
      "cery": 4475,
      "crust": 4476,
      "caste": 4477,
      "culation": 4478,
      "cooper": 4479,
      "custom": 4480,
      "crucial": 4481,
      "dedu": 4482,
      "drain": 4483,
      "dessert": 4484,
      "eer": 4485,
      "ego": 4486,
      "fa": 4487,
      "fr": 4488,
      "fill": 4489,
      "foot": 4490,
      "fingers": 4491,
      "gent": 4492,
      "gath": 4493,
      "hind": 4494,
      "hous": 4495,
      "hang": 4496,
      "hills": 4497,
      "ikum": 4498,
      "jus": 4499,
      "juni": 4500,
      "km": 4501,
      "kad": 4502,
      "kadha": 4503,
      "looking": 4504,
      "lict": 4505,
      "mas": 4506,
      "mid": 4507,
      "might": 4508,
      "mist": 4509,
      "muse": 4510,
      "munity": 4511,
      "mix": 4512,
      "migration": 4513,
      "nan": 4514,
      "nur": 4515,
      "nath": 4516,
      "ove": 4517,
      "oil": 4518,
      "oper": 4519,
      "ography": 4520,
      "poo": 4521,
      "pto": 4522,
      "pun": 4523,
      "pig": 4524,
      "pical": 4525,
      "pty": 4526,
      "pull": 4527,
      "ptom": 4528,
      "rin": 4529,
      "rit": 4530,
      "rist": 4531,
      "rup": 4532,
      "range": 4533,
      "ritual": 4534,
      "riller": 4535,
      "sou": 4536,
      "sum": 4537,
      "sation": 4538,
      "ske": 4539,
      "sus": 4540,
      "smo": 4541,
      "ssi": 4542,
      "scal": 4543,
      "split": 4544,
      "schedule": 4545,
      "tes": 4546,
      "tel": 4547,
      "taan": 4548,
      "tall": 4549,
      "tank": 4550,
      "tissues": 4551,
      "uti": 4552,
      "uel": 4553,
      "udy": 4554,
      "utions": 4555,
      "ufact": 4556,
      "vant": 4557,
      "vance": 4558,
      "vast": 4559,
      "vidu": 4560,
      "vitam": 4561,
      "wel": 4562,
      "wall": 4563,
      "wonder": 4564,
      "window": 4565,
      "yaan": 4566,
      "za": 4567,
      "zoo": 4568,
      "zone": 4569,
      "ancially": 4570,
      "ancient": 4571,
      "ini": 4572,
      "inv": 4573,
      "inten": 4574,
      "invent": 4575,
      "inju": 4576,
      "integr": 4577,
      "das": 4578,
      "dair": 4579,
      "dation": 4580,
      "dable": 4581,
      "enni": 4582,
      "enced": 4583,
      "eral": 4584,
      "atus": 4585,
      "atable": 4586,
      "attempt": 4587,
      "ordin": 4588,
      "thon": 4589,
      "thum": 4590,
      "thous": 4591,
      "thunder": 4592,
      "thair": 4593,
      "thale": 4594,
      "thalam": 4595,
      "alla": 4596,
      "alert": 4597,
      "repa": 4598,
      "repl": 4599,
      "retire": 4600,
      "reunion": 4601,
      "reassurance": 4602,
      "nadu": 4603,
      "naanum": 4604,
      "ester": 4605,
      "estic": 4606,
      "esome": 4607,
      "eswar": 4608,
      "rog": 4609,
      "rote": 4610,
      "roles": 4611,
      "rocks": 4612,
      "rocket": 4613,
      "rocery": 4614,
      "isi": 4615,
      "isine": 4616,
      "iscu": 4617,
      "arter": 4618,
      "arrang": 4619,
      "tile": 4620,
      "tizen": 4621,
      "ambi": 4622,
      "lement": 4623,
      "leaf": 4624,
      "left": 4625,
      "itter": 4626,
      "stel": 4627,
      "stood": 4628,
      "store": 4629,
      "stery": 4630,
      "states": 4631,
      "status": 4632,
      "meter": 4633,
      "meals": 4634,
      "ird": 4635,
      "irs": 4636,
      "youn": 4637,
      "veg": 4638,
      "vey": 4639,
      "veli": 4640,
      "aach": 4641,
      "edkar": 4642,
      "edible": 4643,
      "andi": 4644,
      "andra": 4645,
      "ceed": 4646,
      "chai": 4647,
      "chutu": 4648,
      "tox": 4649,
      "tock": 4650,
      "ilt": 4651,
      "irudh": 4652,
      "ica": 4653,
      "ices": 4654,
      "enting": 4655,
      "seen": 4656,
      "sever": 4657,
      "seas": 4658,
      "Ennaku": 4659,
      "Ennaiku": 4660,
      "theer": 4661,
      "theater": 4662,
      "theory": 4663,
      "hag": 4664,
      "hair": 4665,
      "addi": 4666,
      "admin": 4667,
      "adphone": 4668,
      "adline": 4669,
      "adverb": 4670,
      "adjective": 4671,
      "fecti": 4672,
      "rial": 4673,
      "ride": 4674,
      "rivers": 4675,
      "rift": 4676,
      "riosity": 4677,
      "loan": 4678,
      "lover": 4679,
      "load": 4680,
      "loving": 4681,
      "force": 4682,
      "lid": 4683,
      "lik": 4684,
      "lier": 4685,
      "lift": 4686,
      "lighter": 4687,
      "rapid": 4688,
      "pped": 4689,
      "lying": 4690,
      "offic": 4691,
      "ulen": 4692,
      "ulpt": 4693,
      "ulated": 4694,
      "uten": 4695,
      "utter": 4696,
      "ases": 4697,
      "asking": 4698,
      "asset": 4699,
      "aspect": 4700,
      "umer": 4701,
      "umbrella": 4702,
      "unte": 4703,
      "units": 4704,
      "unicate": 4705,
      "noise": 4706,
      "uram": 4707,
      "urban": 4708,
      "ctu": 4709,
      "cting": 4710,
      "ctors": 4711,
      "kekum": 4712,
      "kekku": 4713,
      "kekanum": 4714,
      "above": 4715,
      "dies": 4716,
      "dive": 4717,
      "diving": 4718,
      "dign": 4719,
      "diges": 4720,
      "dimen": 4721,
      "divisions": 4722,
      "dicherry": 4723,
      "heating": 4724,
      ".\"\"\"": 4725,
      "aana": 4726,
      "aanalum": 4727,
      "vendom": 4728,
      "impress": 4729,
      "imbat": 4730,
      "poven": 4731,
      "posi": 4732,
      "poka": 4733,
      "potu": 4734,
      "beyond": 4735,
      "engu": 4736,
      "engers": 4737,
      "page": 4738,
      "hole": 4739,
      "hoping": 4740,
      "prob": 4741,
      "pros": 4742,
      "proof": 4743,
      "profile": 4744,
      "professional": 4745,
      "proceed": 4746,
      "perfume": 4747,
      "Naanum": 4748,
      "cond": 4749,
      "conut": 4750,
      "antasy": 4751,
      "worries": 4752,
      "cific": 4753,
      "citizen": 4754,
      "tele": 4755,
      "tears": 4756,
      "ender": 4757,
      "ended": 4758,
      "trading": 4759,
      "fulness": 4760,
      "plic": 4761,
      "plus": 4762,
      "plication": 4763,
      "plementation": 4764,
      "arts": 4765,
      "moder": 4766,
      "motivation": 4767,
      "degre": 4768,
      "democracy": 4769,
      "detox": 4770,
      "maj": 4771,
      "soil": 4772,
      "guid": 4773,
      "acc": 4774,
      "acle": 4775,
      "acred": 4776,
      "resilience": 4777,
      "dog": 4778,
      "dogs": 4779,
      "doctors": 4780,
      "Notice": 4781,
      "quit": 4782,
      "romance": 4783,
      "Insur": 4784,
      "Invest": 4785,
      "Infrastructure": 4786,
      "nowadays": 4787,
      "taking": 4788,
      "taalum": 4789,
      "Almost": 4790,
      "ineer": 4791,
      "aves": 4792,
      "avathu": 4793,
      "whel": 4794,
      "white": 4795,
      "sia": 4796,
      "Near": 4797,
      "planes": 4798,
      "interact": 4799,
      "illam": 4800,
      "Thought": 4801,
      "shine": 4802,
      "shift": 4803,
      "earlier": 4804,
      "igation": 4805,
      "iggy": 4806,
      "phants": 4807,
      "aagutha": 4808,
      "due": 4809,
      "duven": 4810,
      "hello": 4811,
      "opy": 4812,
      "updated": 4813,
      "adiku": 4814,
      "solra": 4815,
      "sollan": 4816,
      "ideally": 4817,
      "creative": 4818,
      "goodnight": 4819,
      "ifts": 4820,
      "boat": 4821,
      "bother": 4822,
      "mandat": 4823,
      "manufact": 4824,
      "ellar": 4825,
      "Death": 4826,
      "saw": 4827,
      "ishna": 4828,
      "interested": 4829,
      "Recur": 4830,
      "Recent": 4831,
      "Regre": 4832,
      "Repeat": 4833,
      "Christ": 4834,
      "Chandra": 4835,
      "iled": 4836,
      "track": 4837,
      "traits": 4838,
      "traffic": 4839,
      "tracking": 4840,
      "tragedy": 4841,
      "changed": 4842,
      "oversight": 4843,
      "irukuva": 4844,
      "Unforgettable": 4845,
      "auth": 4846,
      "audi": 4847,
      "gazing": 4848,
      "vote": 4849,
      "ipuram": 4850,
      "reeze": 4851,
      "formal": 4852,
      "Stand": 4853,
      "Study": 4854,
      "vapor": 4855,
      "Anirudh": 4856,
      "built": 4857,
      "ptation": 4858,
      "Butter": 4859,
      "institu": 4860,
      "desire": 4861,
      "prevent": 4862,
      "tries": 4863,
      "triangle": 4864,
      "colors": 4865,
      "gets": 4866,
      "startup": 4867,
      "startups": 4868,
      "base": 4869,
      "marily": 4870,
      "cave": 4871,
      "cafe": 4872,
      "cape": 4873,
      "ctives": 4874,
      "experiences": 4875,
      "keta": 4876,
      "sycho": 4877,
      "cares": 4878,
      "display": 4879,
      "ows": 4880,
      "underwater": 4881,
      "ainja": 4882,
      "shake": 4883,
      "shapes": 4884,
      "newspaper": 4885,
      "versatile": 4886,
      "waterfall": 4887,
      "Logic": 4888,
      "primarily": 4889,
      "visual": 4890,
      "thuchu": 4891,
      "aagidu": 4892,
      "Being": 4893,
      "Ext": 4894,
      "Expensive": 4895,
      "Exercise": 4896,
      "apalli": 4897,
      "finance": 4898,
      "function": 4899,
      "airport": 4900,
      "anya": 4901,
      "anywhere": 4902,
      "happens": 4903,
      "code": 4904,
      "coastal": 4905,
      "print": 4906,
      "lightning": 4907,
      "solluven": 4908,
      "solluva": 4909,
      "Healing": 4910,
      "Headphone": 4911,
      "Library": 4912,
      "calls": 4913,
      "sweetest": 4914,
      "leton": 4915,
      "rics": 4916,
      "ricultural": 4917,
      "commer": 4918,
      "commitment": 4919,
      "clock": 4920,
      "reality": 4921,
      "realistic": 4922,
      "irundhen": 4923,
      "adequ": 4924,
      "extinction": 4925,
      "Toxic": 4926,
      "actually": 4927,
      "skip": 4928,
      "corporate": 4929,
      "scen": 4930,
      "score": 4931,
      "sculpt": 4932,
      "natic": 4933,
      "says": 4934,
      "surgery": 4935,
      "stud": 4936,
      "Proven": 4937,
      "Progress": 4938,
      "Professional": 4939,
      "counts": 4940,
      "fied": 4941,
      "fiber": 4942,
      "paak": 4943,
      "paaka": 4944,
      "paakira": 4945,
      "Podcast": 4946,
      "breath": 4947,
      "center": 4948,
      "century": 4949,
      "panrenaa": 4950,
      "varuven": 4951,
      "election": 4952,
      "elements": 4953,
      "halwa": 4954,
      "jection": 4955,
      "muah": 4956,
      "mudiy": 4957,
      "buildings": 4958,
      "affect": 4959,
      "affection": 4960,
      "ikuven": 4961,
      "worlds": 4962,
      "systems": 4963,
      "Loved": 4964,
      "Body": 4965,
      "carbon": 4966,
      "Implementation": 4967,
      "distur": 4968,
      "Movies": 4969,
      "Sug": 4970,
      "donation": 4971,
      "shoes": 4972,
      "Adventure": 4973,
      "Season": 4974,
      "Second": 4975,
      "yoga": 4976,
      "celebrated": 4977,
      "Coorg": 4978,
      "Coding": 4979,
      "Coimbat": 4980,
      "gravity": 4981,
      "photosynthesis": 4982,
      "perfectly": 4983,
      "mainly": 4984,
      "hygi": 4985,
      "hydr": 4986,
      "izza": 4987,
      "vandhen": 4988,
      "register": 4989,
      "relatable": 4990,
      "conflic": 4991,
      "conflict": 4992,
      "saapta": 4993,
      "atives": 4994,
      "ativity": 4995,
      "icken": 4996,
      "supporting": 4997,
      "Android": 4998,
      "Paris": 4999,
      "Sunrise": 5000,
      "clutter": 5001,
      "cule": 5002,
      "curious": 5003,
      "cuisine": 5004,
      "dinosaurs": 5005,
      "gestures": 5006,
      "pesu": 5007,
      "reasoning": 5008,
      "reasonable": 5009,
      "News": 5010,
      "discussing": 5011,
      "Memor": 5012,
      "nelveli": 5013,
      "shown": 5014,
      "showing": 5015,
      "levels": 5016,
      "ungs": 5017,
      "ungaluku": 5018,
      "irundhaal": 5019,
      "stronger": 5020,
      "People": 5021,
      "Romance": 5022,
      "silently": 5023,
      "chae": 5024,
      "poture": 5025,
      "pottu": 5026,
      "pottaalum": 5027,
      "product": 5028,
      "production": 5029,
      "worthy": 5030,
      "Hostel": 5031,
      "Happiness": 5032,
      "falling": 5033,
      "facts": 5034,
      "kko": 5035,
      "kkaga": 5036,
      "pora": 5037,
      "entire": 5038,
      "irukeenga": 5039,
      "excited": 5040,
      "conversations": 5041,
      "designs": 5042,
      "physic": 5043,
      "Arch": 5044,
      "Twitter": 5045,
      "flows": 5046,
      "given": 5047,
      "glacier": 5048,
      "passed": 5049,
      "passengers": 5050,
      "players": 5051,
      "yosichutten": 5052,
      "2020": 5053,
      "Biggest": 5054,
      "Mango": 5055,
      "fastest": 5056,
      "honestly": 5057,
      "videos": 5058,
      "unities": 5059,
      "universe": 5060,
      "keeps": 5061,
      "truly": 5062,
      "openly": 5063,
      "preference": 5064,
      "structures": 5065,
      "Precision": 5066,
      "Preparation": 5067,
      "Respon": 5068,
      "drink": 5069,
      "sional": 5070,
      "anuppi": 5071,
      "Priority": 5072,
      "basics": 5073,
      "domestic": 5074,
      "vanga": 5075,
      "vanced": 5076,
      "vanthuchu": 5077,
      "dard": 5078,
      "uruv": 5079,
      "exists": 5080,
      "Canada": 5081,
      "covered": 5082,
      "double": 5083,
      "fraction": 5084,
      "venuma": 5085,
      "privacy": 5086,
      "privately": 5087,
      "highway": 5088,
      "Got": 5089,
      "film": 5090,
      "journal": 5091,
      "nutrition": 5092,
      "vival": 5093,
      "addiction": 5094,
      "posting": 5095,
      "deeply": 5096,
      "generation": 5097,
      "generate": 5098,
      "Healthy": 5099,
      "biology": 5100,
      "truthfully": 5101,
      "Dog": 5102,
      "Medical": 5103,
      "Meditation": 5104,
      "Media": 5105,
      "vachirukken": 5106,
      "enjoyed": 5107,
      "alukku": 5108,
      "leads": 5109,
      "stays": 5110,
      "colorful": 5111,
      "Consistent": 5112,
      "Consumer": 5113,
      "continu": 5114,
      "Carbon": 5115,
      "Carnatic": 5116,
      "Trip": 5117,
      "banana": 5118,
      "achieving": 5119,
      "achievement": 5120,
      "approxim": 5121,
      "kanavu": 5122,
      "kanavulen": 5123,
      "Calendar": 5124,
      "dedicate": 5125,
      "plot": 5126,
      "ront": 5127,
      "investing": 5128,
      "reminds": 5129,
      "vehicles": 5130,
      "seconds": 5131,
      "population": 5132,
      "compounds": 5133,
      "Ungaluku": 5134,
      "lessons": 5135,
      "organize": 5136,
      "pudikumaa": 5137,
      "Agricultural": 5138,
      "Check": 5139,
      "Discus": 5140,
      "Quiet": 5141,
      "flood": 5142,
      "flour": 5143,
      "yaaru": 5144,
      "initially": 5145,
      "religious": 5146,
      "metro": 5147,
      "kudippe": 5148,
      "imagine": 5149,
      "percentage": 5150,
      "paakuven": 5151,
      "paakuveengala": 5152,
      "paakuren": 5153,
      "vandhucha": 5154,
      "Genuinely": 5155,
      "Mentor": 5156,
      "Traffic": 5157,
      "floor": 5158,
      "fascin": 5159,
      "gaming": 5160,
      "games": 5161,
      "opportunities": 5162,
      "samayal": 5163,
      "receiving": 5164,
      "requiring": 5165,
      "rotta": 5166,
      "rotating": 5167,
      "explaining": 5168,
      "combining": 5169,
      "butterfly": 5170,
      "Regular": 5171,
      "Understanding": 5172,
      "Buy": 5173,
      "Curd": 5174,
      "Current": 5175,
      "Huge": 5176,
      "Help": 5177,
      "IIM": 5178,
      "IPL": 5179,
      "Rameswar": 5180,
      "Swiggy": 5181,
      "Tirupati": 5182,
      "Tirunelveli": 5183,
      "Update": 5184,
      "Upskill": 5185,
      "Windows": 5186,
      "facing": 5187,
      "million": 5188,
      "millions": 5189,
      "mountains": 5190,
      "return": 5191,
      "titude": 5192,
      "childhood": 5193,
      "contribution": 5194,
      "contribute": 5195,
      "computers": 5196,
      "warmth": 5197,
      "kadai": 5198,
      "kadaisi": 5199,
      "occasions": 5200,
      "surrounded": 5201,
      "surroundings": 5202,
      "Product": 5203,
      "field": 5204,
      "candidates": 5205,
      "benefits": 5206,
      "Blink": 5207,
      "Cycle": 5208,
      "Comedy": 5209,
      "Drone": 5210,
      "Didn": 5211,
      "Monday": 5212,
      "Plastic": 5213,
      "Party": 5214,
      "Passport": 5215,
      "Relationship": 5216,
      "Skin": 5217,
      "globally": 5218,
      "mention": 5219,
      "snack": 5220,
      "snacks": 5221,
      "unaku": 5222,
      "vacation": 5223,
      "analy": 5224,
      "namma": 5225,
      "naatkal": 5226,
      "iruppen": 5227,
      "entertain": 5228,
      "seeds": 5229,
      "results": 5230,
      "inspired": 5231,
      "prepared": 5232,
      "capable": 5233,
      "genetic": 5234,
      "occurs": 5235,
      "difficul": 5236,
      "grammar": 5237,
      "transportation": 5238,
      "organized": 5239,
      "Break": 5240,
      "Bangal": 5241,
      "Faith": 5242,
      "Half": 5243,
      "Minimal": 5244,
      "Policy": 5245,
      "Photography": 5246,
      "Senior": 5247,
      "Yoga": 5248,
      "couple": 5249,
      "courage": 5250,
      "cinema": 5251,
      "misunderstanding": 5252,
      "instantly": 5253,
      "root": 5254,
      "uncertainty": 5255,
      "molecule": 5256,
      "society": 5257,
      "employment": 5258,
      "Environmental": 5259,
      "genuine": 5260,
      "genuinely": 5261,
      "symptom": 5262,
      "puriy": 5263,
      "monitor": 5264,
      "monitoring": 5265,
      "spiritual": 5266,
      "Strongly": 5267,
      "Journaling": 5268,
      "Background": 5269,
      "Bharat": 5270,
      "Certification": 5271,
      "Effective": 5272,
      "Forgive": 5273,
      "GPT": 5274,
      "Micro": 5275,
      "OMR": 5276,
      "TRAI": 5277,
      "Wife": 5278,
      "auty": 5279,
      "baked": 5280,
      "circle": 5281,
      "clarify": 5282,
      "economy": 5283,
      "frozen": 5284,
      "patterns": 5285,
      "eshwar": 5286,
      "rooftop": 5287,
      "melt": 5288,
      "kedacha": 5289,
      "immediately": 5290,
      "package": 5291,
      "hospital": 5292,
      "perspectives": 5293,
      "philosopher": 5294,
      "credit": 5295,
      "manikku": 5296,
      "inspiring": 5297,
      "discipline": 5298,
      "certificate": 5299,
      "surprised": 5300,
      "distraction": 5301,
      "cloud": 5302,
      "Priceless": 5303,
      "challenges": 5304,
      "harvesting": 5305,
      "Calculated": 5306,
      "Industrial": 5307,
      "bridge": 5308,
      "90s": 5309,
      "Believe": 5310,
      "Boundaries": 5311,
      "Essential": 5312,
      "Failure": 5313,
      "Natural": 5314,
      "Pondicherry": 5315,
      "Wherever": 5316,
      "black": 5317,
      "frustrated": 5318,
      "jump": 5319,
      "mammal": 5320,
      "tropical": 5321,
      "instructions": 5322,
      "recently": 5323,
      "relaxation": 5324,
      "escalate": 5325,
      "semma": 5326,
      "kekama": 5327,
      "potential": 5328,
      "promoting": 5329,
      "provides": 5330,
      "permanent": 5331,
      "outdoor": 5332,
      "delete": 5333,
      "devotion": 5334,
      "guarante": 5335,
      "embarrassing": 5336,
      "Therapy": 5337,
      "Definitely": 5338,
      "irukkaangala": 5339,
      "brilliant": 5340,
      "Animation": 5341,
      "valley": 5342,
      "puzzle": 5343,
      "saapiduveenga": 5344,
      "Premium": 5345,
      "electrons": 5346,
      "crossed": 5347,
      "including": 5348,
      "Transformation": 5349,
      "occasionally": 5350,
      "flexibility": 5351,
      "experiment": 5352,
      "satisfaction": 5353,
      "Adyar": 5354,
      "Apartment": 5355,
      "Ambedkar": 5356,
      "Crypto": 5357,
      "Cricket": 5358,
      "Credit": 5359,
      "Einstein": 5360,
      "Embarrassing": 5361,
      "Flowers": 5362,
      "Gandhi": 5363,
      "Ignore": 5364,
      "Kerala": 5365,
      "Listen": 5366,
      "Munnar": 5367,
      "Mountains": 5368,
      "Nuclear": 5369,
      "Nervous": 5370,
      "Nayan": 5371,
      "Ooty": 5372,
      "Pressure": 5373,
      "Platform": 5374,
      "Rahman": 5375,
      "Sitting": 5376,
      "Spiritual": 5377,
      "Tonight": 5378,
      "UNESCO": 5379,
      "Wedding": 5380,
      "Zepto": 5381,
      "bicycle": 5382,
      "gathering": 5383,
      "justice": 5384,
      "kadhal": 5385,
      "museum": 5386,
      "nanainja": 5387,
      "dairy": 5388,
      "ordinary": 5389,
      "thousand": 5390,
      "arranged": 5391,
      "rapidly": 5392,
      "unteer": 5393,
      "kekumbodhu": 5394,
      "dignity": 5395,
      "dimensional": 5396,
      "degrees": 5397,
      "Insurance": 5398,
      "mandatory": 5399,
      "manufacturing": 5400,
      "Recurring": 5401,
      "Coimbatore": 5402,
      "hygiene": 5403,
      "registered": 5404,
      "conflicts": 5405,
      "approximately": 5406,
      "Rameswaram": 5407,
      ").\"": 5408,
      "13": 5409,
      "17": 5410,
      "18": 5411,
      "1st": 5412,
      "21": 5413,
      "28": 5414,
      "2000": 5415,
      "2FA": 5416,
      "38": 5417,
      "3D": 5418,
      "400": 5419,
      "55": 5420,
      "63": 5421,
      "AP": 5422,
      "AT": 5423,
      "AW": 5424,
      "At": 5425,
      "Ath": 5426,
      "Ale": 5427,
      "Ast": 5428,
      "Aut": 5429,
      "Apo": 5430,
      "Aadi": 5431,
      "Aga": 5432,
      "Astr": 5433,
      "Amer": 5434,
      "Apol": 5435,
      "Active": 5436,
      "Aadha": 5437,
      "Atom": 5438,
      "Acts": 5439,
      "Asia": 5440,
      "BH": 5441,
      "BT": 5442,
      "Bat": 5443,
      "Bes": 5444,
      "Boo": 5445,
      "Bra": 5446,
      "Bore": 5447,
      "Bell": 5448,
      "Bless": 5449,
      "Bull": 5450,
      "Boring": 5451,
      "Burn": 5452,
      "Biscu": 5453,
      "Bhag": 5454,
      "Ca": 5455,
      "Cs": 5456,
      "Cou": 5457,
      "Cir": 5458,
      "Cla": 5459,
      "Cut": 5460,
      "Cine": 5461,
      "Could": 5462,
      "Cous": 5463,
      "Crow": 5464,
      "Cook": 5465,
      "Card": 5466,
      "Cool": 5467,
      "Citi": 5468,
      "Climate": 5469,
      "Close": 5470,
      "DC": 5471,
      "DM": 5472,
      "DP": 5473,
      "Det": 5474,
      "Date": 5475,
      "Dual": 5476,
      "ED": 5477,
      "Eld": 5478,
      "Ego": 5479,
      "Eco": 5480,
      "Emer": 5481,
      "Especi": 5482,
      "Elon": 5483,
      "Efficient": 5484,
      "ECR": 5485,
      "Either": 5486,
      "FI": 5487,
      "FS": 5488,
      "FX": 5489,
      "Fi": 5490,
      "Fo": 5491,
      "Fre": 5492,
      "Fli": 5493,
      "Fight": 5494,
      "Fine": 5495,
      "Find": 5496,
      "Fru": 5497,
      "Found": 5498,
      "Flight": 5499,
      "Frust": 5500,
      "Favorite": 5501,
      "Felt": 5502,
      "Foot": 5503,
      "Fusion": 5504,
      "FOM": 5505,
      "GM": 5506,
      "Gu": 5507,
      "Gla": 5508,
      "Glo": 5509,
      "Gig": 5510,
      "Game": 5511,
      "Garden": 5512,
      "Ganga": 5513,
      "GST": 5514,
      "Gym": 5515,
      "Grocery": 5516,
      "Guruv": 5517,
      "His": 5518,
      "Hus": 5519,
      "Hair": 5520,
      "Hack": 5521,
      "Hero": 5522,
      "Honey": 5523,
      "Homes": 5524,
      "Idhu": 5525,
      "Iron": 5526,
      "IMS": 5527,
      "ITR": 5528,
      "Jan": 5529,
      "Jud": 5530,
      "Junk": 5531,
      "Kal": 5532,
      "Kis": 5533,
      "Kha": 5534,
      "Kala": 5535,
      "Kep": 5536,
      "Kap": 5537,
      "Kyo": 5538,
      "Kalam": 5539,
      "Kanch": 5540,
      "Kids": 5541,
      "Kaver": 5542,
      "Kaila": 5543,
      "Kelu": 5544,
      "Kanya": 5545,
      "LD": 5546,
      "LR": 5547,
      "Low": 5548,
      "Lap": 5549,
      "Lada": 5550,
      "Mal": 5551,
      "Mes": 5552,
      "Mad": 5553,
      "Mall": 5554,
      "Math": 5555,
      "Mac": 5556,
      "Must": 5557,
      "Mater": 5558,
      "Mother": 5559,
      "Main": 5560,
      "Map": 5561,
      "Mani": 5562,
      "Mute": 5563,
      "Mud": 5564,
      "Matter": 5565,
      "Money": 5566,
      "Master": 5567,
      "Mixed": 5568,
      "MANG": 5569,
      "NC": 5570,
      "Nor": 5571,
      "Num": 5572,
      "Nav": 5573,
      "Nations": 5574,
      "Natur": 5575,
      "NPS": 5576,
      "Navy": 5577,
      "NSS": 5578,
      "Naale": 5579,
      "Nalla": 5580,
      "OO": 5581,
      "Op": 5582,
      "Out": 5583,
      "Pi": 5584,
      "Pen": 5585,
      "Pic": 5586,
      "Pun": 5587,
      "Pur": 5588,
      "Pres": 5589,
      "Padi": 5590,
      "Past": 5591,
      "Pink": 5592,
      "Patter": 5593,
      "Pula": 5594,
      "PPF": 5595,
      "PDS": 5596,
      "Pilgrimage": 5597,
      "Pizza": 5598,
      "RR": 5599,
      "Ret": 5600,
      "Rare": 5601,
      "Rank": 5602,
      "Redu": 5603,
      "Rush": 5604,
      "Room": 5605,
      "Ranj": 5606,
      "Router": 5607,
      "RTI": 5608,
      "SE": 5609,
      "Sou": 5610,
      "Sar": 5611,
      "Sti": 5612,
      "Span": 5613,
      "Sand": 5614,
      "Ste": 5615,
      "Snow": 5616,
      "Sav": 5617,
      "Sem": 5618,
      "Stra": 5619,
      "Sang": 5620,
      "Sele": 5621,
      "Stop": 5622,
      "Sila": 5623,
      "Schedu": 5624,
      "Split": 5625,
      "Schedule": 5626,
      "Software": 5627,
      "Sacred": 5628,
      "TC": 5629,
      "TS": 5630,
      "Tre": 5631,
      "Tel": 5632,
      "Test": 5633,
      "Tight": 5634,
      "Tag": 5635,
      "Till": 5636,
      "Top": 5637,
      "Treat": 5638,
      "Text": 5639,
      "Train": 5640,
      "Taste": 5641,
      "Talking": 5642,
      "Taking": 5643,
      "Takes": 5644,
      "Tata": 5645,
      "TCS": 5646,
      "Usu": 5647,
      "UMANG": 5648,
      "VR": 5649,
      "Var": 5650,
      "Ved": 5651,
      "Vel": 5652,
      "Vac": 5653,
      "Vide": 5654,
      "Voc": 5655,
      "Vari": 5656,
      "Village": 5657,
      "Vitam": 5658,
      "VFX": 5659,
      "War": 5660,
      "Way": 5661,
      "Was": 5662,
      "Want": 5663,
      "Wild": 5664,
      "Women": 5665,
      "Ye": 5666,
      "Zom": 5667,
      "ao": 5668,
      "az": 5669,
      "ais": 5670,
      "aid": 5671,
      "aple": 5672,
      "aqu": 5673,
      "aff": 5674,
      "aja": 5675,
      "aandi": 5676,
      "bna": 5677,
      "bam": 5678,
      "boo": 5679,
      "blo": 5680,
      "bur": 5681,
      "bone": 5682,
      "bread": 5683,
      "bies": 5684,
      "bought": 5685,
      "bounda": 5686,
      "battery": 5687,
      "breeze": 5688,
      "cance": 5689,
      "cater": 5690,
      "cante": 5691,
      "copy": 5692,
      "cows": 5693,
      "dul": 5694,
      "dut": 5695,
      "dum": 5696,
      "dhi": 5697,
      "dhen": 5698,
      "dden": 5699,
      "diction": 5700,
      "eg": 5701,
      "eti": 5702,
      "ech": 5703,
      "equality": 5704,
      "ecu": 5705,
      "efficient": 5706,
      "ezhun": 5707,
      "evolution": 5708,
      "fal": 5709,
      "fre": 5710,
      "fit": 5711,
      "fare": 5712,
      "fell": 5713,
      "fers": 5714,
      "fable": 5715,
      "fright": 5716,
      "fies": 5717,
      "fits": 5718,
      "ftop": 5719,
      "fusion": 5720,
      "fense": 5721,
      "fuel": 5722,
      "fantasy": 5723,
      "gor": 5724,
      "gon": 5725,
      "gal": 5726,
      "gel": 5727,
      "gad": 5728,
      "gut": 5729,
      "gation": 5730,
      "glow": 5731,
      "gely": 5732,
      "gang": 5733,
      "glass": 5734,
      "giri": 5735,
      "gills": 5736,
      "hr": 5737,
      "hor": 5738,
      "hon": 5739,
      "hoo": 5740,
      "hra": 5741,
      "hun": 5742,
      "hollow": 5743,
      "hung": 5744,
      "huru": 5745,
      "honey": 5746,
      "histor": 5747,
      "homes": 5748,
      "huten": 5749,
      "ier": 5750,
      "ipp": 5751,
      "iation": 5752,
      "ially": 5753,
      "ians": 5754,
      "ikes": 5755,
      "ibi": 5756,
      "ivity": 5757,
      "iPhone": 5758,
      "iveness": 5759,
      "jung": 5760,
      "jana": 5761,
      "ki": 5762,
      "ks": 5763,
      "kal": 5764,
      "kis": 5765,
      "kol": 5766,
      "kaan": 5767,
      "kart": 5768,
      "kine": 5769,
      "kking": 5770,
      "kite": 5771,
      "kida": 5772,
      "kward": 5773,
      "kram": 5774,
      "lation": 5775,
      "liness": 5776,
      "lungs": 5777,
      "mc": 5778,
      "mm": 5779,
      "mes": 5780,
      "mut": 5781,
      "mph": 5782,
      "mals": 5783,
      "mns": 5784,
      "mutual": 5785,
      "nin": 5786,
      "nor": 5787,
      "nis": 5788,
      "nity": 5789,
      "nical": 5790,
      "nization": 5791,
      "oor": 5792,
      "olog": 5793,
      "pH": 5794,
      "pm": 5795,
      "pad": 5796,
      "pom": 5797,
      "pum": 5798,
      "pho": 5799,
      "pill": 5800,
      "pite": 5801,
      "pound": 5802,
      "pute": 5803,
      "padu": 5804,
      "ptop": 5805,
      "pilgrimage": 5806,
      "psycho": 5807,
      "pkart": 5808,
      "rar": 5809,
      "rad": 5810,
      "rance": 5811,
      "rhy": 5812,
      "rative": 5813,
      "radhu": 5814,
      "rali": 5815,
      "rishna": 5816,
      "sis": 5817,
      "sit": 5818,
      "send": 5819,
      "spic": 5820,
      "siri": 5821,
      "sick": 5822,
      "spot": 5823,
      "sinc": 5824,
      "sustain": 5825,
      "scared": 5826,
      "sedly": 5827,
      "software": 5828,
      "tin": 5829,
      "tch": 5830,
      "tun": 5831,
      "ture": 5832,
      "tour": 5833,
      "tree": 5834,
      "tack": 5835,
      "tale": 5836,
      "trol": 5837,
      "tatk": 5838,
      "upon": 5839,
      "uva": 5840,
      "uthu": 5841,
      "unex": 5842,
      "vine": 5843,
      "vive": 5844,
      "vang": 5845,
      "vational": 5846,
      "win": 5847,
      "wage": 5848,
      "wable": 5849,
      "wire": 5850,
      "wrote": 5851,
      "xury": 5852,
      "yat": 5853,
      "yar": 5854,
      "yed": 5855,
      "yroid": 5856,
      "zer": 5857,
      "zon": 5858,
      "zation": 5859,
      "zart": 5860,
      "zhi": 5861,
      "ane": 5862,
      "anat": 5863,
      "anth": 5864,
      "anna": 5865,
      "anbe": 5866,
      "anup": 5867,
      "annel": 5868,
      "anuru": 5869,
      "anticip": 5870,
      "ancing": 5871,
      "andard": 5872,
      "inn": 5873,
      "inal": 5874,
      "inst": 5875,
      "insu": 5876,
      "inner": 5877,
      "incl": 5878,
      "inator": 5879,
      "intention": 5880,
      "infection": 5881,
      "informed": 5882,
      "influ": 5883,
      "inapalli": 5884,
      "daugh": 5885,
      "damental": 5886,
      "dably": 5887,
      "enth": 5888,
      "entha": 5889,
      "enities": 5890,
      "encla": 5891,
      "endation": 5892,
      "erves": 5893,
      "ervation": 5894,
      "atre": 5895,
      "atri": 5896,
      "atul": 5897,
      "atta": 5898,
      "ora": 5899,
      "orge": 5900,
      "orig": 5901,
      "ories": 5902,
      "orpho": 5903,
      "oni": 5904,
      "onso": 5905,
      "onies": 5906,
      "onial": 5907,
      "thm": 5908,
      "thrust": 5909,
      "thick": 5910,
      "ouble": 5911,
      "oufla": 5912,
      "along": 5913,
      "alright": 5914,
      "alty": 5915,
      "alama": 5916,
      "align": 5917,
      "algor": 5918,
      "reve": 5919,
      "redi": 5920,
      "repe": 5921,
      "reward": 5922,
      "replay": 5923,
      "review": 5924,
      "recycling": 5925,
      "reviews": 5926,
      "repeat": 5927,
      "revival": 5928,
      "ingredi": 5929,
      "naith": 5930,
      "naala": 5931,
      "nado": 5932,
      "naale": 5933,
      "naalum": 5934,
      "esthe": 5935,
      "escape": 5936,
      "rover": 5937,
      "rope": 5938,
      "robe": 5939,
      "romo": 5940,
      "rock": 5941,
      "rology": 5942,
      "rovil": 5943,
      "isal": 5944,
      "isper": 5945,
      "isure": 5946,
      "istr": 5947,
      "isions": 5948,
      "island": 5949,
      "arti": 5950,
      "arath": 5951,
      "aries": 5952,
      "arently": 5953,
      "arrog": 5954,
      "araja": 5955,
      "til": 5956,
      "tit": 5957,
      "tian": 5958,
      "tious": 5959,
      "tiru": 5960,
      "ticket": 5961,
      "tivational": 5962,
      "amp": 5963,
      "amph": 5964,
      "amps": 5965,
      "amenities": 5966,
      "amorpho": 5967,
      "leap": 5968,
      "leisure": 5969,
      "ites": 5970,
      "itar": 5971,
      "itary": 5972,
      "itals": 5973,
      "stom": 5974,
      "stly": 5975,
      "stab": 5976,
      "stance": 5977,
      "stadi": 5978,
      "stination": 5979,
      "straw": 5980,
      "stacle": 5981,
      "staple": 5982,
      "panum": 5983,
      "panru": 5984,
      "panels": 5985,
      "meat": 5986,
      "meta": 5987,
      "mechan": 5988,
      "memb": 5989,
      "metho": 5990,
      "iram": 5991,
      "irri": 5992,
      "irts": 5993,
      "ooting": 5994,
      "vech": 5995,
      "aaga": 5996,
      "aakuren": 5997,
      "eding": 5998,
      "edback": 5999,
      "andhuten": 6000,
      "cefully": 6001,
      "ceiving": 6002,
      "chor": 6003,
      "chest": 6004,
      "chromo": 6005,
      "tocol": 6006,
      "towards": 6007,
      "lai": 6008,
      "laama": 6009,
      "laptop": 6010,
      "elam": 6011,
      "elance": 6012,
      "iling": 6013,
      "ilities": 6014,
      "irum": 6015,
      "vera": 6016,
      "verter": 6017,
      "versi": 6018,
      "kuda": 6019,
      "icop": 6020,
      "icating": 6021,
      "icism": 6022,
      "icial": 6023,
      "entrance": 6024,
      "sec": 6025,
      "seven": 6026,
      "separ": 6027,
      "seek": 6028,
      "seating": 6029,
      "seats": 6030,
      "secure": 6031,
      "ionship": 6032,
      "Ennaikum": 6033,
      "theme": 6034,
      "theatre": 6035,
      "haha": 6036,
      "hack": 6037,
      "having": 6038,
      "haps": 6039,
      "ghters": 6040,
      "adh": 6041,
      "adds": 6042,
      "adjust": 6043,
      "fever": 6044,
      "feature": 6045,
      "rian": 6046,
      "rich": 6047,
      "rival": 6048,
      "location": 6049,
      "loween": 6050,
      "located": 6051,
      "forces": 6052,
      "forgot": 6053,
      "fordable": 6054,
      "lie": 6055,
      "liz": 6056,
      "lies": 6057,
      "liber": 6058,
      "lived": 6059,
      "pannra": 6060,
      "pannitten": 6061,
      "pannireengala": 6062,
      "pannanga": 6063,
      "pannunga": 6064,
      "ominator": 6065,
      "rap": 6066,
      "ras": 6067,
      "raper": 6068,
      "raph": 6069,
      "rasam": 6070,
      "raised": 6071,
      "raising": 6072,
      "raisal": 6073,
      "ets": 6074,
      "ettin": 6075,
      "tern": 6076,
      "ternat": 6077,
      "terns": 6078,
      "territ": 6079,
      "lyrics": 6080,
      "ulary": 6081,
      "utor": 6082,
      "uted": 6083,
      "utur": 6084,
      "irukanam": 6085,
      "ased": 6086,
      "asant": 6087,
      "asso": 6088,
      "aside": 6089,
      "asive": 6090,
      "aspora": 6091,
      "neigh": 6092,
      "neutral": 6093,
      "olester": 6094,
      "umni": 6095,
      "umably": 6096,
      "unmatch": 6097,
      "unforgettable": 6098,
      "estates": 6099,
      "gebra": 6100,
      "notic": 6101,
      "keka": 6102,
      "keenga": 6103,
      "kekk": 6104,
      "kekanam": 6105,
      "idra": 6106,
      "idity": 6107,
      "idhu": 6108,
      "idents": 6109,
      "idering": 6110,
      "pannuthe": 6111,
      "pannuchu": 6112,
      "Youth": 6113,
      "absolutely": 6114,
      "diet": 6115,
      "diag": 6116,
      "dives": 6117,
      "diox": 6118,
      "diversity": 6119,
      "difies": 6120,
      "aree": 6121,
      "ares": 6122,
      "hearing": 6123,
      "healing": 6124,
      "aanen": 6125,
      "aanga": 6126,
      "aanathu": 6127,
      "vention": 6128,
      "venue": 6129,
      "venient": 6130,
      "imum": 6131,
      "impossible": 6132,
      "immunity": 6133,
      "pod": 6134,
      "poor": 6135,
      "poly": 6136,
      "poche": 6137,
      "pothu": 6138,
      "powers": 6139,
      "political": 6140,
      "polaama": 6141,
      "poirum": 6142,
      "peare": 6143,
      "peak": 6144,
      "peyar": 6145,
      "usi": 6146,
      "usage": 6147,
      "bee": 6148,
      "been": 6149,
      "bear": 6150,
      "became": 6151,
      "beauty": 6152,
      "engines": 6153,
      "engineering": 6154,
      "engineer": 6155,
      "paved": 6156,
      "padam": 6157,
      "parotta": 6158,
      "ithm": 6159,
      "ithai": 6160,
      "hop": 6161,
      "professor": 6162,
      "protocol": 6163,
      "perfection": 6164,
      "perceiving": 6165,
      "perhaps": 6166,
      "exp": 6167,
      "explan": 6168,
      "expen": 6169,
      "exerc": 6170,
      "contain": 6171,
      "congr": 6172,
      "concent": 6173,
      "convert": 6174,
      "anta": 6175,
      "antony": 6176,
      "ured": 6177,
      "ategy": 6178,
      "worst": 6179,
      "worse": 6180,
      "cies": 6181,
      "cium": 6182,
      "civic": 6183,
      "tein": 6184,
      "teenga": 6185,
      "endless": 6186,
      "trade": 6187,
      "trending": 6188,
      "trict": 6189,
      "trouble": 6190,
      "plat": 6191,
      "pleasant": 6192,
      "outing": 6193,
      "outcome": 6194,
      "moral": 6195,
      "mot": 6196,
      "mote": 6197,
      "mother": 6198,
      "motor": 6199,
      "modifies": 6200,
      "commission": 6201,
      "composition": 6202,
      "comparison": 6203,
      "composting": 6204,
      "death": 6205,
      "defic": 6206,
      "demon": 6207,
      "depos": 6208,
      "map": 6209,
      "max": 6210,
      "mast": 6211,
      "mail": 6212,
      "makh": 6213,
      "solid": 6214,
      "athum": 6215,
      "theriyam": 6216,
      "gunadu": 6217,
      "acknowledge": 6218,
      "accounts": 6219,
      "timeless": 6220,
      "timeline": 6221,
      "timelines": 6222,
      "reserve": 6223,
      "ressive": 6224,
      "resume": 6225,
      "kumari": 6226,
      "doist": 6227,
      "Notion": 6228,
      "Note": 6229,
      "Noise": 6230,
      "Nobody": 6231,
      "quakes": 6232,
      "quarter": 6233,
      "pond": 6234,
      "ponics": 6235,
      "mentary": 6236,
      "Inc": 6237,
      "Incre": 6238,
      "Inner": 6239,
      "Income": 6240,
      "Insp": 6241,
      "Inside": 6242,
      "ahh": 6243,
      "tap": 6244,
      "tast": 6245,
      "taiy": 6246,
      "tasty": 6247,
      "pannaan": 6248,
      "agement": 6249,
      "ageable": 6250,
      "Alone": 6251,
      "Alph": 6252,
      "Alarm": 6253,
      "Alco": 6254,
      "Alumni": 6255,
      "ustry": 6256,
      "whisper": 6257,
      "iceber": 6258,
      "such": 6259,
      "suppo": 6260,
      "sudden": 6261,
      "sible": 6262,
      "sizes": 6263,
      "Neigh": 6264,
      "Neutral": 6265,
      "aging": 6266,
      "aged": 6267,
      "agent": 6268,
      "agree": 6269,
      "agreed": 6270,
      "agraph": 6271,
      "myth": 6272,
      "portfolio": 6273,
      "plane": 6274,
      "internal": 6275,
      "interview": 6276,
      "emb": 6277,
      "ems": 6278,
      "empty": 6279,
      "Things": 6280,
      "Thirukku": 6281,
      "Thriller": 6282,
      "Third": 6283,
      "Thrift": 6284,
      "Thyroid": 6285,
      "Yesterday": 6286,
      "shi": 6287,
      "shan": 6288,
      "shall": 6289,
      "shifts": 6290,
      "indu": 6291,
      "index": 6292,
      "indicating": 6293,
      "industry": 6294,
      "ears": 6295,
      "earphone": 6296,
      "igai": 6297,
      "ignar": 6298,
      "phen": 6299,
      "phor": 6300,
      "phony": 6301,
      "ductor": 6302,
      "helicop": 6303,
      "irukaiya": 6304,
      "irukapothe": 6305,
      "upset": 6306,
      "upgr": 6307,
      "orean": 6308,
      "ometry": 6309,
      "dered": 6310,
      "derate": 6311,
      "sold": 6312,
      "solla": 6313,
      "solving": 6314,
      "solradhu": 6315,
      "ideology": 6316,
      "apple": 6317,
      "applied": 6318,
      "appeti": 6319,
      "cret": 6320,
      "creates": 6321,
      "creator": 6322,
      "creativity": 6323,
      "lower": 6324,
      "smooth": 6325,
      "smiling": 6326,
      "worked": 6327,
      "workout": 6328,
      "ifi": 6329,
      "boy": 6330,
      "boast": 6331,
      "bots": 6332,
      "bohydr": 6333,
      "manip": 6334,
      "itect": 6335,
      "itement": 6336,
      "Devo": 6337,
      "Develop": 6338,
      "Decision": 6339,
      "Democracy": 6340,
      "Deadline": 6341,
      "Declutter": 6342,
      "ishing": 6343,
      "ished": 6344,
      "Everyday": 6345,
      "Everywhere": 6346,
      "speech": 6347,
      "irukkaa": 6348,
      "cano": 6349,
      "Recycling": 6350,
      "Rejection": 6351,
      "Remote": 6352,
      "nights": 6353,
      "maten": 6354,
      "matic": 6355,
      "Cher": 6356,
      "Char": 6357,
      "Chill": 6358,
      "Chida": 6359,
      "Chicken": 6360,
      "Channel": 6361,
      "Chettin": 6362,
      "Cholester": 6363,
      "warming": 6364,
      "trap": 6365,
      "tract": 6366,
      "forehead": 6367,
      "knowing": 6368,
      "overnight": 6369,
      "overcoming": 6370,
      "overload": 6371,
      "overwhel": 6372,
      "jog": 6373,
      "Energy": 6374,
      "United": 6375,
      "authen": 6376,
      "varanum": 6377,
      "varies": 6378,
      "varai": 6379,
      "gave": 6380,
      "gaining": 6381,
      "voter": 6382,
      "voting": 6383,
      "plas": 6384,
      "ssil": 6385,
      "brings": 6386,
      "brunch": 6387,
      "Stability": 6388,
      "Standard": 6389,
      "vaikuven": 6390,
      "answers": 6391,
      "Anime": 6392,
      "Anniversary": 6393,
      "Ancient": 6394,
      "aker": 6395,
      "serv": 6396,
      "serve": 6397,
      "butions": 6398,
      "dreaming": 6399,
      "berry": 6400,
      "bersecurity": 6401,
      "bernation": 6402,
      "insult": 6403,
      "insists": 6404,
      "desk": 6405,
      "desired": 6406,
      "desert": 6407,
      "deserves": 6408,
      "kai": 6409,
      "kavey": 6410,
      "prec": 6411,
      "pred": 6412,
      "prey": 6413,
      "prepar": 6414,
      "prevents": 6415,
      "preparation": 6416,
      "previously": 6417,
      "tribute": 6418,
      "colonies": 6419,
      "starts": 6420,
      "bai": 6421,
      "mars": 6422,
      "marine": 6423,
      "marking": 6424,
      "marvel": 6425,
      "marandhuten": 6426,
      "cake": 6427,
      "causing": 6428,
      "intu": 6429,
      "intent": 6430,
      "pannuvenaa": 6431,
      "experienced": 6432,
      "ketu": 6433,
      "kettu": 6434,
      "ketaanga": 6435,
      "paths": 6436,
      "synon": 6437,
      "Yours": 6438,
      "irukkena": 6439,
      "careless": 6440,
      "discover": 6441,
      "disaster": 6442,
      "dismissed": 6443,
      "discharge": 6444,
      "dispute": 6445,
      "timist": 6446,
      "Coming": 6447,
      "Competi": 6448,
      "Comparison": 6449,
      "Compound": 6450,
      "owl": 6451,
      "arms": 6452,
      "understan": 6453,
      "parent": 6454,
      "paragraph": 6455,
      "angel": 6456,
      "angry": 6457,
      "angles": 6458,
      "cheap": 6459,
      "cheenga": 6460,
      "cheese": 6461,
      "implementation": 6462,
      "amai": 6463,
      "versal": 6464,
      "World": 6465,
      "calcul": 6466,
      "calculation": 6467,
      "wave": 6468,
      "watercraft": 6469,
      "Perman": 6470,
      "prior": 6471,
      "prime": 6472,
      "prize": 6473,
      "visible": 6474,
      "aagala": 6475,
      "aagitu": 6476,
      "aagiten": 6477,
      "aagidum": 6478,
      "Behind": 6479,
      "curd": 6480,
      "currency": 6481,
      "fictional": 6482,
      "Expect": 6483,
      "apdi": 6484,
      "finity": 6485,
      "financially": 6486,
      "funds": 6487,
      "functions": 6488,
      "airs": 6489,
      "aircraft": 6490,
      "airplane": 6491,
      "minal": 6492,
      "minimal": 6493,
      "anytime": 6494,
      "cozy": 6495,
      "ankly": 6496,
      "throughout": 6497,
      "lightly": 6498,
      "lightbul": 6499,
      "sollura": 6500,
      "solluvaan": 6501,
      "Living": 6502,
      "Lives": 6503,
      "Liquid": 6504,
      "Constru": 6505,
      "Consci": 6506,
      "Confl": 6507,
      "Control": 6508,
      "Convenient": 6509,
      "Contribute": 6510,
      "Weather": 6511,
      "sweets": 6512,
      "letting": 6513,
      "rica": 6514,
      "ricane": 6515,
      "commute": 6516,
      "communicate": 6517,
      "closer": 6518,
      "closure": 6519,
      "lantern": 6520,
      "extending": 6521,
      "Todoist": 6522,
      "pray": 6523,
      "praying": 6524,
      "edukk": 6525,
      "hike": 6526,
      "hiking": 6527,
      "hikar": 6528,
      "kespeare": 6529,
      "minded": 6530,
      "onesty": 6531,
      "hearts": 6532,
      "corner": 6533,
      "correction": 6534,
      "scar": 6535,
      "scraper": 6536,
      "sunshine": 6537,
      "healthcare": 6538,
      "specialty": 6539,
      "nume": 6540,
      "nuclear": 6541,
      "survive": 6542,
      "Mystery": 6543,
      "gratitude": 6544,
      "grown": 6545,
      "grows": 6546,
      "pressive": 6547,
      "thoughtful": 6548,
      "strument": 6549,
      "Pros": 6550,
      "Procra": 6551,
      "Propose": 6552,
      "Professor": 6553,
      "Protein": 6554,
      "counting": 6555,
      "countries": 6556,
      "fier": 6557,
      "fighters": 6558,
      "mony": 6559,
      "poses": 6560,
      "Poor": 6561,
      "Politics": 6562,
      "Political": 6563,
      "breaking": 6564,
      "centers": 6565,
      "comedian": 6566,
      "ference": 6567,
      "spin": 6568,
      "spread": 6569,
      "spider": 6570,
      "medication": 6571,
      "meditation": 6572,
      "varuche": 6573,
      "varudhu": 6574,
      "varuviya": 6575,
      "eled": 6576,
      "element": 6577,
      "haling": 6578,
      "mug": 6579,
      "joyful": 6580,
      "blind": 6581,
      "blings": 6582,
      "blush": 6583,
      "bloom": 6584,
      "ikuma": 6585,
      "rainy": 6586,
      "rainfall": 6587,
      "rainbow": 6588,
      "pected": 6589,
      "differences": 6590,
      "birth": 6591,
      "birds": 6592,
      "cars": 6593,
      "cargo": 6594,
      "carries": 6595,
      "carrot": 6596,
      "matham": 6597,
      "singing": 6598,
      "considering": 6599,
      "placement": 6600,
      "distinct": 6601,
      "sensation": 6602,
      "aleeshwar": 6603,
      "controver": 6604,
      "trustworthy": 6605,
      "Mozart": 6606,
      "Moderate": 6607,
      "Support": 6608,
      "larger": 6609,
      "largely": 6610,
      "numer": 6611,
      "peninsu": 6612,
      "penalty": 6613,
      "shock": 6614,
      "shops": 6615,
      "processing": 6616,
      "processes": 6617,
      "procession": 6618,
      "Advanced": 6619,
      "Secret": 6620,
      "proteins": 6621,
      "protective": 6622,
      "planted": 6623,
      "Covid": 6624,
      "Coastal": 6625,
      "Coconut": 6626,
      "effecti": 6627,
      "grass": 6628,
      "gracefully": 6629,
      "llabus": 6630,
      "habits": 6631,
      "offline": 6632,
      "farms": 6633,
      "hype": 6634,
      "hymns": 6635,
      "kanen": 6636,
      "vandhuru": 6637,
      "confident": 6638,
      "confidenti": 6639,
      "collections": 6640,
      "saapita": 6641,
      "saapidra": 6642,
      "saapteenga": 6643,
      "Colonial": 6644,
      "seeing": 6645,
      "seeking": 6646,
      "holds": 6647,
      "wellbeing": 6648,
      "animation": 6649,
      "reptile": 6650,
      "laughing": 6651,
      "monthly": 6652,
      "Andhra": 6653,
      "Park": 6654,
      "Parenting": 6655,
      "background": 6656,
      "backbone": 6657,
      "cles": 6658,
      "click": 6659,
      "ichen": 6660,
      "obviously": 6661,
      "obstacle": 6662,
      "odoro": 6663,
      "pesala": 6664,
      "pesanum": 6665,
      "rising": 6666,
      "responses": 6667,
      "substance": 6668,
      "submarine": 6669,
      "Soil": 6670,
      "Soci": 6671,
      "concepts": 6672,
      "Lifetime": 6673,
      "Apple": 6674,
      "Appreci": 6675,
      "Appraisal": 6676,
      "Feedback": 6677,
      "Illada": 6678,
      "agues": 6679,
      "silk": 6680,
      "silver": 6681,
      "restoration": 6682,
      "potato": 6683,
      "pottery": 6684,
      "pottiru": 6685,
      "products": 6686,
      "traditions": 6687,
      "wardrobe": 6688,
      "Birds": 6689,
      "bigger": 6690,
      "factual": 6691,
      "factors": 6692,
      "kkiren": 6693,
      "porom": 6694,
      "scienti": 6695,
      "treatment": 6696,
      "treatments": 6697,
      "volatile": 6698,
      "volcano": 6699,
      "excitement": 6700,
      "conversion": 6701,
      "Internet": 6702,
      "Interview": 6703,
      "manageable": 6704,
      "AIIMS": 6705,
      "Archae": 6706,
      "Homemade": 6707,
      "Timeless": 6708,
      "awesome": 6709,
      "nique": 6710,
      "passage": 6711,
      "passwords": 6712,
      "paarthu": 6713,
      "paarthale": 6714,
      "paathirukken": 6715,
      "technique": 6716,
      "signs": 6717,
      "hugging": 6718,
      "playground": 6719,
      "breakfast": 6720,
      "2025": 6721,
      "Manali": 6722,
      "Manageable": 6723,
      "Short": 6724,
      "Sharing": 6725,
      "lately": 6726,
      "virtual": 6727,
      "legal": 6728,
      "legedly": 6729,
      "logize": 6730,
      "exams": 6731,
      "concerning": 6732,
      "preferred": 6733,
      "Dreams": 6734,
      "Leh": 6735,
      "Resume": 6736,
      "classes": 6737,
      "classic": 6738,
      "cultures": 6739,
      "drinking": 6740,
      "flags": 6741,
      "nets": 6742,
      "enemy": 6743,
      "aried": 6744,
      "powered": 6745,
      "translate": 6746,
      "transfer": 6747,
      "decade": 6748,
      "decisions": 6749,
      "supernatural": 6750,
      "Collective": 6751,
      "Colleagues": 6752,
      "Abdul": 6753,
      "Missing": 6754,
      "adapt": 6755,
      "adache": 6756,
      "born": 6757,
      "borrow": 6758,
      "borhood": 6759,
      "bond": 6760,
      "bones": 6761,
      "bonds": 6762,
      "bonded": 6763,
      "domain": 6764,
      "emoji": 6765,
      "lands": 6766,
      "swings": 6767,
      "swallowing": 6768,
      "swimming": 6769,
      "schools": 6770,
      "vangu": 6771,
      "dards": 6772,
      "darnath": 6773,
      "darshan": 6774,
      "urukeenga": 6775,
      "exploration": 6776,
      "presented": 6777,
      "fixes": 6778,
      "Canva": 6779,
      "Force": 6780,
      "Forest": 6781,
      "Saved": 6782,
      "Truth": 6783,
      "coverage": 6784,
      "dense": 6785,
      "density": 6786,
      "denominator": 6787,
      "driving": 6788,
      "fractions": 6789,
      "military": 6790,
      "padichutten": 6791,
      "padicheenga": 6792,
      "salna": 6793,
      "salty": 6794,
      "salaried": 6795,
      "lectual": 6796,
      "aayidum": 6797,
      "companionship": 6798,
      "defines": 6799,
      "privile": 6800,
      "higher": 6801,
      "Goa": 6802,
      "Marie": 6803,
      "Marvel": 6804,
      "Marriage": 6805,
      "Marina": 6806,
      "Solutions": 6807,
      "Sleepy": 6808,
      "filled": 6809,
      "founder": 6810,
      "patients": 6811,
      "attack": 6812,
      "cells": 6813,
      "ictably": 6814,
      "addict": 6815,
      "fearless": 6816,
      "headphone": 6817,
      "teachers": 6818,
      "pudikkum": 6819,
      "biotic": 6820,
      "biological": 6821,
      "biodiversity": 6822,
      "1000": 6823,
      "Autom": 6824,
      "Aurovil": 6825,
      "Biology": 6826,
      "Biodi": 6827,
      "Finally": 6828,
      "Liter": 6829,
      "Medicine": 6830,
      "Yaaram": 6831,
      "Yaarum": 6832,
      "bargaining": 6833,
      "crop": 6834,
      "fancy": 6835,
      "fights": 6836,
      "simile": 6837,
      "vachurukeenga": 6838,
      "yaathu": 6839,
      "dataset": 6840,
      "enjoyment": 6841,
      "rolled": 6842,
      "leader": 6843,
      "leading": 6844,
      "staying": 6845,
      "oosebum": 6846,
      "limits": 6847,
      "Children": 6848,
      "fficiency": 6849,
      "assistant": 6850,
      "Constitu": 6851,
      "certainly": 6852,
      "skyscraper": 6853,
      "continent": 6854,
      "continents": 6855,
      "maintained": 6856,
      "Access": 6857,
      "Promising": 6858,
      "Surpr": 6859,
      "Surface": 6860,
      "Tommy": 6861,
      "Tomato": 6862,
      "balls": 6863,
      "crime": 6864,
      "critical": 6865,
      "fossil": 6866,
      "osis": 6867,
      "yeah": 6868,
      "these": 6869,
      "architecture": 6870,
      "soonnum": 6871,
      "queue": 6872,
      "approved": 6873,
      "joined": 6874,
      "periodic": 6875,
      "values": 6876,
      "angered": 6877,
      "literacy": 6878,
      "Africa": 6879,
      "Higher": 6880,
      "Index": 6881,
      "Indoor": 6882,
      "Kedarnath": 6883,
      "Strict": 6884,
      "aurant": 6885,
      "candy": 6886,
      "cules": 6887,
      "dedication": 6888,
      "textures": 6889,
      "anchor": 6890,
      "stock": 6891,
      "standards": 6892,
      "stores": 6893,
      "storage": 6894,
      "pannalaama": 6895,
      "populated": 6896,
      "expressed": 6897,
      "expression": 6898,
      "compares": 6899,
      "Ungga": 6900,
      "Ungalukku": 6901,
      "varuma": 6902,
      "scribe": 6903,
      "doubting": 6904,
      "negotiation": 6905,
      "Airport": 6906,
      "Airtel": 6907,
      "Chemis": 6908,
      "Discipl": 6909,
      "Distra": 6910,
      "Distribution": 6911,
      "Lanka": 6912,
      "Lanterns": 6913,
      "Role": 6914,
      "Road": 6915,
      "Specific": 6916,
      "cooker": 6917,
      "cookie": 6918,
      "flation": 6919,
      "fairy": 6920,
      "focusing": 6921,
      "fails": 6922,
      "failure": 6923,
      "gases": 6924,
      "hurricane": 6925,
      "juice": 6926,
      "juicy": 6927,
      "surely": 6928,
      "saving": 6929,
      "yaarum": 6930,
      "relevant": 6931,
      "reliable": 6932,
      "relief": 6933,
      "recovery": 6934,
      "kudika": 6935,
      "kudikka": 6936,
      "adhaan": 6937,
      "imagination": 6938,
      "pogom": 6939,
      "hobbies": 6940,
      "competitive": 6941,
      "Community": 6942,
      "vandhadhu": 6943,
      "dependency": 6944,
      "Enaku": 6945,
      "Enakkaga": 6946,
      "Freeze": 6947,
      "Karma": 6948,
      "Luxury": 6949,
      "Network": 6950,
      "Networking": 6951,
      "Shakespeare": 6952,
      "coldest": 6953,
      "equals": 6954,
      "float": 6955,
      "floating": 6956,
      "harmful": 6957,
      "harmony": 6958,
      "virus": 6959,
      "refresh": 6960,
      "require": 6961,
      "required": 6962,
      "recommendation": 6963,
      "kudutha": 6964,
      "ciples": 6965,
      "teams": 6966,
      "combination": 6967,
      "combined": 6968,
      "accepted": 6969,
      "acceptance": 6970,
      "butterflies": 6971,
      "appearing": 6972,
      "Regional": 6973,
      "protecting": 6974,
      "businesses": 6975,
      "subscriber": 6976,
      "restaurants": 6977,
      "flavor": 6978,
      "flavour": 6979,
      "switching": 6980,
      "aayiducha": 6981,
      "vaanganum": 6982,
      "Currency": 6983,
      "Hello": 6984,
      "Journey": 6985,
      "Lesson": 6986,
      "NEP": 6987,
      "NEET": 6988,
      "Ordered": 6989,
      "Overrated": 6990,
      "Restaurant": 6991,
      "Swimming": 6992,
      "Shows": 6993,
      "Visa": 6994,
      "Visited": 6995,
      "faces": 6996,
      "facility": 6997,
      "millenni": 6998,
      "petrol": 6999,
      "pushing": 7000,
      "recording": 7001,
      "stargazing": 7002,
      "medium": 7003,
      "chutney": 7004,
      "admiring": 7005,
      "nearby": 7006,
      "painful": 7007,
      "expecting": 7008,
      "expected": 7009,
      "expectation": 7010,
      "contagious": 7011,
      "conserve": 7012,
      "contributions": 7013,
      "maatiya": 7014,
      "shorts": 7015,
      "autobiography": 7016,
      "Comfortable": 7017,
      "surrounding": 7018,
      "Philosophical": 7019,
      "Improve": 7020,
      "improvements": 7021,
      "Hotel": 7022,
      "attended": 7023,
      "recognized": 7024,
      "Blood": 7025,
      "Bliss": 7026,
      "Cycling": 7027,
      "Cybersecurity": 7028,
      "Chosen": 7029,
      "Dinosaurs": 7030,
      "Educated": 7031,
      "Month": 7032,
      "Partner": 7033,
      "Proudest": 7034,
      "Vikram": 7035,
      "crisp": 7036,
      "equator": 7037,
      "fruits": 7038,
      "gripping": 7039,
      "kitte": 7040,
      "kitta": 7041,
      "multiplication": 7042,
      "paying": 7043,
      "sentences": 7044,
      "unakaga": 7045,
      "vacan": 7046,
      "vaccine": 7047,
      "recreational": 7048,
      "stressful": 7049,
      "kutti": 7050,
      "enterprise": 7051,
      "hotel": 7052,
      "properly": 7053,
      "constantly": 7054,
      "quietly": 7055,
      "supply": 7056,
      "suppress": 7057,
      "supplement": 7058,
      "prepare": 7059,
      "capital": 7060,
      "intellectual": 7061,
      "finished": 7062,
      "consideration": 7063,
      "kaadhalikkiren": 7064,
      "transporting": 7065,
      "recommended": 7066,
      "Japanese": 7067,
      "BGM": 7068,
      "Breathing": 7069,
      "Business": 7070,
      "Banginapalli": 7071,
      "CSK": 7072,
      "Corporate": 7073,
      "Corrup": 7074,
      "Candle": 7075,
      "Candles": 7076,
      "Failed": 7077,
      "Halloween": 7078,
      "Moments": 7079,
      "Mindfulness": 7080,
      "NRE": 7081,
      "Pannu": 7082,
      "Paneer": 7083,
      "Pollution": 7084,
      "Rajg": 7085,
      "Rajini": 7086,
      "Syllabus": 7087,
      "Stock": 7088,
      "Stoicism": 7089,
      "Silk": 7090,
      "Silver": 7091,
      "Unaku": 7092,
      "Unakaga": 7093,
      "Vettaiy": 7094,
      "Yojana": 7095,
      "cuts": 7096,
      "caution": 7097,
      "caught": 7098,
      "destiny": 7099,
      "easier": 7100,
      "flew": 7101,
      "heroine": 7102,
      "louder": 7103,
      "material": 7104,
      "spots": 7105,
      "spoken": 7106,
      "teddy": 7107,
      "winds": 7108,
      "injured": 7109,
      "atistics": 7110,
      "narrow": 7111,
      "narrative": 7112,
      "roots": 7113,
      "storms": 7114,
      "cherish": 7115,
      "forestation": 7116,
      "livestock": 7117,
      "digits": 7118,
      "podadha": 7119,
      "expert": 7120,
      "convenient": 7121,
      "convenience": 7122,
      "molecules": 7123,
      "website": 7124,
      "quantities": 7125,
      "suffer": 7126,
      "employe": 7127,
      "sollen": 7128,
      "Unique": 7129,
      "University": 7130,
      "Universal": 7131,
      "describes": 7132,
      "describing": 7133,
      "symphony": 7134,
      "purifier": 7135,
      "Contentment": 7136,
      "irunducha": 7137,
      "Physical": 7138,
      "spirit": 7139,
      "beliefs": 7140,
      "controlled": 7141,
      "Subsid": 7142,
      "Subscribe": 7143,
      "effects": 7144,
      "Technical": 7145,
      "documentary": 7146,
      "documentaries": 7147,
      "Documentary": 7148,
      "ezhudhu": 7149,
      "ezhuduven": 7150,
      "Bharathi": 7151,
      "Certain": 7152,
      "Camping": 7153,
      "DSLR": 7154,
      "Dhan": 7155,
      "Dhoni": 7156,
      "Forgiveness": 7157,
      "Hybrid": 7158,
      "Kondo": 7159,
      "Kongunadu": 7160,
      "Labour": 7161,
      "Mahal": 7162,
      "Spider": 7163,
      "Sambar": 7164,
      "Saiva": 7165,
      "Used": 7166,
      "belong": 7167,
      "bumper": 7168,
      "camera": 7169,
      "claim": 7170,
      "ethics": 7171,
      "eventually": 7172,
      "economics": 7173,
      "figure": 7174,
      "figures": 7175,
      "kodu": 7176,
      "musical": 7177,
      "muscular": 7178,
      "pattern": 7179,
      "runs": 7180,
      "source": 7181,
      "sources": 7182,
      "talented": 7183,
      "wheeled": 7184,
      "instead": 7185,
      "replaceable": 7186,
      "representing": 7187,
      "melts": 7188,
      "irunten": 7189,
      "irunthu": 7190,
      "immediate": 7191,
      "povaa": 7192,
      "hospitals": 7193,
      "perspective": 7194,
      "expand": 7195,
      "expansion": 7196,
      "acidic": 7197,
      "illnesses": 7198,
      "mathematical": 7199,
      "mathematics": 7200,
      "inspiration": 7201,
      "pathukuven": 7202,
      "Exciting": 7203,
      "Excited": 7204,
      "principles": 7205,
      "surprises": 7206,
      "consuming": 7207,
      "consumption": 7208,
      "distract": 7209,
      "mbaram": 7210,
      "clouds": 7211,
      "Ambitious": 7212,
      "Grandma": 7213,
      "Legend": 7214,
      "Legacy": 7215,
      "crackers": 7216,
      "Industry": 7217,
      "individuals": 7218,
      "received": 7219,
      "80C": 7220,
      "Ayyo": 7221,
      "Curiosity": 7222,
      "ChatGPT": 7223,
      "Counsell": 7224,
      "Delhi": 7225,
      "Destination": 7226,
      "Destiny": 7227,
      "ELSS": 7228,
      "Endless": 7229,
      "FDFS": 7230,
      "France": 7231,
      "Generosity": 7232,
      "Horri": 7233,
      "Horror": 7234,
      "Harsh": 7235,
      "Human": 7236,
      "Heard": 7237,
      "Hearing": 7238,
      "Historic": 7239,
      "Historical": 7240,
      "Kumar": 7241,
      "Plants": 7242,
      "Powerful": 7243,
      "Says": 7244,
      "Volunteer": 7245,
      "Writing": 7246,
      "Warmth": 7247,
      "bilities": 7248,
      "blessing": 7249,
      "blessings": 7250,
      "ceremony": 7251,
      "crowd": 7252,
      "climbing": 7253,
      "draping": 7254,
      "golden": 7255,
      "judgment": 7256,
      "kavithai": 7257,
      "session": 7258,
      "tornado": 7259,
      "tests": 7260,
      "yellow": 7261,
      "navigation": 7262,
      "tigma": 7263,
      "streets": 7264,
      "panrenga": 7265,
      "entrepreneur": 7266,
      "entrepreneurs": 7267,
      "loyalty": 7268,
      "lifes": 7269,
      "identity": 7270,
      "absor": 7271,
      "absence": 7272,
      "dividing": 7273,
      "paatten": 7274,
      "paattu": 7275,
      "complaint": 7276,
      "complaining": 7277,
      "thernmost": 7278,
      "guessing": 7279,
      "resource": 7280,
      "resources": 7281,
      "interpret": 7282,
      "interpreting": 7283,
      "bowling": 7284,
      "Retirement": 7285,
      "predator": 7286,
      "predators": 7287,
      "settled": 7288,
      "irundhuchu": 7289,
      "preserved": 7290,
      "mudiyaathu": 7291,
      "saaptutu": 7292,
      "saaptuva": 7293,
      "regularly": 7294,
      "pollin": 7295,
      "deciding": 7296,
      "decided": 7297,
      "compliment": 7298,
      "Question": 7299,
      "Questions": 7300,
      "detecting": 7301,
      "determining": 7302,
      "determination": 7303,
      "Adaptation": 7304,
      "Amazon": 7305,
      "Australi": 7306,
      "Baba": 7307,
      "Beard": 7308,
      "Borderline": 7309,
      "Creativity": 7310,
      "Cloud": 7311,
      "Dubai": 7312,
      "Empathy": 7313,
      "Elephants": 7314,
      "Fashion": 7315,
      "Farmer": 7316,
      "Gaming": 7317,
      "GitHub": 7318,
      "Habits": 7319,
      "Knowledge": 7320,
      "Kadai": 7321,
      "Laughter": 7322,
      "MBA": 7323,
      "Musk": 7324,
      "Machan": 7325,
      "Python": 7326,
      "Patience": 7327,
      "Prepare": 7328,
      "Rooftop": 7329,
      "Relief": 7330,
      "Renewed": 7331,
      "Sweater": 7332,
      "Socrates": 7333,
      "Term": 7334,
      "Telecom": 7335,
      "Vinnaith": 7336,
      "Verify": 7337,
      "Vastu": 7338,
      "Waiting": 7339,
      "Wishes": 7340,
      "apologize": 7341,
      "bayama": 7342,
      "bourhood": 7343,
      "banks": 7344,
      "cooperative": 7345,
      "deductions": 7346,
      "faith": 7347,
      "frankly": 7348,
      "gentle": 7349,
      "housing": 7350,
      "hangout": 7351,
      "juniors": 7352,
      "kadhai": 7353,
      "nurse": 7354,
      "operation": 7355,
      "pooja": 7356,
      "puncture": 7357,
      "soul": 7358,
      "summary": 7359,
      "skeleton": 7360,
      "ssip": 7361,
      "viduven": 7362,
      "vitamin": 7363,
      "welry": 7364,
      "walls": 7365,
      "invasive": 7366,
      "intense": 7367,
      "invented": 7368,
      "thairiyam": 7369,
      "replicate": 7370,
      "retirement": 7371,
      "metering": 7372,
      "young": 7373,
      "aachaa": 7374,
      "severance": 7375,
      "Ennakuu": 7376,
      "theerum": 7377,
      "addition": 7378,
      "officially": 7379,
      "assets": 7380,
      "ctuation": 7381,
      "digestive": 7382,
      "positi": 7383,
      "enguins": 7384,
      "probably": 7385,
      "telephone": 7386,
      "plicity": 7387,
      "modernization": 7388,
      "major": 7389,
      "guidance": 7390,
      "Investment": 7391,
      "adikudhu": 7392,
      "Regret": 7393,
      "Christmas": 7394,
      "Chandrayaan": 7395,
      "authority": 7396,
      "audience": 7397,
      "institutions": 7398,
      "preventing": 7399,
      "displaying": 7400,
      "Extreme": 7401,
      "functioning": 7402,
      "commerce": 7403,
      "adequate": 7404,
      "scenic": 7405,
      "sculpture": 7406,
      "student": 7407,
      "mudiyala": 7408,
      "disturb": 7409,
      "Sugar": 7410,
      "Seasonal": 7411,
      "Memories": 7412,
      "potureengala": 7413,
      "pottukko": 7414,
      "entirely": 7415,
      "physically": 7416,
      "Architecture": 7417,
      "Responsibility": 7418,
      "domesticated": 7419,
      "continuous": 7420,
      "kanavukanen": 7421,
      "Discuss": 7422,
      "flooding": 7423,
      "kudippeengaa": 7424,
      "fascinating": 7425,
      "Helpful": 7426,
      "Blinkit": 7427,
      "analyzing": 7428,
      "entertainment": 7429,
      "difficulties": 7430,
      "Breakfast": 7431,
      "Bangalore": 7432,
      "Minimalism": 7433,
      "Bharatanat": 7434,
      "guaranteed": 7435,
      "Nayanmars": 7436,
      "APJ": 7437,
      "AWS": 7438,
      "Alex": 7439,
      "Astrology": 7440,
      "Autumn": 7441,
      "Apology": 7442,
      "Again": 7443,
      "America": 7444,
      "Apollo": 7445,
      "Aadhaar": 7446,
      "Atomic": 7447,
      "Batman": 7448,
      "Borewell": 7449,
      "Blessed": 7450,
      "Burnout": 7451,
      "Cafe": 7452,
      "Courage": 7453,
      "Cinema": 7454,
      "Cousin": 7455,
      "Citizen": 7456,
      "DMK": 7457,
      "Emergency": 7458,
      "Especially": 7459,
      "FIFA": 7460,
      "Fog": 7461,
      "Freelance": 7462,
      "Flipkart": 7463,
      "Founding": 7464,
      "Frustrating": 7465,
      "FOMO": 7466,
      "Global": 7467,
      "Guruvay": 7468,
      "Homesick": 7469,
      "Kaly": 7470,
      "Kisan": 7471,
      "Kalaignar": 7472,
      "Kept": 7473,
      "Kapaleeshwar": 7474,
      "Kyoto": 7475,
      "Kanchipuram": 7476,
      "Kaveri": 7477,
      "Kanyakumari": 7478,
      "Laptop": 7479,
      "Ladakh": 7480,
      "Maldives": 7481,
      "Madras": 7482,
      "Maths": 7483,
      "MacBook": 7484,
      "Naturally": 7485,
      "Pension": 7486,
      "Picasso": 7487,
      "Pinky": 7488,
      "Pattern": 7489,
      "Pulao": 7490,
      "Ranjith": 7491,
      "Stick": 7492,
      "Spanish": 7493,
      "Stray": 7494,
      "Sangam": 7495,
      "Selective": 7496,
      "Silapad": 7497,
      "Scheduled": 7498,
      "Teles": 7499,
      "Usually": 7500,
      "Video": 7501,
      "Variable": 7502,
      "Zomato": 7503,
      "aisle": 7504,
      "bnail": 7505,
      "blocking": 7506,
      "caterpill": 7507,
      "duty": 7508,
      "ecution": 7509,
      "false": 7510,
      "freely": 7511,
      "farewell": 7512,
      "gadgets": 7513,
      "glasses": 7514,
      "hrs": 7515,
      "horror": 7516,
      "hunger": 7517,
      "historical": 7518,
      "ippadi": 7519,
      "ibian": 7520,
      "jungle": 7521,
      "kisu": 7522,
      "kinetic": 7523,
      "mutton": 7524,
      "ninai": 7525,
      "rhythm": 7526,
      "sincere": 7527,
      "tunnel": 7528,
      "tatkal": 7529,
      "unexpected": 7530,
      "vanganum": 7531,
      "yatra": 7532,
      "anupichen": 7533,
      "instinct": 7534,
      "inclusion": 7535,
      "daughter": 7536,
      "enthusi": 7537,
      "enclave": 7538,
      "ouflage": 7539,
      "algorithm": 7540,
      "ingredients": 7541,
      "naalaiku": 7542,
      "esthetic": 7543,
      "artifacts": 7544,
      "amphibian": 7545,
      "amorphosis": 7546,
      "stomach": 7547,
      "stadium": 7548,
      "strawberry": 7549,
      "metaphor": 7550,
      "mechanism": 7551,
      "members": 7552,
      "irrigation": 7553,
      "vechirukken": 7554,
      "chromosome": 7555,
      "separate": 7556,
      "ternative": 7557,
      "neighborhood": 7558,
      "dioxide": 7559,
      "protocols": 7560,
      "explanation": 7561,
      "expense": 7562,
      "exercises": 7563,
      "congratul": 7564,
      "concentration": 7565,
      "antonym": 7566,
      "deficiency": 7567,
      "demonstr": 7568,
      "deposit": 7569,
      "makhani": 7570,
      "theriyamathu": 7571,
      "Inspiring": 7572,
      "Alphonso": 7573,
      "Alcohol": 7574,
      "iceberg": 7575,
      "suddenly": 7576,
      "Neighbourhood": 7577,
      "Thirukkural": 7578,
      "helicopter": 7579,
      "upgrade": 7580,
      "appetite": 7581,
      "Developing": 7582,
      "Chidambaram": 7583,
      "Chettinad": 7584,
      "Cholesterol": 7585,
      "authentic": 7586,
      "varaikum": 7587,
      "preparing": 7588,
      "synonym": 7589,
      "understandably": 7590,
      "lightbulb": 7591,
      "solluvaanga": 7592,
      "Conscious": 7593,
      "Conflict": 7594,
      "hikaram": 7595,
      "Procrastination": 7596,
      "controversy": 7597,
      "peninsula": 7598,
      "effectiveness": 7599,
      "vandhuruchu": 7600,
      "confidentially": 7601,
      "scientific": 7602,
      "Automation": 7603,
      "Auroville": 7604,
      "Biodiversity": 7605,
      "oosebumps": 7606,
      "Chemistry": 7607,
      "Discipline": 7608,
      "refreshing": 7609,
      "millennium": 7610,
      "Corruption": 7611,
      "Vettaiyan": 7612,
      "Counsellor": 7613,
      "Australia": 7614,
      "Vinnaithaandi": 7615,
      "Bharatanatyam": 7616,
      "Kapaleeshwarar": 7617,
      "Silapadhikaram": 7618,
      "caterpillar": 7619,
      "),": 7620,
      ",*": 7621,
      "01": 7622,
      "11": 7623,
      "180": 7624,
      "22": 7625,
      "2B": 7626,
      "2am": 7627,
      "230": 7628,
      "238": 7629,
      "31": 7630,
      "33": 7631,
      "300": 7632,
      "31st": 7633,
      "4K": 7634,
      "4000": 7635,
      "5G": 7636,
      "5K": 7637,
      "65": 7638,
      "6G": 7639,
      "600": 7640,
      "71": 7641,
      "74": 7642,
      "76": 7643,
      "855": 7644,
      "8pm": 7645,
      "96": 7646,
      "9s": 7647,
      "??": 7648,
      "??,": 7649,
      "AQ": 7650,
      "AY": 7651,
      "Ai": 7652,
      "Aj": 7653,
      "Ak": 7654,
      "Az": 7655,
      "Aas": 7656,
      "Age": 7657,
      "Ano": 7658,
      "Act": 7659,
      "Aven": 7660,
      "Aure": 7661,
      "Aqu": 7662,
      "Aag": 7663,
      "Ack": 7664,
      "Aiy": 7665,
      "Aff": 7666,
      "Ass": 7667,
      "Amar": 7668,
      "Apr": 7669,
      "Ask": 7670,
      "Agn": 7671,
      "Awas": 7672,
      "Adhu": 7673,
      "Amade": 7674,
      "Akan": 7675,
      "APM": 7676,
      "Aalu": 7677,
      "Ages": 7678,
      "Anam": 7679,
      "Abroad": 7680,
      "Aspir": 7681,
      "AST": 7682,
      "ABI": 7683,
      "ANC": 7684,
      "ADMK": 7685,
      "Aesthetic": 7686,
      "A2B": 7687,
      "BY": 7688,
      "Br": 7689,
      "Ban": 7690,
      "Bon": 7691,
      "Bro": 7692,
      "Bit": 7693,
      "Bed": 7694,
      "Band": 7695,
      "Bla": 7696,
      "Bel": 7697,
      "Bion": 7698,
      "Bri": 7699,
      "Bul": 7700,
      "Bun": 7701,
      "Bur": 7702,
      "Bone": 7703,
      "Blu": 7704,
      "Brow": 7705,
      "Bread": 7706,
      "Bak": 7707,
      "Bank": 7708,
      "Batch": 7709,
      "Base": 7710,
      "Blog": 7711,
      "Bada": 7712,
      "Baha": 7713,
      "Bali": 7714,
      "Bones": 7715,
      "BMI": 7716,
      "Borrow": 7717,
      "Badm": 7718,
      "Brene": 7719,
      "BAR": 7720,
      "Boot": 7721,
      "Breathe": 7722,
      "Brand": 7723,
      "Booth": 7724,
      "Block": 7725,
      "Bollywood": 7726,
      "Brit": 7727,
      "Breeze": 7728,
      "BDC": 7729,
      "Bhop": 7730,
      "CE": 7731,
      "CG": 7732,
      "CM": 7733,
      "CU": 7734,
      "CV": 7735,
      "Cre": 7736,
      "Cro": 7737,
      "Clo": 7738,
      "Cong": 7739,
      "Capp": 7740,
      "Cream": 7741,
      "Cover": 7742,
      "Cold": 7743,
      "Clear": 7744,
      "Catch": 7745,
      "Caf": 7746,
      "Clar": 7747,
      "Cute": 7748,
      "Cris": 7749,
      "Caste": 7750,
      "Caring": 7751,
      "Citation": 7752,
      "Center": 7753,
      "CPR": 7754,
      "Chai": 7755,
      "Cante": 7756,
      "Crush": 7757,
      "Cooper": 7758,
      "Custom": 7759,
      "Crucial": 7760,
      "CTC": 7761,
      "CBDC": 7762,
      "DF": 7763,
      "DG": 7764,
      "Der": 7765,
      "Ding": 7766,
      "Dri": 7767,
      "Dra": 7768,
      "Dim": 7769,
      "Dho": 7770,
      "Dust": 7771,
      "Dem": 7772,
      "Dish": 7773,
      "Dress": 7774,
      "Dow": 7775,
      "Dair": 7776,
      "Drain": 7777,
      "Dining": 7778,
      "Danger": 7779,
      "Dindi": 7780,
      "Down": 7781,
      "Domes": 7782,
      "Dessert": 7783,
      "DBT": 7784,
      "EF": 7785,
      "ES": 7786,
      "Eg": 7787,
      "Ep": 7788,
      "Er": 7789,
      "Eu": 7790,
      "Ero": 7791,
      "Era": 7792,
      "Ene": 7793,
      "Ell": 7794,
      "East": 7795,
      "Egy": 7796,
      "Eyes": 7797,
      "Eppo": 7798,
      "Equal": 7799,
      "Equality": 7800,
      "Event": 7801,
      "Eye": 7802,
      "Evalu": 7803,
      "Ekada": 7804,
      "EPF": 7805,
      "Econom": 7806,
      "EGP": 7807,
      "Evolution": 7808,
      "ESA": 7809,
      "Escal": 7810,
      "Eelam": 7811,
      "Email": 7812,
      "Efficiency": 7813,
      "FT": 7814,
      "Fan": 7815,
      "Far": 7816,
      "Fed": 7817,
      "Ful": 7818,
      "Fort": 7819,
      "Fres": 7820,
      "Four": 7821,
      "Fem": 7822,
      "Fig": 7823,
      "Fif": 7824,
      "Fated": 7825,
      "Fire": 7826,
      "Form": 7827,
      "Fram": 7828,
      "Flax": 7829,
      "FAR": 7830,
      "Faster": 7831,
      "Fiction": 7832,
      "Firm": 7833,
      "FIR": 7834,
      "FPO": 7835,
      "Fuel": 7836,
      "Fantasy": 7837,
      "Futur": 7838,
      "FBY": 7839,
      "GA": 7840,
      "GB": 7841,
      "GR": 7842,
      "Gan": 7843,
      "Gent": 7844,
      "Gri": 7845,
      "Ghe": 7846,
      "Gho": 7847,
      "Gru": 7848,
      "Gree": 7849,
      "Gated": 7850,
      "Gift": 7851,
      "Gita": 7852,
      "Gula": 7853,
      "Greed": 7854,
      "GPS": 7855,
      "Grass": 7856,
      "Gender": 7857,
      "GAT": 7858,
      "GBT": 7859,
      "Gorge": 7860,
      "Goosebumps": 7861,
      "HA": 7862,
      "HG": 7863,
      "HT": 7864,
      "Her": 7865,
      "Ham": 7866,
      "Hay": 7867,
      "Hur": 7868,
      "Hour": 7869,
      "Hill": 7870,
      "Here": 7871,
      "Hous": 7872,
      "Hold": 7873,
      "Hob": 7874,
      "Have": 7875,
      "Hills": 7876,
      "Hours": 7877,
      "HLD": 7878,
      "Hindu": 7879,
      "IC": 7880,
      "IL": 7881,
      "IQ": 7882,
      "Ir": 7883,
      "Iy": 7884,
      "Ila": 7885,
      "Icon": 7886,
      "Ide": 7887,
      "Ima": 7888,
      "Iru": 7889,
      "Its": 7890,
      "Iyer": 7891,
      "Imag": 7892,
      "IPS": 7893,
      "IEL": 7894,
      "IAS": 7895,
      "ITI": 7896,
      "JS": 7897,
      "Ji": 7898,
      "Jen": 7899,
      "Jal": 7900,
      "Jes": 7901,
      "Jav": 7902,
      "Jig": 7903,
      "Jade": 7904,
      "Jorth": 7905,
      "JIR": 7906,
      "Jayal": 7907,
      "KV": 7908,
      "King": 7909,
      "Kam": 7910,
      "Ket": 7911,
      "Kut": 7912,
      "Kas": 7913,
      "Kooda": 7914,
      "Kally": 7915,
      "Kodi": 7916,
      "Kaz": 7917,
      "Krishna": 7918,
      "Korean": 7919,
      "L1": 7920,
      "LX": 7921,
      "La": 7922,
      "Ly": 7923,
      "Lal": 7924,
      "Led": 7925,
      "Lion": 7926,
      "Lay": 7927,
      "Lof": 7928,
      "Lie": 7929,
      "Lover": 7930,
      "Lef": 7931,
      "Looking": 7932,
      "Loose": 7933,
      "Lower": 7934,
      "LSA": 7935,
      "Lungs": 7936,
      "LLD": 7937,
      "Lamps": 7938,
      "LAST": 7939,
      "LGBT": 7940,
      "LIC": 7941,
      "MC": 7942,
      "ME": 7943,
      "ML": 7944,
      "Ma": 7945,
      "Mb": 7946,
      "Mer": 7947,
      "Mat": 7948,
      "Mam": 7949,
      "Mit": 7950,
      "Mir": 7951,
      "Mand": 7952,
      "Mur": 7953,
      "Mess": 7954,
      "Mone": 7955,
      "Might": 7956,
      "Mine": 7957,
      "Mong": 7958,
      "Mig": 7959,
      "Mup": 7960,
      "Mild": 7961,
      "Mang": 7962,
      "Made": 7963,
      "Mask": 7964,
      "Meat": 7965,
      "Mars": 7966,
      "Mari": 7967,
      "Maha": 7968,
      "Matur": 7969,
      "Mount": 7970,
      "Melt": 7971,
      "Maj": 7972,
      "Migration": 7973,
      "MOO": 7974,
      "MTC": 7975,
      "Muted": 7976,
      "MNRE": 7977,
      "NL": 7978,
      "NT": 7979,
      "Ni": 7980,
      "Nel": 7981,
      "Nood": 7982,
      "Nag": 7983,
      "Nif": 7984,
      "Nint": 7985,
      "Nap": 7986,
      "Nana": 7987,
      "NPSC": 7988,
      "NDA": 7989,
      "NFT": 7990,
      "Ob": 7991,
      "Ox": 7992,
      "Ome": 7993,
      "Oil": 7994,
      "Ooru": 7995,
      "Other": 7996,
      "Osc": 7997,
      "Opport": 7998,
      "Ops": 7999,
      "Own": 8000,
      "OCs": 8001,
      "ODF": 8002,
      "OEF": 8003,
      "OLX": 8004,
      "PB": 8005,
      "PN": 8006,
      "Pal": 8007,
      "Pam": 8008,
      "Poo": 8009,
      "Ped": 8010,
      "Pand": 8011,
      "Pion": 8012,
      "Pad": 8013,
      "Pom": 8014,
      "Pab": 8015,
      "Prou": 8016,
      "Pain": 8017,
      "Pang": 8018,
      "Paar": 8019,
      "Pred": 8020,
      "Pris": 8021,
      "Push": 8022,
      "Pada": 8023,
      "Pix": 8024,
      "Patt": 8025,
      "Panch": 8026,
      "Passive": 8027,
      "Palli": 8028,
      "Prin": 8029,
      "Psycho": 8030,
      "Prad": 8031,
      "Patta": 8032,
      "Penguins": 8033,
      "PESA": 8034,
      "Que": 8035,
      "Qutu": 8036,
      "QOO": 8037,
      "RD": 8038,
      "Ra": 8039,
      "Ran": 8040,
      "Rand": 8041,
      "Rent": 8042,
      "Rum": 8043,
      "Run": 8044,
      "Ration": 8045,
      "Rus": 8046,
      "Rep": 8047,
      "Rav": 8048,
      "Rem": 8049,
      "Radi": 8050,
      "Rish": 8051,
      "Rap": 8052,
      "Rob": 8053,
      "Raw": 8054,
      "Rates": 8055,
      "Rail": 8056,
      "Rutu": 8057,
      "Ritual": 8058,
      "RAM": 8059,
      "RBI": 8060,
      "RDA": 8061,
      "Renting": 8062,
      "RABI": 8063,
      "SC": 8064,
      "Sc": 8065,
      "Si": 8066,
      "Sr": 8067,
      "Sat": 8068,
      "Sir": 8069,
      "Saa": 8070,
      "Sch": 8071,
      "Sel": 8072,
      "Sne": 8073,
      "Sid": 8074,
      "Sab": 8075,
      "Spl": 8076,
      "Smo": 8077,
      "Sort": 8078,
      "Sight": 8079,
      "Sta": 8080,
      "Sine": 8081,
      "Song": 8082,
      "Sup": 8083,
      "Slow": 8084,
      "Swar": 8085,
      "Sound": 8086,
      "Scal": 8087,
      "Spic": 8088,
      "Saf": 8089,
      "Sever": 8090,
      "Stem": 8091,
      "Siri": 8092,
      "Sign": 8093,
      "Scu": 8094,
      "SAI": 8095,
      "Select": 8096,
      "Six": 8097,
      "Scul": 8098,
      "Sanch": 8099,
      "Scr": 8100,
      "Smell": 8101,
      "Squid": 8102,
      "Search": 8103,
      "SBI": 8104,
      "SPI": 8105,
      "Sprint": 8106,
      "Snor": 8107,
      "Saree": 8108,
      "Slightly": 8109,
      "Stigma": 8110,
      "SDG": 8111,
      "SHG": 8112,
      "SPB": 8113,
      "Ten": 8114,
      "Tes": 8115,
      "Tit": 8116,
      "Ted": 8117,
      "Tic": 8118,
      "Tha": 8119,
      "Tol": 8120,
      "Tim": 8121,
      "Tour": 8122,
      "Tig": 8123,
      "Tif": 8124,
      "Tip": 8125,
      "Told": 8126,
      "Took": 8127,
      "Tap": 8128,
      "Tire": 8129,
      "Tida": 8130,
      "Talent": 8131,
      "Touch": 8132,
      "TNE": 8133,
      "Taj": 8134,
      "Tense": 8135,
      "Trench": 8136,
      "Tanj": 8137,
      "Telu": 8138,
      "TANG": 8139,
      "TED": 8140,
      "Tutor": 8141,
      "TNPSC": 8142,
      "TOEF": 8143,
      "UI": 8144,
      "UK": 8145,
      "UN": 8146,
      "UT": 8147,
      "UX": 8148,
      "Ul": 8149,
      "Um": 8150,
      "Upan": 8151,
      "Ude": 8152,
      "Uber": 8153,
      "UPI": 8154,
      "Ven": 8155,
      "Vaa": 8156,
      "Vand": 8157,
      "Vic": 8158,
      "Vul": 8159,
      "Vas": 8160,
      "Vadi": 8161,
      "Vell": 8162,
      "Vers": 8163,
      "Vive": 8164,
      "Vair": 8165,
      "Vida": 8166,
      "Vai": 8167,
      "Viz": 8168,
      "Venti": 8169,
      "Valu": 8170,
      "Varan": 8171,
      "Vatic": 8172,
      "VOCs": 8173,
      "VPN": 8174,
      "Wh": 8175,
      "Wra": 8176,
      "Wol": 8177,
      "West": 8178,
      "Ware": 8179,
      "Whe": 8180,
      "Wear": 8181,
      "Wip": 8182,
      "Wow": 8183,
      "Wonder": 8184,
      "Willi": 8185,
      "Welfare": 8186,
      "Walla": 8187,
      "Waves": 8188,
      "Wanna": 8189,
      "Wifi": 8190,
      "Yu": 8191,
      "Yam": 8192,
      "Yel": 8193,
      "Yet": 8194,
      "Yell": 8195,
      "Yellam": 8196,
      "Yanam": 8197,
      "Yellar": 8198,
      "Yatri": 8199,
      "Zoom": 8200,
      "Z9s": 8201,
      "aam": 8202,
      "aim": 8203,
      "aiy": 8204,
      "aidu": 8205,
      "aalu": 8206,
      "apothe": 8207,
      "aponics": 8208,
      "aesthetic": 8209,
      "bh": 8210,
      "bn": 8211,
      "bic": 8212,
      "bday": 8213,
      "bala": 8214,
      "bate": 8215,
      "bac": 8216,
      "bist": 8217,
      "bust": 8218,
      "badi": 8219,
      "bite": 8220,
      "bru": 8221,
      "bability": 8222,
      "blog": 8223,
      "batter": 8224,
      "bending": 8225,
      "batt": 8226,
      "bines": 8227,
      "banger": 8228,
      "bsite": 8229,
      "bills": 8230,
      "bathi": 8231,
      "bathing": 8232,
      "bloss": 8233,
      "block": 8234,
      "bunk": 8235,
      "burn": 8236,
      "bbly": 8237,
      "biscu": 8238,
      "cs": 8239,
      "cit": 8240,
      "cto": 8241,
      "cli": 8242,
      "cum": 8243,
      "cid": 8244,
      "cate": 8245,
      "cart": 8246,
      "cath": 8247,
      "cac": 8248,
      "clu": 8249,
      "cable": 8250,
      "cade": 8251,
      "ccer": 8252,
      "cations": 8253,
      "crying": 8254,
      "culti": 8255,
      "cram": 8256,
      "cacy": 8257,
      "cakes": 8258,
      "cats": 8259,
      "dor": 8260,
      "dil": 8261,
      "dic": 8262,
      "dun": 8263,
      "dge": 8264,
      "dur": 8265,
      "dity": 8266,
      "dant": 8267,
      "dry": 8268,
      "ddy": 8269,
      "dwell": 8270,
      "drying": 8271,
      "dged": 8272,
      "draw": 8273,
      "drawing": 8274,
      "ddhi": 8275,
      "eu": 8276,
      "eda": 8277,
      "eve": 8278,
      "ela": 8279,
      "eur": 8280,
      "epo": 8281,
      "eper": 8282,
      "ema": 8283,
      "eight": 8284,
      "eep": 8285,
      "ethan": 8286,
      "east": 8287,
      "eties": 8288,
      "emed": 8289,
      "ease": 8290,
      "evid": 8291,
      "etha": 8292,
      "echo": 8293,
      "ecute": 8294,
      "evan": 8295,
      "evalu": 8296,
      "evil": 8297,
      "eyel": 8298,
      "elabor": 8299,
      "either": 8300,
      "efficiency": 8301,
      "fs": 8302,
      "fon": 8303,
      "fed": 8304,
      "fto": 8305,
      "fest": 8306,
      "fway": 8307,
      "fence": 8308,
      "fav": 8309,
      "famil": 8310,
      "fry": 8311,
      "fins": 8312,
      "flight": 8313,
      "favour": 8314,
      "fought": 8315,
      "fade": 8316,
      "favor": 8317,
      "frequ": 8318,
      "fills": 8319,
      "fresh": 8320,
      "firm": 8321,
      "fying": 8322,
      "front": 8323,
      "fgang": 8324,
      "futur": 8325,
      "gl": 8326,
      "gil": 8327,
      "gion": 8328,
      "gul": 8329,
      "gol": 8330,
      "gab": 8331,
      "gall": 8332,
      "gone": 8333,
      "gry": 8334,
      "gers": 8335,
      "gical": 8336,
      "gins": 8337,
      "gory": 8338,
      "grain": 8339,
      "gather": 8340,
      "gently": 8341,
      "goog": 8342,
      "grocery": 8343,
      "gender": 8344,
      "gifts": 8345,
      "gressive": 8346,
      "goosebumps": 8347,
      "his": 8348,
      "hid": 8349,
      "hus": 8350,
      "hall": 8351,
      "hust": 8352,
      "hill": 8353,
      "hip": 8354,
      "hint": 8355,
      "hmin": 8356,
      "hback": 8357,
      "hilar": 8358,
      "hinting": 8359,
      "hini": 8360,
      "hmm": 8361,
      "hbadi": 8362,
      "ik": 8363,
      "iv": 8364,
      "iver": 8365,
      "ife": 8366,
      "ium": 8367,
      "iest": 8368,
      "ike": 8369,
      "ius": 8370,
      "itime": 8371,
      "iary": 8372,
      "ichu": 8373,
      "iwa": 8374,
      "iLo": 8375,
      "iors": 8376,
      "iations": 8377,
      "ikk": 8378,
      "ihood": 8379,
      "iPad": 8380,
      "iQOO": 8381,
      "jaan": 8382,
      "jac": 8383,
      "jathu": 8384,
      "jji": 8385,
      "kg": 8386,
      "kவ": 8387,
      "ker": 8388,
      "kor": 8389,
      "kon": 8390,
      "kam": 8391,
      "kand": 8392,
      "kel": 8393,
      "kil": 8394,
      "kne": 8395,
      "kno": 8396,
      "kke": 8397,
      "katha": 8398,
      "kapp": 8399,
      "kip": 8400,
      "kins": 8401,
      "kame": 8402,
      "kire": 8403,
      "kiya": 8404,
      "kathu": 8405,
      "kkaa": 8406,
      "kick": 8407,
      "kalam": 8408,
      "khar": 8409,
      "kireengala": 8410,
      "kia": 8411,
      "kalai": 8412,
      "knav": 8413,
      "kiren": 8414,
      "kelu": 8415,
      "killer": 8416,
      "kanya": 8417,
      "kshi": 8418,
      "ler": 8419,
      "laa": 8420,
      "lion": 8421,
      "lity": 8422,
      "link": 8423,
      "lining": 8424,
      "loom": 8425,
      "length": 8426,
      "linking": 8427,
      "lined": 8428,
      "loro": 8429,
      "lender": 8430,
      "ms": 8431,
      "mir": 8432,
      "maa": 8433,
      "mand": 8434,
      "mad": 8435,
      "may": 8436,
      "mol": 8437,
      "mare": 8438,
      "mant": 8439,
      "mate": 8440,
      "mers": 8441,
      "mile": 8442,
      "mies": 8443,
      "mins": 8444,
      "mmed": 8445,
      "muru": 8446,
      "mesh": 8447,
      "massive": 8448,
      "nom": 8449,
      "nut": 8450,
      "nid": 8451,
      "nala": 8452,
      "nta": 8453,
      "nanum": 8454,
      "niy": 8455,
      "ntra": 8456,
      "niya": 8457,
      "nale": 8458,
      "nich": 8459,
      "nellam": 8460,
      "nana": 8461,
      "ok": 8462,
      "ot": 8463,
      "oz": 8464,
      "ost": 8465,
      "oce": 8466,
      "oic": 8467,
      "opp": 8468,
      "oke": 8469,
      "oci": 8470,
      "ode": 8471,
      "otic": 8472,
      "odu": 8473,
      "ods": 8474,
      "otri": 8475,
      "otive": 8476,
      "ogra": 8477,
      "obook": 8478,
      "oars": 8479,
      "okey": 8480,
      "oactive": 8481,
      "ogas": 8482,
      "pin": 8483,
      "pou": 8484,
      "pha": 8485,
      "pli": 8486,
      "poru": 8487,
      "pul": 8488,
      "put": 8489,
      "pess": 8490,
      "pus": 8491,
      "pone": 8492,
      "pten": 8493,
      "pater": 8494,
      "ptions": 8495,
      "pool": 8496,
      "ptical": 8497,
      "pilo": 8498,
      "pitch": 8499,
      "pounds": 8500,
      "pels": 8501,
      "plied": 8502,
      "pended": 8503,
      "pizza": 8504,
      "patri": 8505,
      "ptian": 8506,
      "penguins": 8507,
      "rm": 8508,
      "ran": 8509,
      "rus": 8510,
      "rant": 8511,
      "rma": 8512,
      "rath": 8513,
      "rence": 8514,
      "ratha": 8515,
      "rere": 8516,
      "rical": 8517,
      "rathu": 8518,
      "rings": 8519,
      "rati": 8520,
      "rinting": 8521,
      "rats": 8522,
      "ratic": 8523,
      "san": 8524,
      "sin": 8525,
      "sor": 8526,
      "span": 8527,
      "sed": 8528,
      "sand": 8529,
      "sel": 8530,
      "siru": 8531,
      "sku": 8532,
      "sac": 8533,
      "sort": 8534,
      "sore": 8535,
      "sket": 8536,
      "stim": 8537,
      "spar": 8538,
      "spr": 8539,
      "soften": 8540,
      "salam": 8541,
      "south": 8542,
      "sorrow": 8543,
      "sling": 8544,
      "sister": 8545,
      "sthalam": 8546,
      "sacred": 8547,
      "scares": 8548,
      "sprint": 8549,
      "stit": 8550,
      "saree": 8551,
      "spraying": 8552,
      "stigma": 8553,
      "slender": 8554,
      "tal": 8555,
      "tam": 8556,
      "tad": 8557,
      "tex": 8558,
      "tful": 8559,
      "tart": 8560,
      "tone": 8561,
      "tort": 8562,
      "tore": 8563,
      "tating": 8564,
      "tue": 8565,
      "ttle": 8566,
      "ttu": 8567,
      "tles": 8568,
      "tali": 8569,
      "testing": 8570,
      "tends": 8571,
      "tangle": 8572,
      "treprene": 8573,
      "tuten": 8574,
      "tutor": 8575,
      "uh": 8576,
      "uv": 8577,
      "uth": 8578,
      "uthe": 8579,
      "uri": 8580,
      "une": 8581,
      "uct": 8582,
      "uven": 8583,
      "ude": 8584,
      "uveengala": 8585,
      "utic": 8586,
      "uction": 8587,
      "uary": 8588,
      "udhu": 8589,
      "utha": 8590,
      "udiy": 8591,
      "uviya": 8592,
      "uduven": 8593,
      "urap": 8594,
      "ukame": 8595,
      "vt": 8596,
      "vy": 8597,
      "vor": 8598,
      "vam": 8599,
      "vum": 8600,
      "vish": 8601,
      "vise": 8602,
      "vable": 8603,
      "villa": 8604,
      "vating": 8605,
      "vates": 8606,
      "vict": 8607,
      "vya": 8608,
      "vinc": 8609,
      "vathi": 8610,
      "valai": 8611,
      "vaach": 8612,
      "vOps": 8613,
      "vuven": 8614,
      "wing": 8615,
      "wet": 8616,
      "west": 8617,
      "wid": 8618,
      "wala": 8619,
      "wadi": 8620,
      "wder": 8621,
      "wright": 8622,
      "wow": 8623,
      "witch": 8624,
      "witness": 8625,
      "wathi": 8626,
      "women": 8627,
      "wester": 8628,
      "waves": 8629,
      "wanna": 8630,
      "wifi": 8631,
      "waker": 8632,
      "wife": 8633,
      "woke": 8634,
      "xies": 8635,
      "xious": 8636,
      "yy": 8637,
      "yle": 8638,
      "yaa": 8639,
      "yep": 8640,
      "yup": 8641,
      "yers": 8642,
      "yepp": 8643,
      "yness": 8644,
      "yathu": 8645,
      "yments": 8646,
      "yboard": 8647,
      "ydiving": 8648,
      "yellar": 8649,
      "ytore": 8650,
      "zin": 8651,
      "zap": 8652,
      "zhal": 8653,
      "ziness": 8654,
      "²,": 8655,
      "²?,": 8656,
      "லai": 8657,
      "anda": 8658,
      "anno": 8659,
      "anid": 8660,
      "anai": 8661,
      "anathu": 8662,
      "anthem": 8663,
      "anni": 8664,
      "anormal": 8665,
      "antha": 8666,
      "annual": 8667,
      "announ": 8668,
      "ananuru": 8669,
      "anagement": 8670,
      "anxious": 8671,
      "inis": 8672,
      "inch": 8673,
      "inum": 8674,
      "inta": 8675,
      "inance": 8676,
      "inach": 8677,
      "inform": 8678,
      "invoice": 8679,
      "income": 8680,
      "incar": 8681,
      "innum": 8682,
      "inctive": 8683,
      "inism": 8684,
      "incomplete": 8685,
      "intha": 8686,
      "inactive": 8687,
      "info": 8688,
      "inja": 8689,
      "inants": 8690,
      "independ": 8691,
      "indeed": 8692,
      "instances": 8693,
      "independent": 8694,
      "invertebrate": 8695,
      "inrin": 8696,
      "infecti": 8697,
      "inverter": 8698,
      "invisible": 8699,
      "infinity": 8700,
      "instrument": 8701,
      "inhaling": 8702,
      "inflation": 8703,
      "dai": 8704,
      "dare": 8705,
      "dara": 8706,
      "dary": 8707,
      "daman": 8708,
      "dagi": 8709,
      "daling": 8710,
      "dakal": 8711,
      "enda": 8712,
      "ench": 8713,
      "ensu": 8714,
      "enish": 8715,
      "enable": 8716,
      "enak": 8717,
      "enorm": 8718,
      "ennodu": 8719,
      "entical": 8720,
      "encro": 8721,
      "enzy": 8722,
      "enforce": 8723,
      "enamai": 8724,
      "enclosure": 8725,
      "enrolled": 8726,
      "ennellam": 8727,
      "erti": 8728,
      "erans": 8729,
      "erco": 8730,
      "erts": 8731,
      "erals": 8732,
      "errent": 8733,
      "eraga": 8734,
      "erpiece": 8735,
      "error": 8736,
      "erRank": 8737,
      "erratic": 8738,
      "atti": 8739,
      "athat": 8740,
      "atory": 8741,
      "atization": 8742,
      "atuthu": 8743,
      "orit": 8744,
      "orage": 8745,
      "orie": 8746,
      "orem": 8747,
      "orang": 8748,
      "orbit": 8749,
      "orchest": 8750,
      "orik": 8751,
      "onam": 8752,
      "onto": 8753,
      "onic": 8754,
      "onent": 8755,
      "onom": 8756,
      "onductor": 8757,
      "onnume": 8758,
      "thal": 8759,
      "thri": 8760,
      "thay": 8761,
      "thas": 8762,
      "thol": 8763,
      "thala": 8764,
      "thag": 8765,
      "thread": 8766,
      "thirst": 8767,
      "threat": 8768,
      "thiya": 8769,
      "thitu": 8770,
      "thutu": 8771,
      "thalai": 8772,
      "thriller": 8773,
      "thambi": 8774,
      "third": 8775,
      "thrift": 8776,
      "thquakes": 8777,
      "thigai": 8778,
      "thorit": 8779,
      "oum": 8780,
      "ales": 8781,
      "althe": 8782,
      "alith": 8783,
      "alous": 8784,
      "alive": 8785,
      "algi": 8786,
      "alization": 8787,
      "album": 8788,
      "alysis": 8789,
      "alyaan": 8790,
      "altitude": 8791,
      "algebra": 8792,
      "allegedly": 8793,
      "alternative": 8794,
      "alerts": 8795,
      "reven": 8796,
      "reengala": 8797,
      "reuse": 8798,
      "restart": 8799,
      "remin": 8800,
      "recall": 8801,
      "retain": 8802,
      "react": 8803,
      "repres": 8804,
      "recept": 8805,
      "refer": 8806,
      "remain": 8807,
      "revisit": 8808,
      "reprodu": 8809,
      "rebuilding": 8810,
      "rechar": 8811,
      "rections": 8812,
      "recover": 8813,
      "refra": 8814,
      "reconnect": 8815,
      "reports": 8816,
      "removing": 8817,
      "reactions": 8818,
      "remark": 8819,
      "rewatching": 8820,
      "recycle": 8821,
      "revision": 8822,
      "rewards": 8823,
      "rewatched": 8824,
      "recovered": 8825,
      "regenerate": 8826,
      "retch": 8827,
      "retali": 8828,
      "revise": 8829,
      "ingo": 8830,
      "ingala": 8831,
      "nah": 8832,
      "nap": 8833,
      "naath": 8834,
      "nable": 8835,
      "nacho": 8836,
      "naught": 8837,
      "nadas": 8838,
      "estion": 8839,
      "esho": 8840,
      "roti": 8841,
      "rome": 8842,
      "rodu": 8843,
      "rods": 8844,
      "rosc": 8845,
      "rocky": 8846,
      "royal": 8847,
      "rojaa": 8848,
      "rovert": 8849,
      "robots": 8850,
      "isa": 8851,
      "isha": 8852,
      "isma": 8853,
      "istry": 8854,
      "isely": 8855,
      "isonment": 8856,
      "iscing": 8857,
      "arc": 8858,
      "aren": 8859,
      "aram": 8860,
      "arim": 8861,
      "arma": 8862,
      "argu": 8863,
      "arach": 8864,
      "arthan": 8865,
      "ards": 8866,
      "arship": 8867,
      "artific": 8868,
      "archae": 8869,
      "arukame": 8870,
      "tie": 8871,
      "tip": 8872,
      "tition": 8873,
      "tially": 8874,
      "tiles": 8875,
      "tize": 8876,
      "tiya": 8877,
      "tivate": 8878,
      "tization": 8879,
      "amy": 8880,
      "amel": 8881,
      "ament": 8882,
      "amet": 8883,
      "amay": 8884,
      "amah": 8885,
      "amoun": 8886,
      "ammar": 8887,
      "amani": 8888,
      "amiz": 8889,
      "amond": 8890,
      "amended": 8891,
      "ambam": 8892,
      "amuthu": 8893,
      "aminants": 8894,
      "legu": 8895,
      "lection": 8896,
      "leak": 8897,
      "leppe": 8898,
      "leblow": 8899,
      "lefto": 8900,
      "itate": 8901,
      "itations": 8902,
      "ittu": 8903,
      "itaay": 8904,
      "itoring": 8905,
      "itted": 8906,
      "itzer": 8907,
      "items": 8908,
      "sts": 8909,
      "sted": 8910,
      "stri": 8911,
      "stum": 8912,
      "station": 8913,
      "stone": 8914,
      "stals": 8915,
      "strain": 8916,
      "stones": 8917,
      "starch": 8918,
      "stakes": 8919,
      "stared": 8920,
      "stellar": 8921,
      "stamp": 8922,
      "stamps": 8923,
      "strap": 8924,
      "stairs": 8925,
      "statistics": 8926,
      "stalgi": 8927,
      "stretch": 8928,
      "broken": 8929,
      "pana": 8930,
      "pand": 8931,
      "pans": 8932,
      "panel": 8933,
      "panic": 8934,
      "panala": 8935,
      "pantry": 8936,
      "panenga": 8937,
      "pandr": 8938,
      "panden": 8939,
      "pandian": 8940,
      "paninen": 8941,
      "pandal": 8942,
      "paniruken": 8943,
      "pandas": 8944,
      "panlaa": 8945,
      "mead": 8946,
      "mete": 8947,
      "metr": 8948,
      "meters": 8949,
      "memes": 8950,
      "mekalai": 8951,
      "iration": 8952,
      "irdi": 8953,
      "irkku": 8954,
      "irty": 8955,
      "irapalli": 8956,
      "irreplaceable": 8957,
      "oovar": 8958,
      "youth": 8959,
      "veen": 8960,
      "veer": 8961,
      "veter": 8962,
      "vekku": 8963,
      "veill": 8964,
      "velu": 8965,
      "veled": 8966,
      "vettu": 8967,
      "aachen": 8968,
      "aaja": 8969,
      "hate": 8970,
      "hathe": 8971,
      "edity": 8972,
      "edhu": 8973,
      "edhum": 8974,
      "edia": 8975,
      "edunga": 8976,
      "ander": 8977,
      "anders": 8978,
      "andhal": 8979,
      "cember": 8980,
      "cements": 8981,
      "chi": 8982,
      "chy": 8983,
      "ched": 8984,
      "chur": 8985,
      "chess": 8986,
      "chment": 8987,
      "chine": 8988,
      "chill": 8989,
      "chore": 8990,
      "chair": 8991,
      "chale": 8992,
      "chadu": 8993,
      "chick": 8994,
      "chadhu": 8995,
      "chmark": 8996,
      "chicken": 8997,
      "chloro": 8998,
      "chirapalli": 8999,
      "toes": 9000,
      "tober": 9001,
      "tops": 9002,
      "tomb": 9003,
      "token": 9004,
      "toler": 9005,
      "total": 9006,
      "lab": 9007,
      "las": 9008,
      "laam": 9009,
      "ladu": 9010,
      "lades": 9011,
      "lawn": 9012,
      "laiyum": 9013,
      "layer": 9014,
      "launch": 9015,
      "lakh": 9016,
      "lapore": 9017,
      "labs": 9018,
      "labour": 9019,
      "lagiri": 9020,
      "layed": 9021,
      "lahbadi": 9022,
      "layers": 9023,
      "laziness": 9024,
      "eler": 9025,
      "elve": 9026,
      "elter": 9027,
      "eless": 9028,
      "elder": 9029,
      "eloc": 9030,
      "eliness": 9031,
      "ellai": 9032,
      "elihood": 9033,
      "ilway": 9034,
      "ilty": 9035,
      "ilization": 9036,
      "irupatha": 9037,
      "vertic": 9038,
      "verty": 9039,
      "verts": 9040,
      "vertical": 9041,
      "verify": 9042,
      "verification": 9043,
      "kup": 9044,
      "kuven": 9045,
      "kuveengala": 9046,
      "kuthu": 9047,
      "kunta": 9048,
      "kurma": 9049,
      "icated": 9050,
      "icchen": 9051,
      "icines": 9052,
      "icians": 9053,
      "iciary": 9054,
      "icode": 9055,
      "iconductor": 9056,
      "entist": 9057,
      "entment": 9058,
      "enters": 9059,
      "entering": 9060,
      "sex": 9061,
      "separation": 9062,
      "segment": 9063,
      "sekhar": 9064,
      "selection": 9065,
      "ionate": 9066,
      "Ennada": 9067,
      "Ennaala": 9068,
      "Ennakkum": 9069,
      "Ennakkaga": 9070,
      "theva": 9071,
      "thetics": 9072,
      "theorem": 9073,
      "had": 9074,
      "haven": 9075,
      "haust": 9076,
      "hash": 9077,
      "hagam": 9078,
      "habil": 9079,
      "ghost": 9080,
      "ady": 9081,
      "adum": 9082,
      "adise": 9083,
      "advo": 9084,
      "adual": 9085,
      "advis": 9086,
      "adding": 9087,
      "adoption": 9088,
      "admission": 9089,
      "advant": 9090,
      "advance": 9091,
      "advanced": 9092,
      "adoci": 9093,
      "fees": 9094,
      "feed": 9095,
      "feath": 9096,
      "feine": 9097,
      "feeding": 9098,
      "rida": 9099,
      "rier": 9100,
      "rima": 9101,
      "rians": 9102,
      "rides": 9103,
      "rific": 9104,
      "riding": 9105,
      "rived": 9106,
      "riya": 9107,
      "ribute": 9108,
      "rified": 9109,
      "riddhi": 9110,
      "loon": 9111,
      "locom": 9112,
      "loqu": 9113,
      "logo": 9114,
      "lofi": 9115,
      "losing": 9116,
      "loves": 9117,
      "loyment": 9118,
      "locations": 9119,
      "loyments": 9120,
      "forman": 9121,
      "forts": 9122,
      "forgi": 9123,
      "forced": 9124,
      "forwards": 9125,
      "forgiven": 9126,
      "lice": 9127,
      "lich": 9128,
      "lius": 9129,
      "liding": 9130,
      "lize": 9131,
      "litig": 9132,
      "lidation": 9133,
      "pannum": 9134,
      "pannirukken": 9135,
      "pannida": 9136,
      "pannich": 9137,
      "panniti": 9138,
      "pannina": 9139,
      "pannuma": 9140,
      "pannalama": 9141,
      "omic": 9142,
      "omass": 9143,
      "omena": 9144,
      "rait": 9145,
      "raho": 9146,
      "raath": 9147,
      "rash": 9148,
      "raise": 9149,
      "racy": 9150,
      "ravan": 9151,
      "rays": 9152,
      "racket": 9153,
      "rayal": 9154,
      "railway": 9155,
      "etc": 9156,
      "etah": 9157,
      "etooth": 9158,
      "etCode": 9159,
      "Unnakaga": 9160,
      "teriy": 9161,
      "teriyum": 9162,
      "ternal": 9163,
      "terminal": 9164,
      "ppen": 9165,
      "ppable": 9166,
      "ppak": 9167,
      "ppery": 9168,
      "pplement": 9169,
      "ayum": 9170,
      "ayana": 9171,
      "ayagar": 9172,
      "lytech": 9173,
      "ulating": 9174,
      "ulations": 9175,
      "ulates": 9176,
      "ulgence": 9177,
      "uting": 9178,
      "utation": 9179,
      "utten": 9180,
      "utney": 9181,
      "utdown": 9182,
      "utron": 9183,
      "utants": 9184,
      "utsav": 9185,
      "irukan": 9186,
      "irukenu": 9187,
      "irukanga": 9188,
      "irukiren": 9189,
      "ash": 9190,
      "asi": 9191,
      "asm": 9192,
      "asha": 9193,
      "asthan": 9194,
      "asible": 9195,
      "associ": 9196,
      "assem": 9197,
      "aswathi": 9198,
      "asamy": 9199,
      "nect": 9200,
      "neath": 9201,
      "neenga": 9202,
      "neutron": 9203,
      "older": 9204,
      "olently": 9205,
      "olingo": 9206,
      "olarship": 9207,
      "umal": 9208,
      "uments": 9209,
      "umulation": 9210,
      "umption": 9211,
      "umalai": 9212,
      "umbodhu": 9213,
      "umbnail": 9214,
      "unlike": 9215,
      "unchange": 9216,
      "unused": 9217,
      "unfort": 9218,
      "unclear": 9219,
      "unden": 9220,
      "united": 9221,
      "unsto": 9222,
      "unately": 9223,
      "unretur": 9224,
      "unconfirmed": 9225,
      "uncondition": 9226,
      "unnecessary": 9227,
      "until": 9228,
      "unpaved": 9229,
      "unpleasant": 9230,
      "unknowing": 9231,
      "undant": 9232,
      "unotri": 9233,
      "unanid": 9234,
      "estation": 9235,
      "estate": 9236,
      "estone": 9237,
      "estines": 9238,
      "estrian": 9239,
      "estyle": 9240,
      "estrians": 9241,
      "gee": 9242,
      "getic": 9243,
      "gevity": 9244,
      "geography": 9245,
      "geometry": 9246,
      "geogra": 9247,
      "nope": 9248,
      "nosing": 9249,
      "novation": 9250,
      "uren": 9251,
      "urer": 9252,
      "urge": 9253,
      "uradhu": 9254,
      "urthi": 9255,
      "urgery": 9256,
      "urgent": 9257,
      "urgently": 9258,
      "cted": 9259,
      "ctual": 9260,
      "ctural": 9261,
      "ctators": 9262,
      "ctonic": 9263,
      "kela": 9264,
      "keku": 9265,
      "keval": 9266,
      "kekira": 9267,
      "kekuren": 9268,
      "keleton": 9269,
      "ido": 9270,
      "idli": 9271,
      "idwar": 9272,
      "idential": 9273,
      "idhai": 9274,
      "identical": 9275,
      "pannurom": 9276,
      "pannudu": 9277,
      "pannuviya": 9278,
      "pannuvanga": 9279,
      "abad": 9280,
      "abhi": 9281,
      "ables": 9282,
      "abhai": 9283,
      "abhoo": 9284,
      "abilities": 9285,
      "abulary": 9286,
      "abundant": 9287,
      "dier": 9288,
      "died": 9289,
      "diation": 9290,
      "dible": 9291,
      "diary": 9292,
      "dibility": 9293,
      "digi": 9294,
      "divide": 9295,
      "diplo": 9296,
      "diagram": 9297,
      "diverse": 9298,
      "division": 9299,
      "divine": 9300,
      "diversi": 9301,
      "diaspora": 9302,
      "diobook": 9303,
      "directions": 9304,
      "diamet": 9305,
      "ession": 9306,
      "essment": 9307,
      "heal": 9308,
      "heater": 9309,
      "heals": 9310,
      "heats": 9311,
      "hemis": 9312,
      "headache": 9313,
      "aanena": 9314,
      "aanuthe": 9315,
      "venam": 9316,
      "venile": 9317,
      "venalum": 9318,
      "vendor": 9319,
      "ims": 9320,
      "imist": 9321,
      "image": 9322,
      "imally": 9323,
      "impr": 9324,
      "imposition": 9325,
      "impressive": 9326,
      "imaiy": 9327,
      "immers": 9328,
      "imlich": 9329,
      "poet": 9330,
      "pota": 9331,
      "pokku": 9332,
      "poser": 9333,
      "pokaa": 9334,
      "pocha": 9335,
      "pogin": 9336,
      "podr": 9337,
      "pokanam": 9338,
      "pothum": 9339,
      "powder": 9340,
      "pothol": 9341,
      "poverty": 9342,
      "pebbly": 9343,
      "peutic": 9344,
      "pedaling": 9345,
      "user": 9346,
      "usual": 9347,
      "bees": 9348,
      "beam": 9349,
      "beans": 9350,
      "beak": 9351,
      "behave": 9352,
      "bearing": 9353,
      "becomes": 9354,
      "behind": 9355,
      "begins": 9356,
      "enging": 9357,
      "engar": 9358,
      "engalum": 9359,
      "engagement": 9360,
      "engaging": 9361,
      "painter": 9362,
      "pause": 9363,
      "paint": 9364,
      "paign": 9365,
      "pacity": 9366,
      "pakk": 9367,
      "pages": 9368,
      "packing": 9369,
      "packet": 9370,
      "pahayam": 9371,
      "padal": 9372,
      "pairs": 9373,
      "pakshi": 9374,
      "parosc": 9375,
      "hover": 9376,
      "prove": 9377,
      "prose": 9378,
      "proven": 9379,
      "proton": 9380,
      "proxim": 9381,
      "provisions": 9382,
      "projection": 9383,
      "propels": 9384,
      "perk": 9385,
      "pers": 9386,
      "pert": 9387,
      "peru": 9388,
[...]
