{
  "version": "1.0",
  "truncation": null,
  "padding": null,
  "added_tokens": [
    {
      "id": 0,
      "content": "[PAD]",
      "single_word": false,
      "lstrip": false,
      "rstrip": false,
      "normalized": false,
      "special": true
    },
    {
      "id": 1,
      "content": "[END]",
      "single_word": false,
      "lstrip": false,
      "rstrip": false,
      "normalized": false,
      "special": true
    },
    {
      "id": 2,
      "content": "[PROMPT]",
      "single_word": false,
      "lstrip": false,
      "rstrip": false,
      "normalized": false,
      "special": true
    },
    {
      "id": 3,
      "content": "[AI]",
      "single_word": false,
      "lstrip": false,
      "rstrip": false,
      "normalized": false,
      "special": true
    },
    {
      "id": 4,
      "content": "[SEP]",
      "single_word": false,
      "lstrip": false,
      "rstrip": false,
      "normalized": false,
      "special": true
    },
    {
      "id": 5,
      "content": "[START]",
      "single_word": false,
      "lstrip": false,
      "rstrip": false,
      "normalized": false,
      "special": true
    },
    {
      "id": 6,
      "content": "[UNK]",
      "single_word": false,
      "lstrip": false,
      "rstrip": false,
      "normalized": false,
      "special": true
    }
  ],
  "normalizer": null,
  "pre_tokenizer": {
    "type": "Whitespace"
  },
  "post_processor": null,
  "decoder": null,
  "model": {
    "type": "BPE",
    "dropout": null,
    "unk_token": "[UNK]",
    "continuing_subword_prefix": null,
    "end_of_word_suffix": null,
    "fuse_unk": false,
    "byte_fallback": false,
    "ignore_merges": false,
    "vocab": {
      "[PAD]": 0,
      "[END]": 1,
      "[PROMPT]": 2,
      "[AI]": 3,
      "[SEP]": 4,
      "[START]": 5,
      "[UNK]": 6,
      "!": 7,
      "\"": 8,
      "#": 9,
      "%": 10,
      "&": 11,
      "'": 12,
      "(": 13,
      ")": 14,
      "*": 15,
      "+": 16,
      ",": 17,
      "-": 18,
      ".": 19,
      "/": 20,
      "0": 21,
      "1": 22,
      "2": 23,
      "3": 24,
      "4": 25,
      "5": 26,
      "6": 27,
      "7": 28,
      "8": 29,
      "9": 30,
      ":": 31,
      "=": 32,
      ">": 33,
      "?": 34,
      "A": 35,
      "B": 36,
      "C": 37,
      "D": 38,
      "E": 39,
      "F": 40,
      "G": 41,
      "H": 42,
      "I": 43,
      "J": 44,
      "K": 45,
      "L": 46,
      "M": 47,
      "N": 48,
      "O": 49,
      "P": 50,
      "Q": 51,
      "R": 52,
      "S": 53,
      "T": 54,
      "U": 55,
      "V": 56,
      "W": 57,
      "X": 58,
      "Y": 59,
      "Z": 60,
      "a": 61,
      "b": 62,
      "c": 63,
      "d": 64,
      "e": 65,
      "f": 66,
      "g": 67,
      "h": 68,
      "i": 69,
      "j": 70,
      "k": 71,
      "l": 72,
      "m": 73,
      "n": 74,
      "o": 75,
      "p": 76,
      "q": 77,
      "r": 78,
      "s": 79,
      "t": 80,
      "u": 81,
      "v": 82,
      "w": 83,
      "x": 84,
      "y": 85,
      "z": 86,
      "к": 87,
      "ல": 88,
      "வ": 89,
      "–": 90,
      "—": 91,
      "’": 92,
      "“": 93,
      "”": 94,
      "…": 95,
      "→": 96,
      "☀": 97,
      "☔": 98,
      "믿": 99,
      "️": 100,
      "🇮": 101,
      "🇳": 102,
      "🎉": 103,
      "🐱": 104,
      "💙": 105,
      "💪": 106,
      "🔥": 107,
      "😄": 108,
      "😊": 109,
      "🙏": 110,
      "🚀": 111,
      "🥹": 112,
      "an": 113,
      "th": 114,
      "la": 115,
      "er": 116,
      "in": 117,
      "ar": 118,
      "da": 119,
      "en": 120,
      "ma": 121,
      "na": 122,
      "tha": 123,
      "ga": 124,
      "ra": 125,
      "ru": 126,
      "pa": 127,
      "ku": 128,
      "on": 129,
      "ka": 130,
      "li": 131,
      "di": 132,
      "il": 133,
      "pan": 134,
      "?,": 135,
      "ke": 136,
      "st": 137,
      "re": 138,
      "thala": 139,
      "va": 140,
      "po": 141,
      "le": 142,
      "thu": 143,
      "vi": 144,
      "ya": 145,
      "iru": 146,
      "el": 147,
      "ing": 148,
      "ha": 149,
      "um": 150,
      "it": 151,
      "se": 152,
      "un": 153,
      "ro": 154,
      "ss": 155,
      "am": 156,
      "ti": 157,
      "ch": 158,
      "or": 159,
      "al": 160,
      "like": 161,
      "me": 162,
      "ver": 163,
      "ou": 164,
      "si": 165,
      "van": 166,
      "su": 167,
      "oo": 168,
      "tt": 169,
      "ee": 170,
      "dh": 171,
      "ve": 172,
      "mo": 173,
      "wa": 174,
      "du": 175,
      "var": 176,
      "tra": 177,
      "aa": 178,
      "thi": 179,
      "ri": 180,
      "lo": 181,
      "pann": 182,
      "per": 183,
      "mass": 184,
      "ce": 185,
      "enna": 186,
      "ah": 187,
      "te": 188,
      "ana": 189,
      "oru": 190,
      "vie": 191,
      "iruk": 192,
      "tu": 193,
      "de": 194,
      "thalai": 195,
      "sh": 196,
      "ol": 197,
      "fan": 198,
      ".\"": 199,
      "trail": 200,
      "gu": 201,
      "trailer": 202,
      "unga": 203,
      "mar": 204,
      "vel": 205,
      "sa": 206,
      "ta": 207,
      "ba": 208,
      "and": 209,
      "vera": 210,
      "?,\"": 211,
      "bu": 212,
      "pe": 213,
      "om": 214,
      "ge": 215,
      "inga": 216,
      "pada": 217,
      "dhu": 218,
      "you": 219,
      "level": 220,
      "tion": 221,
      "ent": 222,
      "kka": 223,
      "illa": 224,
      "movie": 225,
      "super": 226,
      "mu": 227,
      "to": 228,
      "nna": 229,
      "panna": 230,
      "kar": 231,
      "be": 232,
      "raj": 233,
      "enga": 234,
      "kku": 235,
      "than": 236,
      "ly": 237,
      "ne": 238,
      "fans": 239,
      "dha": 240,
      "no": 241,
      "lam": 242,
      "bro": 243,
      "Nee": 244,
      "iruku": 245,
      "ep": 246,
      "par": 247,
      "ig": 248,
      "rom": 249,
      "ren": 250,
      "paa": 251,
      "lu": 252,
      "sir": 253,
      "pu": 254,
      "nu": 255,
      "for": 256,
      "anga": 257,
      "ini": 258,
      "ck": 259,
      "padam": 260,
      "fe": 261,
      "sol": 262,
      "ye": 263,
      "ama": 264,
      "sam": 265,
      "ct": 266,
      "tta": 267,
      "ir": 268,
      "is": 269,
      "mma": 270,
      "lla": 271,
      "wait": 272,
      "iya": 273,
      "ith": 274,
      "thalaiva": 275,
      "ja": 276,
      "the": 277,
      "but": 278,
      "pannu": 279,
      "ter": 280,
      "naan": 281,
      "ap": 282,
      "vanga": 283,
      "ood": 284,
      "kan": 285,
      "aru": 286,
      "rea": 287,
      "nee": 288,
      "com": 289,
      "so": 290,
      "star": 291,
      "Enna": 292,
      "ther": 293,
      "chu": 294,
      "anu": 295,
      "ven": 296,
      ",\"": 297,
      "ara": 298,
      "love": 299,
      "ran": 300,
      "ic": 301,
      "her": 302,
      "rajini": 303,
      "one": 304,
      "thalaivar": 305,
      "pro": 306,
      "ena": 307,
      "ko": 308,
      "ner": 309,
      "waiting": 310,
      "as": 311,
      "he": 312,
      "hit": 313,
      "ul": 314,
      "ho": 315,
      "semma": 316,
      "con": 317,
      "kaa": 318,
      "likes": 319,
      "ni": 320,
      "ab": 321,
      "irukku": 322,
      "iy": 323,
      "marana": 324,
      "ht": 325,
      "time": 326,
      "ip": 327,
      "ment": 328,
      "irun": 329,
      "ys": 330,
      "es": 331,
      "out": 332,
      "amil": 333,
      "panra": 334,
      "Aama": 335,
      "thaan": 336,
      "vis": 337,
      "anna": 338,
      "wor": 339,
      "bg": 340,
      "of": 341,
      "ine": 342,
      "bgm": 343,
      "jay": 344,
      "koo": 345,
      "cha": 346,
      "mudi": 347,
      "pon": 348,
      "kon": 349,
      "sha": 350,
      "ki": 351,
      "end": 352,
      "chi": 353,
      "ram": 354,
      "aj": 355,
      "ple": 356,
      "view": 357,
      "anum": 358,
      "vara": 359,
      "bo": 360,
      "are": 361,
      "matt": 362,
      "man": 363,
      "AI": 364,
      "vijay": 365,
      "tel": 366,
      "padi": 367,
      "ook": 368,
      "kooda": 369,
      "co": 370,
      "epdi": 371,
      "petta": 372,
      "maa": 373,
      "ex": 374,
      "nalla": 375,
      "ry": 376,
      "ajith": 377,
      "thalaivaa": 378,
      "we": 379,
      "dis": 380,
      "pod": 381,
      "hat": 382,
      "Unna": 383,
      "kum": 384,
      "dial": 385,
      "big": 386,
      "oda": 387,
      "ad": 388,
      "ll": 389,
      "pathi": 390,
      "dialo": 391,
      "thar": 392,
      "ture": 393,
      "?\"": 394,
      "unna": 395,
      "intha": 396,
      "ble": 397,
      "ant": 398,
      "viswa": 399,
      "ST": 400,
      "path": 401,
      "ari": 402,
      "mi": 403,
      "gue": 404,
      "LST": 405,
      "LSTM": 406,
      "ithu": 407,
      "qu": 408,
      "sema": 409,
      "ding": 410,
      "ci": 411,
      "from": 412,
      "ways": 413,
      "views": 414,
      "varu": 415,
      "fa": 416,
      "ase": 417,
      "lan": 418,
      "pi": 419,
      "about": 420,
      "ink": 421,
      "ed": 422,
      "ful": 423,
      "at": 424,
      "gi": 425,
      "por": 426,
      "feel": 427,
      "Na": 428,
      "use": 429,
      "ence": 430,
      "ttu": 431,
      "yu": 432,
      "son": 433,
      "ala": 434,
      "ow": 435,
      "pakka": 436,
      "inn": 437,
      "day": 438,
      "karthi": 439,
      "sic": 440,
      "dialogue": 441,
      "im": 442,
      "vaa": 443,
      "ight": 444,
      "!\"": 445,
      "sc": 446,
      "anush": 447,
      "here": 448,
      "tri": 449,
      "lay": 450,
      "very": 451,
      "ken": 452,
      "all": 453,
      "ty": 454,
      "est": 455,
      "mela": 456,
      "ers": 457,
      "ill": 458,
      "edu": 459,
      "kai": 460,
      "sty": 461,
      "viswasam": 462,
      "ac": 463,
      "adi": 464,
      "aagu": 465,
      "ponga": 466,
      "now": 467,
      "our": 468,
      "ringa": 469,
      "ellam": 470,
      "podunga": 471,
      "mattum": 472,
      "hi": 473,
      "Naan": 474,
      "last": 475,
      "work": 476,
      "ak": 477,
      "sk": 478,
      "ella": 479,
      "irukka": 480,
      "pathy": 481,
      "thing": 482,
      "bi": 483,
      "ff": 484,
      "tamil": 485,
      "eru": 486,
      "Aamaa": 487,
      "dy": 488,
      "panren": 489,
      "best": 490,
      "pola": 491,
      "yo": 492,
      "look": 493,
      "nera": 494,
      "dhanush": 495,
      "ila": 496,
      "dislike": 497,
      "bigil": 498,
      "cu": 499,
      "go": 500,
      "sethu": 501,
      "una": 502,
      "op": 503,
      "port": 504,
      "mor": 505,
      "kit": 506,
      "data": 507,
      "kram": 508,
      "indi": 509,
      "ai": 510,
      "del": 511,
      "age": 512,
      "iruka": 513,
      "You": 514,
      "style": 515,
      "thalapathy": 516,
      "always": 517,
      "yan": 518,
      "make": 519,
      "my": 520,
      "vikram": 521,
      "pannunga": 522,
      "kola": 523,
      "yum": 524,
      "?\",\"": 525,
      "ju": 526,
      "mil": 527,
      "tren": 528,
      "wee": 529,
      "ssi": 530,
      "apdi": 531,
      "und": 532,
      "model": 533,
      "ning": 534,
      "xt": 535,
      "ite": 536,
      "chan": 537,
      "ard": 538,
      "nadi": 539,
      "ation": 540,
      "In": 541,
      "padu": 542,
      "val": 543,
      "comment": 544,
      "ravanga": 545,
      "mall": 546,
      "indha": 547,
      "nal": 548,
      "rajni": 549,
      "hero": 550,
      "ps": 551,
      "trending": 552,
      "vu": 553,
      "kumar": 554,
      "sollu": 555,
      "uture": 556,
      "ally": 557,
      "veri": 558,
      "yuvan": 559,
      "vo": 560,
      "ankar": 561,
      "kaithi": 562,
      "act": 563,
      "pp": 564,
      "dai": 565,
      "dhan": 566,
      "tter": 567,
      "engala": 568,
      "ster": 569,
      "music": 570,
      "neraya": 571,
      "yen": 572,
      "tell": 573,
      "ore": 574,
      "ppa": 575,
      "pre": 576,
      "king": 577,
      "pink": 578,
      "mudiya": 579,
      "jam": 580,
      "ph": 581,
      "daa": 582,
      "up": 583,
      "ang": 584,
      "mat": 585,
      "maari": 586,
      "shaAI": 587,
      "fi": 588,
      "vai": 589,
      "ser": 590,
      "some": 591,
      "rele": 592,
      "thiri": 593,
      "do": 594,
      "good": 595,
      "ong": 596,
      "Ma": 597,
      "thuku": 598,
      "em": 599,
      "ght": 600,
      "paatha": 601,
      "wer": 602,
      "iny": 603,
      "gum": 604,
      "De": 605,
      "tru": 606,
      "paar": 607,
      "tic": 608,
      "maran": 609,
      "know": 610,
      "kay": 611,
      "vida": 612,
      "can": 613,
      "what": 614,
      "ea": 615,
      "plan": 616,
      "release": 617,
      "kaga": 618,
      "sethupathi": 619,
      "saa": 620,
      "lama": 621,
      "ind": 622,
      "panrathu": 623,
      "ene": 624,
      "ell": 625,
      "jo": 626,
      "pathu": 627,
      "itu": 628,
      "back": 629,
      "Tamil": 630,
      "fir": 631,
      "innum": 632,
      "irukken": 633,
      "asu": 634,
      "iyan": 635,
      "want": 636,
      "kala": 637,
      "che": 638,
      "lock": 639,
      "kkum": 640,
      "small": 641,
      "lion": 642,
      ".,\"": 643,
      "Ne": 644,
      "ice": 645,
      "with": 646,
      "ung": 647,
      "panni": 648,
      "nada": 649,
      "ate": 650,
      "ity": 651,
      "asinga": 652,
      "att": 653,
      "ance": 654,
      "vetri": 655,
      "unaku": 656,
      "neenga": 657,
      "pongal": 658,
      "No": 659,
      "Tiny": 660,
      "ten": 661,
      "irukum": 662,
      "spe": 663,
      "dhi": 664,
      "Al": 665,
      "ali": 666,
      "run": 667,
      "Sha": 668,
      "ion": 669,
      "namma": 670,
      "patha": 671,
      "cess": 672,
      "heen": 673,
      "Shaheen": 674,
      "shankar": 675,
      "idhu": 676,
      "kuda": 677,
      "this": 678,
      "future": 679,
      "by": 680,
      "ction": 681,
      "late": 682,
      "wali": 683,
      "konda": 684,
      "san": 685,
      "siva": 686,
      "podu": 687,
      "LM": 688,
      "mer": 689,
      "ts": 690,
      "inter": 691,
      "pidi": 692,
      "low": 693,
      "vj": 694,
      "riend": 695,
      "million": 696,
      "lear": 697,
      "yaaru": 698,
      "romba": 699,
      "lum": 700,
      "sp": 701,
      "gala": 702,
      "vum": 703,
      "hai": 704,
      "olly": 705,
      "hel": 706,
      "ur": 707,
      "ugu": 708,
      "remake": 709,
      "see": 710,
      "ssible": 711,
      "train": 712,
      "peru": 713,
      "ds": 714,
      "yar": 715,
      "thara": 716,
      "oruthar": 717,
      "reat": 718,
      "ipdi": 719,
      "not": 720,
      "TinyLM": 721,
      "wood": 722,
      "ber": 723,
      "block": 724,
      "gan": 725,
      "vantha": 726,
      "kanum": 727,
      "fil": 728,
      "ker": 729,
      "weet": 730,
      "cor": 731,
      "hindi": 732,
      "kura": 733,
      "Yes": 734,
      "mari": 735,
      "konjam": 736,
      "first": 737,
      "ollywood": 738,
      "pona": 739,
      "athu": 740,
      "okay": 741,
      "mathiri": 742,
      "kudu": 743,
      "vam": 744,
      "set": 745,
      "vaya": 746,
      "possible": 747,
      "theri": 748,
      "life": 749,
      "sion": 750,
      "ji": 751,
      "zh": 752,
      "ention": 753,
      "that": 754,
      "viya": 755,
      "sweet": 756,
      "ut": 757,
      "thana": 758,
      "diwali": 759,
      "buster": 760,
      "luku": 761,
      "how": 762,
      "sure": 763,
      "varum": 764,
      "hand": 765,
      "ld": 766,
      "rect": 767,
      "vachu": 768,
      "ingala": 769,
      "Re": 770,
      "try": 771,
      "vs": 772,
      "porom": 773,
      "more": 774,
      "Illa": 775,
      "ay": 776,
      "gh": 777,
      "pla": 778,
      "sel": 779,
      "ting": 780,
      "pana": 781,
      "kkal": 782,
      "thanam": 783,
      "En": 784,
      "aw": 785,
      "ganum": 786,
      "cial": 787,
      "attention": 788,
      "vlo": 789,
      "aama": 790,
      "onal": 791,
      "ded": 792,
      "irru": 793,
      "gra": 794,
      "pora": 795,
      "please": 796,
      "asuran": 797,
      "ava": 798,
      "pt": 799,
      "row": 800,
      "dei": 801,
      "0k": 802,
      "ca": 803,
      "poi": 804,
      "thula": 805,
      "happ": 806,
      "sup": 807,
      "night": 808,
      "paduthu": 809,
      "irundha": 810,
      "come": 811,
      "avan": 812,
      "je": 813,
      "mokka": 814,
      "iruntha": 815,
      "Dai": 816,
      "cine": 817,
      "sy": 818,
      "veengala": 819,
      "pudi": 820,
      "ters": 821,
      "That": 822,
      "sum": 823,
      "lai": 824,
      "acting": 825,
      "evan": 826,
      "nan": 827,
      "laya": 828,
      "text": 829,
      "sar": 830,
      "only": 831,
      "thalaa": 832,
      "sub": 833,
      "num": 834,
      "mal": 835,
      "vaanga": 836,
      "full": 837,
      "film": 838,
      "friend": 839,
      "antha": 840,
      "tions": 841,
      "eppa": 842,
      "process": 843,
      "telugu": 844,
      "cy": 845,
      "over": 846,
      "ous": 847,
      "aga": 848,
      "nena": 849,
      "u1": 850,
      "wow": 851,
      "res": 852,
      "just": 853,
      "Dei": 854,
      "vice": 855,
      "aagum": 856,
      "teas": 857,
      "samba": 858,
      "mory": 859,
      "verithanam": 860,
      "Machi": 861,
      "yam": 862,
      "col": 863,
      "kol": 864,
      "nk": 865,
      "ans": 866,
      "ral": 867,
      "reen": 868,
      "get": 869,
      "pannuveengala": 870,
      "kanth": 871,
      "ready": 872,
      "well": 873,
      "tho": 874,
      "aram": 875,
      "naa": 876,
      "stor": 877,
      "superstar": 878,
      "pannuviya": 879,
      "scene": 880,
      "morning": 881,
      "dail": 882,
      "sim": 883,
      "sap": 884,
      "layers": 885,
      "under": 886,
      "min": 887,
      "ani": 888,
      "dia": 889,
      "times": 890,
      "teaser": 891,
      "every": 892,
      "yaru": 893,
      "less": 894,
      "voice": 895,
      "nkp": 896,
      "nerkonda": 897,
      "ffic": 898,
      "af": 899,
      "id": 900,
      "pl": 901,
      "irukaa": 902,
      "tional": 903,
      "chiya": 904,
      "paaka": 905,
      "put": 906,
      "cinema": 907,
      "Th": 908,
      "au": 909,
      "gy": 910,
      "gam": 911,
      "1m": 912,
      "sig": 913,
      "riya": 914,
      "thaa": 915,
      "rum": 916,
      "lish": 917,
      "ree": 918,
      "your": 919,
      "us": 920,
      "paka": 921,
      "song": 922,
      "eduthu": 923,
      "thali": 924,
      "next": 925,
      "rans": 926,
      "mudiyum": 927,
      "crea": 928,
      "pra": 929,
      "kal": 930,
      "pand": 931,
      "ennai": 932,
      "chiyaan": 933,
      "10": 934,
      "dan": 935,
      "line": 936,
      "gal": 937,
      "paathu": 938,
      "off": 939,
      "fav": 940,
      "kerala": 941,
      "sanga": 942,
      "ted": 943,
      "araj": 944,
      "fast": 945,
      "aksha": 946,
      "den": 947,
      "tive": 948,
      "alum": 949,
      "vanthu": 950,
      "theriy": 951,
      "ippo": 952,
      "trans": 953,
      "any": 954,
      "poda": 955,
      "Ennakum": 956,
      "import": 957,
      "bha": 958,
      "pri": 959,
      "vach": 960,
      "pannanga": 961,
      "quest": 962,
      "interest": 963,
      "akshay": 964,
      "tch": 965,
      "Always": 966,
      "innoru": 967,
      "after": 968,
      "ream": 969,
      "tharam": 970,
      "book": 971,
      "vide": 972,
      "vandhu": 973,
      "new": 974,
      "solra": 975,
      "looks": 976,
      "blockbuster": 977,
      "panu": 978,
      "food": 979,
      "yaar": 980,
      "memory": 981,
      "enaku": 982,
      "feeling": 983,
      "actu": 984,
      "support": 985,
      "aana": 986,
      "ste": 987,
      "better": 988,
      "Ennakku": 989,
      "Good": 990,
      "iruke": 991,
      "fic": 992,
      "rong": 993,
      "ame": 994,
      "peri": 995,
      "ennada": 996,
      "illai": 997,
      "kandi": 998,
      "wesome": 999,
      "fin": 1000,
      "hy": 1001,
      "hone": 1002,
      "mai": 1003,
      "nala": 1004,
      "nama": 1005,
      "ket": 1006,
      "vasam": 1007,
      "dey": 1008,
      "mudiyathu": 1009,
      "actually": 1010,
      "awesome": 1011,
      "tips": 1012,
      "sira": 1013,
      "vana": 1014,
      "der": 1015,
      "mana": 1016,
      "enti": 1017,
      "diya": 1018,
      "karthik": 1019,
      "ffer": 1020,
      "kitta": 1021,
      "daily": 1022,
      "fer": 1023,
      "ks": 1024,
      "wi": 1025,
      "vjs": 1026,
      "video": 1027,
      "Every": 1028,
      "fore": 1029,
      "main": 1030,
      "nam": 1031,
      "vid": 1032,
      "dhe": 1033,
      "app": 1034,
      "cur": 1035,
      "important": 1036,
      "ener": 1037,
      "sama": 1038,
      "gethu": 1039,
      "respon": 1040,
      "gv": 1041,
      "tit": 1042,
      "sta": 1043,
      "vali": 1044,
      "rock": 1045,
      "miss": 1046,
      "paarvai": 1047,
      "ipo": 1048,
      "think": 1049,
      "mate": 1050,
      "ool": 1051,
      "oose": 1052,
      "Un": 1053,
      "cla": 1054,
      "date": 1055,
      "varanum": 1056,
      "pannuvaanga": 1057,
      "screen": 1058,
      "tharamana": 1059,
      "iku": 1060,
      "tti": 1061,
      "uma": 1062,
      "lagi": 1063,
      "makkal": 1064,
      "leval": 1065,
      "needed": 1066,
      "irukkum": 1067,
      "phone": 1068,
      "kena": 1069,
      "pic": 1070,
      "vom": 1071,
      "pogu": 1072,
      "pottu": 1073,
      "power": 1074,
      "sur": 1075,
      "lukku": 1076,
      "maass": 1077,
      "paduthuringa": 1078,
      "dee": 1079,
      "light": 1080,
      "sed": 1081,
      "watch": 1082,
      "eppadi": 1083,
      "fect": 1084,
      "week": 1085,
      "happy": 1086,
      "story": 1087,
      "kam": 1088,
      "iruken": 1089,
      "Wor": 1090,
      "jun": 1091,
      "thiru": 1092,
      "old": 1093,
      "saya": 1094,
      "neu": 1095,
      "ulti": 1096,
      "experi": 1097,
      "Ch": 1098,
      "flo": 1099,
      "hollywood": 1100,
      "sun": 1101,
      "who": 1102,
      "name": 1103,
      "aaga": 1104,
      "panradhu": 1105,
      "din": 1106,
      "ome": 1107,
      "entha": 1108,
      "game": 1109,
      "poo": 1110,
      "veriyan": 1111,
      "handle": 1112,
      "Ex": 1113,
      "adu": 1114,
      "et": 1115,
      "tar": 1116,
      "tung": 1117,
      "differ": 1118,
      "pandey": 1119,
      "padatha": 1120,
      "sor": 1121,
      "int": 1122,
      "arjun": 1123,
      "tham": 1124,
      "stand": 1125,
      "real": 1126,
      "poli": 1127,
      "version": 1128,
      "tup": 1129,
      "dhaan": 1130,
      "year": 1131,
      "vayasu": 1132,
      "ffici": 1133,
      "question": 1134,
      "tunggu": 1135,
      "care": 1136,
      "pun": 1137,
      "ud": 1138,
      "days": 1139,
      "kuthu": 1140,
      "pog": 1141,
      "potu": 1142,
      "ough": 1143,
      "net": 1144,
      "comple": 1145,
      "start": 1146,
      "experience": 1147,
      "But": 1148,
      "brea": 1149,
      "garaj": 1150,
      "kk": 1151,
      "then": 1152,
      "rate": 1153,
      "seri": 1154,
      "help": 1155,
      "An": 1156,
      "Com": 1157,
      "ada": 1158,
      "adhu": 1159,
      "dum": 1160,
      "if": 1161,
      "vf": 1162,
      "lim": 1163,
      "yal": 1164,
      "pannren": 1165,
      "summa": 1166,
      "sambavam": 1167,
      "->": 1168,
      "yama": 1169,
      "mess": 1170,
      "ahu": 1171,
      "pesu": 1172,
      "learn": 1173,
      "av": 1174,
      "vittu": 1175,
      "wea": 1176,
      "ethu": 1177,
      "will": 1178,
      "rathu": 1179,
      "varuma": 1180,
      "ure": 1181,
      "arch": 1182,
      "haha": 1183,
      "tuk": 1184,
      "combo": 1185,
      "sonna": 1186,
      "India": 1187,
      "pidikkum": 1188,
      "itha": 1189,
      "ppu": 1190,
      "sequ": 1191,
      "alk": 1192,
      "solla": 1193,
      "blem": 1194,
      "nadaka": 1195,
      "message": 1196,
      "weather": 1197,
      "Pro": 1198,
      "hu": 1199,
      "inna": 1200,
      "malay": 1201,
      "guage": 1202,
      "karu": 1203,
      "solli": 1204,
      "special": 1205,
      "fficient": 1206,
      "cal": 1207,
      "lv": 1208,
      "rent": 1209,
      "ze": 1210,
      "lity": 1211,
      "pothu": 1212,
      "untuk": 1213,
      "andha": 1214,
      "plain": 1215,
      "award": 1216,
      "dream": 1217,
      "py": 1218,
      "aran": 1219,
      "ruk": 1220,
      "venum": 1221,
      "training": 1222,
      "Be": 1223,
      "great": 1224,
      "rai": 1225,
      "yaa": 1226,
      "device": 1227,
      "noda": 1228,
      "paraa": 1229,
      "lue": 1230,
      "rajinikanth": 1231,
      "cont": 1232,
      "dislikes": 1233,
      "eruku": 1234,
      "maranam": 1235,
      "ultimate": 1236,
      "flop": 1237,
      "vfx": 1238,
      "bum": 1239,
      "fo": 1240,
      "hum": 1241,
      "naal": 1242,
      "panunga": 1243,
      "orite": 1244,
      "cept": 1245,
      "irukk": 1246,
      "movies": 1247,
      "part": 1248,
      "PU": 1249,
      "ving": 1250,
      "yenna": 1251,
      "laa": 1252,
      "sold": 1253,
      "solravanga": 1254,
      "jai": 1255,
      "vangala": 1256,
      "kira": 1257,
      "kita": 1258,
      "sapda": 1259,
      "On": 1260,
      "Per": 1261,
      "Tra": 1262,
      "car": 1263,
      "ft": 1264,
      "dam": 1265,
      "panlam": 1266,
      "iti": 1267,
      "create": 1268,
      "favorite": 1269,
      "different": 1270,
      "Rom": 1271,
      "bl": 1272,
      "fight": 1273,
      "pen": 1274,
      "sing": 1275,
      "thoo": 1276,
      "kada": 1277,
      "vandha": 1278,
      "bed": 1279,
      "kaali": 1280,
      "aaguthu": 1281,
      "color": 1282,
      "class": 1283,
      ".,": 1284,
      "Me": 1285,
      "hard": 1286,
      "nin": 1287,
      "ould": 1288,
      "pannit": 1289,
      "ship": 1290,
      "parak": 1291,
      "yes": 1292,
      "bot": 1293,
      "copy": 1294,
      "action": 1295,
      "correct": 1296,
      "emo": 1297,
      "mon": 1298,
      "nga": 1299,
      "ranga": 1300,
      "laama": 1301,
      "rasi": 1302,
      "alth": 1303,
      "versa": 1304,
      "side": 1305,
      "reason": 1306,
      "irunthu": 1307,
      "matten": 1308,
      "weight": 1309,
      "phy": 1310,
      "matum": 1311,
      "transfor": 1312,
      "Li": 1313,
      "Lo": 1314,
      "ag": 1315,
      "thai": 1316,
      "pannuven": 1317,
      "bih": 1318,
      "change": 1319,
      "Not": 1320,
      "selvan": 1321,
      "ast": 1322,
      "treat": 1323,
      "list": 1324,
      "direct": 1325,
      "panum": 1326,
      "lebih": 1327,
      "vela": 1328,
      "right": 1329,
      "tube": 1330,
      "soll": 1331,
      "prove": 1332,
      "varala": 1333,
      "varuthu": 1334,
      "vaaya": 1335,
      "yani": 1336,
      "pasanga": 1337,
      "ress": 1338,
      "pom": 1339,
      "have": 1340,
      "padathula": 1341,
      "superb": 1342,
      "eppo": 1343,
      "paru": 1344,
      "check": 1345,
      "innoruthara": 1346,
      "cer": 1347,
      "katra": 1348,
      "reenga": 1349,
      "ital": 1350,
      "dula": 1351,
      "rajani": 1352,
      "hear": 1353,
      "ippa": 1354,
      "coun": 1355,
      "again": 1356,
      "ference": 1357,
      "bit": 1358,
      "fun": 1359,
      "kana": 1360,
      "mind": 1361,
      "potta": 1362,
      "chiyan": 1363,
      "share": 1364,
      "say": 1365,
      "today": 1366,
      "problem": 1367,
      "hey": 1368,
      "mudiyu": 1369,
      "language": 1370,
      "adichi": 1371,
      "ject": 1372,
      "paraak": 1373,
      "dar": 1374,
      "eh": 1375,
      "munna": 1376,
      "tahu": 1377,
      "thinga": 1378,
      "pak": 1379,
      "adichu": 1380,
      "ality": 1381,
      "lvl": 1382,
      "Con": 1383,
      "Sari": 1384,
      "ach": 1385,
      "cture": 1386,
      "goose": 1387,
      "ust": 1388,
      "vin": 1389,
      "thon": 1390,
      "still": 1391,
      "team": 1392,
      "pannathu": 1393,
      "parame": 1394,
      "theriya": 1395,
      "visvasam": 1396,
      "varai": 1397,
      "aaguven": 1398,
      "eppavum": 1399,
      "Phone": 1400,
      "bir": 1401,
      "ethi": 1402,
      "ok": 1403,
      "ute": 1404,
      "yoda": 1405,
      "enn": 1406,
      "panga": 1407,
      "leep": 1408,
      "vere": 1409,
      "way": 1410,
      "travel": 1411,
      "tur": 1412,
      "kodu": 1413,
      "sign": 1414,
      "devices": 1415,
      "human": 1416,
      "transformer": 1417,
      "Da": 1418,
      "gen": 1419,
      "oth": 1420,
      "sm": 1421,
      "too": 1422,
      "vil": 1423,
      "era": 1424,
      "ary": 1425,
      "comm": 1426,
      "nice": 1427,
      "mile": 1428,
      "solluva": 1429,
      "answer": 1430,
      "simple": 1431,
      "sorry": 1432,
      "call": 1433,
      "df": 1434,
      "kren": 1435,
      "odi": 1436,
      "win": 1437,
      "stru": 1438,
      "vala": 1439,
      "sad": 1440,
      "buil": 1441,
      "words": 1442,
      "varathu": 1443,
      "yosi": 1444,
      "New": 1445,
      "vetrimaran": 1446,
      "understand": 1447,
      "parameters": 1448,
      "Di": 1449,
      "evlo": 1450,
      "tam": 1451,
      "yi": 1452,
      "anam": 1453,
      "key": 1454,
      "haters": 1455,
      "ric": 1456,
      "taka": 1457,
      "kkam": 1458,
      "pathutu": 1459,
      "network": 1460,
      "mudiyuma": 1461,
      "Future": 1462,
      "adhan": 1463,
      "ger": 1464,
      "ile": 1465,
      "kel": 1466,
      "its": 1467,
      "ort": 1468,
      "loda": 1469,
      "ahh": 1470,
      "irukaru": 1471,
      "ungala": 1472,
      "sai": 1473,
      "pannuga": 1474,
      "ippadi": 1475,
      "ext": 1476,
      "own": 1477,
      "ttern": 1478,
      "wish": 1479,
      "questions": 1480,
      "bumps": 1481,
      "00k": 1482,
      "bar": 1483,
      "ear": 1484,
      "fdf": 1485,
      "hour": 1486,
      "ise": 1487,
      "rm": 1488,
      "zha": 1489,
      "lie": 1490,
      "recor": 1491,
      "role": 1492,
      "moment": 1493,
      "gether": 1494,
      "much": 1495,
      "able": 1496,
      "forever": 1497,
      "fdfs": 1498,
      "Mo": 1499,
      "avar": 1500,
      "baa": 1501,
      "cti": 1502,
      "don": 1503,
      "hen": 1504,
      "iss": 1505,
      "tan": 1506,
      "mavan": 1507,
      "national": 1508,
      "red": 1509,
      "vada": 1510,
      "poganum": 1511,
      "kara": 1512,
      "karna": 1513,
      "produ": 1514,
      "conversa": 1515,
      "comments": 1516,
      "Neenga": 1517,
      "surya": 1518,
      "2k": 1519,
      "efficient": 1520,
      "gg": 1521,
      "kh": 1522,
      "zing": 1523,
      "arm": 1524,
      "radhu": 1525,
      "pota": 1526,
      "vidu": 1527,
      "chen": 1528,
      "sis": 1529,
      "bat": 1530,
      "paakura": 1531,
      "iyacha": 1532,
      "boss": 1533,
      "ourite": 1534,
      "munnadi": 1535,
      "fine": 1536,
      "wrong": 1537,
      "input": 1538,
      "point": 1539,
      "thukku": 1540,
      "yaya": 1541,
      "dub": 1542,
      "bali": 1543,
      "buraj": 1544,
      "ness": 1545,
      "irundhu": 1546,
      "imple": 1547,
      "job": 1548,
      "complex": 1549,
      "blood": 1550,
      "Sh": 1551,
      "ace": 1552,
      "clo": 1553,
      "dou": 1554,
      "gro": 1555,
      "ies": 1556,
      "nel": 1557,
      "rin": 1558,
      "nadu": 1559,
      "pati": 1560,
      "pattern": 1561,
      "kalam": 1562,
      "tiful": 1563,
      "also": 1564,
      "irukanum": 1565,
      "tain": 1566,
      "health": 1567,
      "trip": 1568,
      "layum": 1569,
      "each": 1570,
      "sivakarthi": 1571,
      "irruku": 1572,
      "final": 1573,
      "current": 1574,
      "malaysi": 1575,
      "\",\"": 1576,
      "St": 1577,
      "Your": 1578,
      "dri": 1579,
      "dance": 1580,
      "ey": 1581,
      "iam": 1582,
      "mr": 1583,
      "nara": 1584,
      "laam": 1585,
      "vathu": 1586,
      "unu": 1587,
      "loke": 1588,
      "design": 1589,
      "bad": 1590,
      "bayam": 1591,
      "youtube": 1592,
      "illama": 1593,
      "home": 1594,
      "ellarum": 1595,
      "kollama": 1596,
      "ential": 1597,
      "goosebumps": 1598,
      "karnataka": 1599,
      "gram": 1600,
      "grow": 1601,
      "sankar": 1602,
      "why": 1603,
      "zation": 1604,
      "may": 1605,
      "oodi": 1606,
      "aachu": 1607,
      "project": 1608,
      "indian": 1609,
      "nenai": 1610,
      "feelings": 1611,
      "namba": 1612,
      "poguthu": 1613,
      "break": 1614,
      "What": 1615,
      "bby": 1616,
      "glish": 1617,
      "smile": 1618,
      "tun": 1619,
      "lar": 1620,
      "inum": 1621,
      "thum": 1622,
      "ormal": 1623,
      "pera": 1624,
      "omg": 1625,
      "same": 1626,
      "appa": 1627,
      "anuma": 1628,
      "world": 1629,
      "quality": 1630,
      "fied": 1631,
      "sanda": 1632,
      "place": 1633,
      "offee": 1634,
      "emotions": 1635,
      "Ba": 1636,
      "cation": 1637,
      "other": 1638,
      "uh": 1639,
      "wo": 1640,
      "zz": 1641,
      "anil": 1642,
      "max": 1643,
      "chennai": 1644,
      "dho": 1645,
      "most": 1646,
      "show": 1647,
      "romise": 1648,
      "ical": 1649,
      "oney": 1650,
      "amily": 1651,
      "aagura": 1652,
      "dataset": 1653,
      "mudiyala": 1654,
      "neural": 1655,
      "20": 1656,
      "Long": 1657,
      "Pa": 1658,
      "br": 1659,
      "cm": 1660,
      "even": 1661,
      "kri": 1662,
      "tee": 1663,
      "uthu": 1664,
      "anal": 1665,
      "lation": 1666,
      "ero": 1667,
      "rama": 1668,
      "katta": 1669,
      "kadai": 1670,
      "pani": 1671,
      "dhar": 1672,
      "tral": 1673,
      "amazing": 1674,
      "need": 1675,
      "rangaraj": 1676,
      "iyum": 1677,
      "?\",": 1678,
      "improve": 1679,
      "channel": 1680,
      "match": 1681,
      "therika": 1682,
      "everything": 1683,
      "kandipa": 1684,
      "Chennai": 1685,
      "lokesh": 1686,
      "Do": 1687,
      "Small": 1688,
      "ater": 1689,
      "elam": 1690,
      "ethana": 1691,
      "kki": 1692,
      "uku": 1693,
      "yer": 1694,
      "inference": 1695,
      "gama": 1696,
      "kun": 1697,
      "stu": 1698,
      "poran": 1699,
      "lea": 1700,
      "let": 1701,
      "chit": 1702,
      "ungaluku": 1703,
      "tation": 1704,
      "token": 1705,
      "parvai": 1706,
      "inion": 1707,
      "icha": 1708,
      "irunden": 1709,
      "aaguvaaya": 1710,
      "young": 1711,
      "opinion": 1712,
      "valthu": 1713,
      "dhiri": 1714,
      "cause": 1715,
      "theriyuma": 1716,
      "books": 1717,
      "limit": 1718,
      "1k": 1719,
      "He": 1720,
      "Simple": 1721,
      "Ver": 1722,
      "ivlo": 1723,
      "sen": 1724,
      "tr": 1725,
      "ulla": 1726,
      "enough": 1727,
      "dict": 1728,
      "panringa": 1729,
      "thukaga": 1730,
      "visu": 1731,
      "sila": 1732,
      "puri": 1733,
      "reach": 1734,
      "scri": 1735,
      "poganuma": 1736,
      "director": 1737,
      "Best": 1738,
      "Po": 1739,
      "The": 1740,
      "dunga": 1741,
      "ela": 1742,
      "iva": 1743,
      "ide": 1744,
      "long": 1745,
      "yara": 1746,
      "thday": 1747,
      "kali": 1748,
      "vaga": 1749,
      "dep": 1750,
      "ungaloda": 1751,
      "safe": 1752,
      "parunga": 1753,
      "luv": 1754,
      "ithana": 1755,
      "soon": 1756,
      "kaala": 1757,
      "worth": 1758,
      "both": 1759,
      "maathiri": 1760,
      "ssion": 1761,
      "sarkar": 1762,
      "minute": 1763,
      "pls": 1764,
      "deepa": 1765,
      "Co": 1766,
      "adha": 1767,
      "bt": 1768,
      "ele": 1769,
      "ever": 1770,
      "ply": 1771,
      "uu": 1772,
      "vee": 1773,
      "mala": 1774,
      "matha": 1775,
      "maaran": 1776,
      "paaru": 1777,
      "kash": 1778,
      "did": 1779,
      "keyan": 1780,
      "waste": 1781,
      "pannen": 1782,
      "based": 1783,
      "gest": 1784,
      "padama": 1785,
      "beat": 1786,
      "hoto": 1787,
      "hobby": 1788,
      "context": 1789,
      "output": 1790,
      "bike": 1791,
      "bility": 1792,
      "open": 1793,
      "itecture": 1794,
      "joy": 1795,
      "self": 1796,
      "kandippa": 1797,
      "count": 1798,
      "krish": 1799,
      "Okay": 1800,
      "Sun": 1801,
      "bhai": 1802,
      "fol": 1803,
      "gar": 1804,
      "sin": 1805,
      "ugh": 1806,
      "annan": 1807,
      "dig": 1808,
      "dist": 1809,
      "state": 1810,
      "mode": 1811,
      "kaatra": 1812,
      "god": 1813,
      "opti": 1814,
      "update": 1815,
      "saap": 1816,
      "kudathu": 1817,
      "learning": 1818,
      "yarellam": 1819,
      "vanakkam": 1820,
      "sequential": 1821,
      "month": 1822,
      "record": 1823,
      "Ar": 1824,
      "Just": 1825,
      "gin": 1826,
      "mb": 1827,
      "sri": 1828,
      "walk": 1829,
      "laye": 1830,
      "ketta": 1831,
      "eed": 1832,
      "tage": 1833,
      "pesa": 1834,
      "topic": 1835,
      "raja": 1836,
      "ism": 1837,
      "concept": 1838,
      "tharama": 1839,
      "ellaam": 1840,
      "erukku": 1841,
      "trust": 1842,
      "friends": 1843,
      "title": 1844,
      "Work": 1845,
      "analy": 1846,
      "Su": 1847,
      "Some": 1848,
      "aan": 1849,
      "agu": 1850,
      "cs": 1851,
      "epo": 1852,
      "sleep": 1853,
      "tal": 1854,
      "inoru": 1855,
      "die": 1856,
      "ked": 1857,
      "stem": 1858,
      "thalaya": 1859,
      "led": 1860,
      "seyal": 1861,
      "uni": 1862,
      "robot": 1863,
      "chinna": 1864,
      "form": 1865,
      "solu": 1866,
      "theva": 1867,
      "pannuvom": 1868,
      "iness": 1869,
      "india": 1870,
      "chance": 1871,
      "actor": 1872,
      "predict": 1873,
      "hello": 1874,
      "kudukren": 1875,
      "subburaj": 1876,
      "sirap": 1877,
      "ninai": 1878,
      "build": 1879,
      "One": 1880,
      "bal": 1881,
      "ivan": 1882,
      "jan": 1883,
      "sil": 1884,
      "usu": 1885,
      "war": 1886,
      "eri": 1887,
      "enge": 1888,
      "onnum": 1889,
      "kat": 1890,
      "kela": 1891,
      "review": 1892,
      "ely": 1893,
      "rol": 1894,
      "tific": 1895,
      "load": 1896,
      "pannanum": 1897,
      "trailor": 1898,
      "butt": 1899,
      "beau": 1900,
      "theme": 1901,
      "kaaga": 1902,
      "tely": 1903,
      "pres": 1904,
      "spend": 1905,
      "energy": 1906,
      "response": 1907,
      "architecture": 1908,
      "rukken": 1909,
      "heart": 1910,
      "birthday": 1911,
      "sivakarthikeyan": 1912,
      "sirappana": 1913,
      "Kon": 1914,
      "agum": 1915,
      "bra": 1916,
      "mood": 1917,
      "tom": 1918,
      "zed": 1919,
      "paya": 1920,
      "kulla": 1921,
      "vir": 1922,
      "chool": 1923,
      "alu": 1924,
      "verithana": 1925,
      "sist": 1926,
      "aaganum": 1927,
      "panniyacha": 1928,
      "irukan": 1929,
      "sho": 1930,
      "ents": 1931,
      "partha": 1932,
      "fewer": 1933,
      "iyana": 1934,
      "expe": 1935,
      "alavu": 1936,
      "cute": 1937,
      "embed": 1938,
      "truly": 1939,
      "eness": 1940,
      "comedy": 1941,
      "neutral": 1942,
      "ethir": 1943,
      "bloods": 1944,
      "19": 1945,
      "4k": 1946,
      "Friend": 1947,
      "To": 1948,
      "We": 1949,
      "cli": 1950,
      "ef": 1951,
      "eva": 1952,
      "fy": 1953,
      "find": 1954,
      "lon": 1955,
      "oh": 1956,
      "raru": 1957,
      "villa": 1958,
      "tharu": 1959,
      "daw": 1960,
      "kad": 1961,
      "thalapathi": 1962,
      "sec": 1963,
      "mean": 1964,
      "log": 1965,
      "periya": 1966,
      "perfect": 1967,
      "devel": 1968,
      "guys": 1969,
      "busy": 1970,
      "never": 1971,
      "para": 1972,
      "parthu": 1973,
      "semmaa": 1974,
      "semmaya": 1975,
      "Aamam": 1976,
      "mani": 1977,
      "exam": 1978,
      "explain": 1979,
      "viswasa": 1980,
      "que": 1981,
      "cific": 1982,
      "fail": 1983,
      "sical": 1984,
      "eduka": 1985,
      "solluven": 1986,
      "ayyo": 1987,
      "Than": 1988,
      "thaliva": 1989,
      "malaysia": 1990,
      "Very": 1991,
      "digital": 1992,
      "beautiful": 1993,
      "apo": 1994,
      "aiy": 1995,
      "down": 1996,
      "ial": 1997,
      "ople": 1998,
      "rit": 1999,
      "ue": 2000,
      "ware": 2001,
      "zero": 2002,
      "strong": 2003,
      "orrow": 2004,
      "ought": 2005,
      "veenga": 2006,
      "moon": 2007,
      "deli": 2008,
      "peace": 2009,
      "getup": 2010,
      "belie": 2011,
      "kkura": 2012,
      "thank": 2013,
      "igh": 2014,
      "pulla": 2015,
      "fort": 2016,
      "nira": 2017,
      "kondu": 2018,
      "body": 2019,
      "poringa": 2020,
      "neraiya": 2021,
      "going": 2022,
      "unala": 2023,
      "apdiye": 2024,
      "anglish": 2025,
      "true": 2026,
      "awar": 2027,
      "respond": 2028,
      "weekend": 2029,
      "Rombha": 2030,
      "varaikum": 2031,
      "follow": 2032,
      "embedding": 2033,
      "Mu": 2034,
      "Normal": 2035,
      "Tanglish": 2036,
      "blue": 2037,
      "cro": 2038,
      "nenga": 2039,
      "ina": 2040,
      "paku": 2041,
      "unma": 2042,
      "vanunga": 2043,
      "suriya": 2044,
      "was": 2045,
      "person": 2046,
      "cele": 2047,
      "bayan": 2048,
      "before": 2049,
      "paakka": 2050,
      "pannuva": 2051,
      "ulture": 2052,
      "many": 2053,
      "qui": 2054,
      "semaya": 2055,
      "looking": 2056,
      "pathavanga": 2057,
      "English": 2058,
      "happen": 2059,
      "system": 2060,
      "interesting": 2061,
      "punda": 2062,
      "vittutu": 2063,
      "deepavali": 2064,
      "Next": 2065,
      "dra": 2066,
      "mel": 2067,
      "singa": 2068,
      "yana": 2069,
      "math": 2070,
      "madhiri": 2071,
      "naanga": 2072,
      "katu": 2073,
      "step": 2074,
      "vazh": 2075,
      "poga": 2076,
      "habit": 2077,
      "ita": 2078,
      "amma": 2079,
      "chum": 2080,
      "vang": 2081,
      "tural": 2082,
      "petit": 2083,
      "karan": 2084,
      "inime": 2085,
      "ttai": 2086,
      "iran": 2087,
      "theat": 2088,
      "there": 2089,
      "wear": 2090,
      "dialog": 2091,
      "give": 2092,
      "Alber": 2093,
      "theriyum": 2094,
      "soldravanga": 2095,
      "strugg": 2096,
      "button": 2097,
      "struggle": 2098,
      "Nanum": 2099,
      "bollywood": 2100,
      "cle": 2101,
      "ctive": 2102,
      "edhu": 2103,
      "kthi": 2104,
      "rs": 2105,
      "ring": 2106,
      "slow": 2107,
      "uck": 2108,
      "rasig": 2109,
      "kudi": 2110,
      "sala": 2111,
      "confi": 2112,
      "word": 2113,
      "exc": 2114,
      "type": 2115,
      "nadakka": 2116,
      "vanthavanga": 2117,
      "therikka": 2118,
      "thalivaa": 2119,
      "vachirundha": 2120,
      "deep": 2121,
      "thirum": 2122,
      "pesuven": 2123,
      "Train": 2124,
      "single": 2125,
      "physical": 2126,
      "turn": 2127,
      "Konjam": 2128,
      "awareness": 2129,
      "Albert": 2130,
      "5k": 2131,
      "gr": 2132,
      "gener": 2133,
      "sari": 2134,
      "wit": 2135,
      "nawa": 2136,
      "kathu": 2137,
      "lic": 2138,
      "vive": 2139,
      "vilaya": 2140,
      "ition": 2141,
      "unlike": 2142,
      "unge": 2143,
      "perfor": 2144,
      "deci": 2145,
      "maru": 2146,
      "sathi": 2147,
      "take": 2148,
      "people": 2149,
      "yea": 2150,
      "therin": 2151,
      "ics": 2152,
      "conne": 2153,
      "confir": 2154,
      "chat": 2155,
      "kids": 2156,
      "manju": 2157,
      "koodathu": 2158,
      "fire": 2159,
      "prakash": 2160,
      "100": 2161,
      "favourite": 2162,
      "manage": 2163,
      "yosikka": 2164,
      "mavane": 2165,
      "batman": 2166,
      "Basic": 2167,
      "depend": 2168,
      "usually": 2169,
      "delivery": 2170,
      "1st": 2171,
      "My": 2172,
      "Par": 2173,
      "Try": 2174,
      "free": 2175,
      "loo": 2176,
      "thought": 2177,
      "raa": 2178,
      "kadha": 2179,
      "keep": 2180,
      "yae": 2181,
      "sem": 2182,
      "tty": 2183,
      "ces": 2184,
      "test": 2185,
      "marri": 2186,
      "thanks": 2187,
      "party": 2188,
      "coming": 2189,
      "mance": 2190,
      "speak": 2191,
      "poduga": 2192,
      "Explain": 2193,
      "serious": 2194,
      "Short": 2195,
      "teejay": 2196,
      "Star": 2197,
      "With": 2198,
      "ake": 2199,
      "atta": 2200,
      "coffee": 2201,
      "etha": 2202,
      "fra": 2203,
      "family": 2204,
      "gers": 2205,
      "ive": 2206,
      "idha": 2207,
      "jith": 2208,
      "kke": 2209,
      "kya": 2210,
      "mbu": 2211,
      "manu": 2212,
      "nanga": 2213,
      "soo": 2214,
      "ukku": 2215,
      "when": 2216,
      "yellam": 2217,
      "thr": 2218,
      "malaya": 2219,
      "kamal": 2220,
      "stop": 2221,
      "value": 2222,
      "pochu": 2223,
      "seen": 2224,
      "search": 2225,
      "cho": 2226,
      "als": 2227,
      "allu": 2228,
      "mechan": 2229,
      "tting": 2230,
      "vare": 2231,
      "pannitu": 2232,
      "tem": 2233,
      "tech": 2234,
      "irukinga": 2235,
      "thalaiver": 2236,
      "kkaga": 2237,
      "mugam": 2238,
      "thalaivara": 2239,
      "proud": 2240,
      "kaatu": 2241,
      "matter": 2242,
      "iller": 2243,
      "specific": 2244,
      "plz": 2245,
      "pandra": 2246,
      "honest": 2247,
      "adutha": 2248,
      "control": 2249,
      "Perfect": 2250,
      "eppavume": 2251,
      "wishes": 2252,
      "hours": 2253,
      "close": 2254,
      "evening": 2255,
      "inoruthara": 2256,
      "theatre": 2257,
      "performance": 2258,
      "Ama": 2259,
      "Bir": 2260,
      "Go": 2261,
      "GPU": 2262,
      "More": 2263,
      "Off": 2264,
      "bhi": 2265,
      "mun": 2266,
      "yya": 2267,
      "yoo": 2268,
      "aniru": 2269,
      "lag": 2270,
      "law": 2271,
      "eng": 2272,
      "pathe": 2273,
      "rest": 2274,
      "reply": 2275,
      "amit": 2276,
      "means": 2277,
      "veer": 2278,
      "thiya": 2279,
      "top": 2280,
      "together": 2281,
      "pure": 2282,
      "appo": 2283,
      "kant": 2284,
      "rajinified": 2285,
      "kondan": 2286,
      "subscri": 2287,
      "news": 2288,
      "rocks": 2289,
      "rocking": 2290,
      "kammi": 2291,
      "police": 2292,
      "sequence": 2293,
      "irukkinga": 2294,
      "Love": 2295,
      "agree": 2296,
      "kanagaraj": 2297,
      "pangaali": 2298,
      "optimi": 2299,
      "verithanama": 2300,
      "kadaram": 2301,
      "0s": 2302,
      "3k": 2303,
      "Both": 2304,
      "Im": 2305,
      "atha": 2306,
      "could": 2307,
      "gga": 2308,
      "link": 2309,
      "nar": 2310,
      "sal": 2311,
      "tum": 2312,
      "vunga": 2313,
      "ward": 2314,
      "inu": 2315,
      "naala": 2316,
      "thada": 2317,
      "lit": 2318,
      "podhu": 2319,
      "vity": 2320,
      "media": 2321,
      "eep": 2322,
      "dhum": 2323,
      "move": 2324,
      "vari": 2325,
      "riyani": 2326,
      "massu": 2327,
      "irukke": 2328,
      "thalaivan": 2329,
      "said": 2330,
      "table": 2331,
      "because": 2332,
      "kkuma": 2333,
      "thanda": 2334,
      "nore": 2335,
      "irukura": 2336,
      "ctor": 2337,
      "pannudhu": 2338,
      "range": 2339,
      "padippa": 2340,
      "pie": 2341,
      "fix": 2342,
      "pidikkuma": 2343,
      "kolla": 2344,
      "thinking": 2345,
      "watching": 2346,
      "rasigan": 2347,
      "kelvi": 2348,
      "ctice": 2349,
      "patterns": 2350,
      "7k": 2351,
      "Don": 2352,
      "clear": 2353,
      "ima": 2354,
      "kil": 2355,
      "ppaa": 2356,
      "senti": 2357,
      "inda": 2358,
      "enda": 2359,
      "once": 2360,
      "katt": 2361,
      "lik": 2362,
      "poram": 2363,
      "poreenga": 2364,
      "vitu": 2365,
      "vish": 2366,
      "hal": 2367,
      "vandu": 2368,
      "pannan": 2369,
      "irukanga": 2370,
      "ungalukku": 2371,
      "behave": 2372,
      "note": 2373,
      "sound": 2374,
      "sonal": 2375,
      "churu": 2376,
      "enakku": 2377,
      "ending": 2378,
      "bore": 2379,
      "padipa": 2380,
      "code": 2381,
      "gift": 2382,
      "kaidhi": 2383,
      "active": 2384,
      "biriyani": 2385,
      "rajnikanth": 2386,
      "mudiyadhu": 2387,
      "serve": 2388,
      "jei": 2389,
      "colle": 2390,
      "paathutu": 2391,
      "Life": 2392,
      "doubt": 2393,
      "topics": 2394,
      "analysis": 2395,
      "petition": 2396,
      "amitab": 2397,
      "Mar": 2398,
      "Ti": 2399,
      "cum": 2400,
      "danush": 2401,
      "dden": 2402,
      "ev": 2403,
      "ist": 2404,
      "ival": 2405,
      "spi": 2406,
      "taa": 2407,
      "tingala": 2408,
      "maas": 2409,
      "race": 2410,
      "pad": 2411,
      "pat": 2412,
      "stant": 2413,
      "reme": 2414,
      "vainga": 2415,
      "vachi": 2416,
      "potru": 2417,
      "poitu": 2418,
      "vanum": 2419,
      "sul": 2420,
      "eek": 2421,
      "dhra": 2422,
      "duthu": 2423,
      "pannaa": 2424,
      "pare": 2425,
      "paaku": 2426,
      "isanam": 2427,
      "pannura": 2428,
      "program": 2429,
      "heav": 2430,
      "chaa": 2431,
      "kida": 2432,
      "ithula": 2433,
      "fully": 2434,
      "things": 2435,
      "Inter": 2436,
      "maten": 2437,
      "matringa": 2438,
      "tics": 2439,
      "join": 2440,
      "Net": 2441,
      "namaku": 2442,
      "sirapana": 2443,
      "Onnum": 2444,
      "David": 2445,
      "climax": 2446,
      "mechanism": 2447,
      "heavy": 2448,
      "90s": 2449,
      "For": 2450,
      "Pra": 2451,
      "agala": 2452,
      "adhe": 2453,
      "banga": 2454,
      "epa": 2455,
      "edi": 2456,
      "eas": 2457,
      "fli": 2458,
      "gence": 2459,
      "men": 2460,
      "mber": 2461,
      "pin": 2462,
      "sr": 2463,
      "uga": 2464,
      "kutty": 2465,
      "kath": 2466,
      "repe": 2467,
      "haa": 2468,
      "unka": 2469,
      "veli": 2470,
      "desh": 2471,
      "gues": 2472,
      "talai": 2473,
      "base": 2474,
      "basic": 2475,
      "padathuku": 2476,
      "thanga": 2477,
      "ney": 2478,
      "puram": 2479,
      "iniku": 2480,
      "apram": 2481,
      "advan": 2482,
      "scen": 2483,
      "yenda": 2484,
      "indow": 2485,
      "podalaama": 2486,
      "prise": 2487,
      "vandhucha": 2488,
      "vinoth": 2489,
      "tharamaana": 2490,
      "rasigar": 2491,
      "AC": 2492,
      "App": 2493,
      "Bu": 2494,
      "Pre": 2495,
      "Qu": 2496,
      "So": 2497,
      "Ter": 2498,
      "Tru": 2499,
      "avaru": 2500,
      "athuku": 2501,
      "avlo": 2502,
      "bla": 2503,
      "cour": 2504,
      "culture": 2505,
      "epadi": 2506,
      "fit": 2507,
      "kra": 2508,
      "nd": 2509,
      "ny": 2510,
      "nhi": 2511,
      "promise": 2512,
      "tor": 2513,
      "tough": 2514,
      "usa": 2515,
      "pala": 2516,
      "patt": 2517,
      "pakura": 2518,
      "vadhu": 2519,
      "post": 2520,
      "lee": 2521,
      "secon": 2522,
      "alla": 2523,
      "mee": 2524,
      "mega": 2525,
      "vanganum": 2526,
      "logy": 2527,
      "massa": 2528,
      "tual": 2529,
      "mart": 2530,
      "market": 2531,
      "task": 2532,
      "andla": 2533,
      "parka": 2534,
      "param": 2535,
      "ignore": 2536,
      "inima": 2537,
      "they": 2538,
      "neega": 2539,
      "enada": 2540,
      "telli": 2541,
      "padikka": 2542,
      "mix": 2543,
      "pongaluku": 2544,
      "pongalukku": 2545,
      "press": 2546,
      "anger": 2547,
      "itude": 2548,
      "ituation": 2549,
      "sandho": 2550,
      "graph": 2551,
      "underwear": 2552,
      "10m": 2553,
      "ground": 2554,
      "patient": 2555,
      "meaning": 2556,
      "nawaz": 2557,
      "chatbot": 2558,
      "50": 2559,
      "Mee": 2560,
      "Seri": 2561,
      "Week": 2562,
      "aya": 2563,
      "athi": 2564,
      "clu": 2565,
      "gre": 2566,
      "his": 2567,
      "ping": 2568,
      "photo": 2569,
      "tv": 2570,
      "tinga": 2571,
      "ub": 2572,
      "where": 2573,
      "andu": 2574,
      "andhra": 2575,
      "ency": 2576,
      "rat": 2577,
      "pass": 2578,
      "payan": 2579,
      "panrom": 2580,
      "pore": 2581,
      "semaa": 2582,
      "unch": 2583,
      "chara": 2584,
      "oring": 2585,
      "vers": 2586,
      "duchu": 2587,
      "traila": 2588,
      "aata": 2589,
      "aagi": 2590,
      "aagala": 2591,
      "lore": 2592,
      "pannum": 2593,
      "kkuthu": 2594,
      "appadi": 2595,
      "ranjith": 2596,
      "abi": 2597,
      "biggest": 2598,
      "advice": 2599,
      "llenge": 2600,
      "hidden": 2601,
      "tamilan": 2602,
      "void": 2603,
      "ated": 2604,
      "subb": 2605,
      "thalivar": 2606,
      "anyone": 2607,
      "content": 2608,
      "sollunga": 2609,
      "confirm": 2610,
      "marriage": 2611,
      "Office": 2612,
      "6k": 2613,
      "Car": 2614,
      "Col": 2615,
      "CPU": 2616,
      "Ho": 2617,
      "Home": 2618,
      "Money": 2619,
      "PI": 2620,
      "Pri": 2621,
      "Se": 2622,
      "ban": 2623,
      "bon": 2624,
      "cel": 2625,
      "dent": 2626,
      "done": 2627,
      "ivaru": 2628,
      "manush": 2629,
      "nt": 2630,
      "sana": 2631,
      "talk": 2632,
      "ula": 2633,
      "yenga": 2634,
      "thingala": 2635,
      "ination": 2636,
      "ennoda": 2637,
      "enjoy": 2638,
      "madi": 2639,
      "made": 2640,
      "nahi": 2641,
      "gada": 2642,
      "ratha": 2643,
      "pace": 2644,
      "panriya": 2645,
      "keta": 2646,
      "stra": 2647,
      "vaan": 2648,
      "les": 2649,
      "ley": 2650,
      "vitru": 2651,
      "hayam": 2652,
      "setup": 2653,
      "unthu": 2654,
      "char": 2655,
      "already": 2656,
      "veraa": 2657,
      "vechu": 2658,
      "durai": 2659,
      "aasai": 2660,
      "shop": 2661,
      "verage": 2662,
      "ommala": 2663,
      "must": 2664,
      "toon": 2665,
      "parava": 2666,
      "kandu": 2667,
      "kannada": 2668,
      "padichu": 2669,
      "ooking": 2670,
      "varudhu": 2671,
      "Nadu": 2672,
      "karthick": 2673,
      "irukalam": 2674,
      "paduthi": 2675,
      "ems": 2676,
      "paarunga": 2677,
      "zhan": 2678,
      "Real": 2679,
      "simran": 2680,
      "games": 2681,
      "nadakathu": 2682,
      "Romba": 2683,
      "gency": 2684,
      "commun": 2685,
      "valthukal": 2686,
      "minutes": 2687,
      "sistent": 2688,
      "Together": 2689,
      "Biryani": 2690,
      "charact": 2691,
      "30": 2692,
      "8k": 2693,
      "ID": 2694,
      "Le": 2695,
      "Lear": 2696,
      "Mor": 2697,
      "PM": 2698,
      "Sa": 2699,
      "apa": 2700,
      "ass": 2701,
      "aded": 2702,
      "azha": 2703,
      "bam": 2704,
      "bom": 2705,
      "cra": 2706,
      "cent": 2707,
      "cto": 2708,
      "dress": 2709,
      "kinga": 2710,
      "kill": 2711,
      "oper": 2712,
      "play": 2713,
      "laugh": 2714,
      "mag": 2715,
      "nai": 2716,
      "naya": 2717,
      "rah": 2718,
      "rukum": 2719,
      "patta": 2720,
      "papom": 2721,
      "kabali": 2722,
      "dian": 2723,
      "iler": 2724,
      "strate": 2725,
      "vadi": 2726,
      "vaal": 2727,
      "seiya": 2728,
      "mey": 2729,
      "motion": 2730,
      "loaded": 2731,
      "shi": 2732,
      "pes": 2733,
      "thane": 2734,
      "rombha": 2735,
      "purin": 2736,
      "fest": 2737,
      "ctric": 2738,
      "aprm": 2739,
      "soli": 2740,
      "soft": 2741,
      "thalaivaru": 2742,
      "vishayam": 2743,
      "challenge": 2744,
      "ends": 2745,
      "vijaysethupathi": 2746,
      "podunge": 2747,
      "adra": 2748,
      "dialogues": 2749,
      "atch": 2750,
      "stylish": 2751,
      "accept": 2752,
      "yov": 2753,
      "service": 2754,
      "Never": 2755,
      "vetrimaaran": 2756,
      "helps": 2757,
      "audi": 2758,
      "practice": 2759,
      "picture": 2760,
      "And": 2761,
      "Comple": 2762,
      "Memory": 2763,
      "pannita": 2764,
      "naraya": 2765,
      "chitti": 2766,
      "shot": 2767,
      "believe": 2768,
      "mugamoodi": 2769,
      "advantage": 2770,
      "Term": 2771,
      "telligence": 2772,
      "graphics": 2773,
      "Meeting": 2774,
      "strategy": 2775,
      "3d": 2776,
      "69": 2777,
      "Fore": 2778,
      "Grow": 2779,
      "Oru": 2780,
      "Sure": 2781,
      "Water": 2782,
      "augu": 2783,
      "brate": 2784,
      "bile": 2785,
      "hh": 2786,
      "him": 2787,
      "nen": 2788,
      "pren": 2789,
      "sci": 2790,
      "uru": 2791,
      "vinga": 2792,
      "wel": 2793,
      "antic": 2794,
      "inte": 2795,
      "thal": 2796,
      "thami": 2797,
      "katha": 2798,
      "ilan": 2799,
      "stage": 2800,
      "store": 2801,
      "request": 2802,
      "return": 2803,
      "ume": 2804,
      "seems": 2805,
      "siri": 2806,
      "vey": 2807,
      "water": 2808,
      "varen": 2809,
      "aah": 2810,
      "rise": 2811,
      "dekh": 2812,
      "sakthi": 2813,
      "tak": 2814,
      "tala": 2815,
      "illaya": 2816,
      "superr": 2817,
      "munadi": 2818,
      "ned": 2819,
      "nega": 2820,
      "paak": 2821,
      "irl": 2822,
      "head": 2823,
      "visit": 2824,
      "ined": 2825,
      "chavanga": 2826,
      "kiren": 2827,
      "podra": 2828,
      "adjust": 2829,
      "edge": 2830,
      "layer": 2831,
      "edutha": 2832,
      "skill": 2833,
      "cus": 2834,
      "vanthalum": 2835,
      "static": 2836,
      "powerful": 2837,
      "cartoon": 2838,
      "issue": 2839,
      "paakurathu": 2840,
      "currently": 2841,
      "tomorrow": 2842,
      "alavuku": 2843,
      "aiyoo": 2844,
      "malayalam": 2845,
      "pathetic": 2846,
      "repeat": 2847,
      "court": 2848,
      "usage": 2849,
      "august": 2850,
      "64": 2851,
      "Bab": 2852,
      "Fav": 2853,
      "Promise": 2854,
      "Te": 2855,
      "avanga": 2856,
      "aven": 2857,
      "aaram": 2858,
      "ccess": 2859,
      "ethuku": 2860,
      "ipadi": 2861,
      "kind": 2862,
      "seru": 2863,
      "yow": 2864,
      "anda": 2865,
      "mation": 2866,
      "kuch": 2867,
      "kaan": 2868,
      "kadu": 2869,
      "kaly": 2870,
      "vila": 2871,
      "tiya": 2872,
      "ori": 2873,
      "ority": 2874,
      "size": 2875,
      "vanten": 2876,
      "suyama": 2877,
      "vea": 2878,
      "deserve": 2879,
      "gura": 2880,
      "dhukaga": 2881,
      "solren": 2882,
      "iron": 2883,
      "read": 2884,
      "competition": 2885,
      "prote": 2886,
      "kila": 2887,
      "face": 2888,
      "working": 2889,
      "cup": 2890,
      "verify": 2891,
      "prefer": 2892,
      "ticket": 2893,
      "spect": 2894,
      "Illai": 2895,
      "cast": 2896,
      "stories": 2897,
      "everyone": 2898,
      "This": 2899,
      "pandringa": 2900,
      "stead": 2901,
      "gvp": 2902,
      "valimai": 2903,
      "messages": 2904,
      "Traffic": 2905,
      "colors": 2906,
      "pasangala": 2907,
      "katrathukaga": 2908,
      "tami": 2909,
      "conversation": 2910,
      "yayayaya": 2911,
      "growing": 2912,
      "unique": 2913,
      "thriller": 2914,
      "optimized": 2915,
      "easy": 2916,
      "black": 2917,
      "Morning": 2918,
      "Baby": 2919,
      "24": 2920,
      "50k": 2921,
      "800k": 2922,
      "Amma": 2923,
      "All": 2924,
      "Hone": 2925,
      "Happ": 2926,
      "Pi": 2927,
      "aar": 2928,
      "aha": 2929,
      "achu": 2930,
      "avoid": 2931,
      "bing": 2932,
      "baram": 2933,
      "dge": 2934,
      "farm": 2935,
      "hrs": 2936,
      "idi": 2937,
      "jaa": 2938,
      "kti": 2939,
      "ming": 2940,
      "ob": 2941,
      "otha": 2942,
      "school": 2943,
      "wr": 2944,
      "won": 2945,
      "xy": 2946,
      "yella": 2947,
      "zhi": 2948,
      "thoda": 2949,
      "innu": 2950,
      "instead": 2951,
      "endha": 2952,
      "dic": 2953,
      "ilo": 2954,
      "ily": 2955,
      "keka": 2956,
      "really": 2957,
      "recurrent": 2958,
      "respect": 2959,
      "leg": 2960,
      "thukkal": 2961,
      "choose": 2962,
      "outh": 2963,
      "ouse": 2964,
      "suit": 2965,
      "ttle": 2966,
      "dhri": 2967,
      "pannine": 2968,
      "marvel": 2969,
      "pannalam": 2970,
      "karo": 2971,
      "nodu": 2972,
      "them": 2973,
      "kanna": 2974,
      "vendiya": 2975,
      "arathu": 2976,
      "arasi": 2977,
      "kora": 2978,
      "konga": 2979,
      "expen": 2980,
      "lanka": 2981,
      "pida": 2982,
      "trisha": 2983,
      "aagudhu": 2984,
      "history": 2985,
      "kitu": 2986,
      "kitte": 2987,
      "rajnikant": 2988,
      "angry": 2989,
      "doi": 2990,
      "empathetic": 2991,
      "joke": 2992,
      "Ennoda": 2993,
      "graphy": 2994,
      "processing": 2995,
      "nenacha": 2996,
      "dane": 2997,
      "dense": 2998,
      "panuga": 2999,
      "curity": 3000,
      "panradhuku": 3001,
      "listen": 3002,
      "drive": 3003,
      "tune": 3004,
      "kadaisi": 3005,
      "sathiyama": 3006,
      "Trying": 3007,
      "Time": 3008,
      "scenes": 3009,
      "subbaraj": 3010,
      "padichurukken": 3011,
      "ctober": 3012,
      "festival": 3013,
      "software": 3014,
      "pannineengala": 3015,
      "BG": 3016,
      "Ear": 3017,
      "Fe": 3018,
      "Night": 3019,
      "Tea": 3020,
      "adhi": 3021,
      "aalu": 3022,
      "bang": 3023,
      "cri": 3024,
      "case": 3025,
      "eat": 3026,
      "ging": 3027,
      "gun": 3028,
      "han": 3029,
      "ish": 3030,
      "kin": 3031,
      "money": 3032,
      "ng": 3033,
      "ov": 3034,
      "pdi": 3035,
      "prom": 3036,
      "swa": 3037,
      "udhu": 3038,
      "inner": 3039,
      "mam": 3040,
      "natural": 3041,
      "ration": 3042,
      "kathar": 3043,
      "kami": 3044,
      "kattu": 3045,
      "pangal": 3046,
      "keda": 3047,
      "regu": 3048,
      "recomm": 3049,
      "vae": 3050,
      "vatha": 3051,
      "vaang": 3052,
      "pose": 3053,
      "poro": 3054,
      "poor": 3055,
      "polla": 3056,
      "yappa": 3057,
      "has": 3058,
      "suma": 3059,
      "tten": 3060,
      "lot": 3061,
      "panninga": 3062,
      "oruthan": 3063,
      "irukkan": 3064,
      "dest": 3065,
      "save": 3066,
      "bagam": 3067,
      "dhaa": 3068,
      "puriya": 3069,
      "yet": 3070,
      "vena": 3071,
      "ull": 3072,
      "hot": 3073,
      "hope": 3074,
      "congra": 3075,
      "ments": 3076,
      "mental": 3077,
      "offi": 3078,
      "mudila": 3079,
      "telang": 3080,
      "ants": 3081,
      "pakkam": 3082,
      "education": 3083,
      "hich": 3084,
      "nadika": 3085,
      "nadikka": 3086,
      "something": 3087,
      "sometimes": 3088,
      "tical": 3089,
      "split": 3090,
      "seeing": 3091,
      "Ennodu": 3092,
      "poidu": 3093,
      "pudikum": 3094,
      "sariya": 3095,
      "number": 3096,
      "mins": 3097,
      "translate": 3098,
      "apply": 3099,
      "Unga": 3100,
      "target": 3101,
      "thambi": 3102,
      "years": 3103,
      "complete": 3104,
      "hahaha": 3105,
      "Only": 3106,
      "Medi": 3107,
      "conversations": 3108,
      "lationship": 3109,
      "puriyum": 3110,
      "safety": 3111,
      "balance": 3112,
      "expec": 3113,
      "developer": 3114,
      "Thank": 3115,
      "salary": 3116,
      "Training": 3117,
      "likers": 3118,
      "srilan": 3119,
      "sandhosam": 3120,
      "Weekend": 3121,
      "character": 3122,
      "rahman": 3123,
      "Favourite": 3124,
      "office": 3125,
      "telangana": 3126,
      "1million": 3127,
      "Au": 3128,
      "Cla": 3129,
      "Fir": 3130,
      "IP": 3131,
      "Sleep": 3132,
      "Vi": 3133,
      "ath": 3134,
      "apadi": 3135,
      "boo": 3136,
      "cell": 3137,
      "dence": 3138,
      "flim": 3139,
      "fulla": 3140,
      "gon": 3141,
      "gha": 3142,
      "girl": 3143,
      "ithan": 3144,
      "ization": 3145,
      "kir": 3146,
      "kollywood": 3147,
      "ling": 3148,
      "mis": 3149,
      "mers": 3150,
      "nment": 3151,
      "od": 3152,
      "renga": 3153,
      "taru": 3154,
      "tool": 3155,
      "thy": 3156,
      "ruku": 3157,
      "pai": 3158,
      "paiyan": 3159,
      "pakkura": 3160,
      "kab": 3161,
      "kathi": 3162,
      "panit": 3163,
      "redu": 3164,
      "pol": 3165,
      "ami": 3166,
      "amy": 3167,
      "med": 3168,
      "sive": 3169,
      "dhana": 3170,
      "vett": 3171,
      "mobile": 3172,
      "aatha": 3173,
      "rip": 3174,
      "teach": 3175,
      "shan": 3176,
      "bayama": 3177,
      "bus": 3178,
      "entry": 3179,
      "illada": 3180,
      "pannala": 3181,
      "irukunu": 3182,
      "pub": 3183,
      "puthu": 3184,
      "puding": 3185,
      "javan": 3186,
      "compu": 3187,
      "sona": 3188,
      "concer": 3189,
      "kaadu": 3190,
      "kaadha": 3191,
      "panravanga": 3192,
      "ineer": 3193,
      "shakti": 3194,
      "add": 3195,
      "atri": 3196,
      "kaila": 3197,
      "sethupathy": 3198,
      "nalum": 3199,
      "vula": 3200,
      "ttery": 3201,
      "preci": 3202,
      "pathuttu": 3203,
      "gandula": 3204,
      "handsome": 3205,
      "deii": 3206,
      "nenachen": 3207,
      "sambavangala": 3208,
      "gym": 3209,
      "pride": 3210,
      "vandhuchu": 3211,
      "yaarum": 3212,
      "maintain": 3213,
      "aagathu": 3214,
      "double": 3215,
      "kunju": 3216,
      "valthukkal": 3217,
      "electric": 3218,
      "aguthu": 3219,
      "ledge": 3220,
      "presence": 3221,
      "celebrate": 3222,
      "decide": 3223,
      "connection": 3224,
      "anirudh": 3225,
      "lawyer": 3226,
      "sentiment": 3227,
      "bangam": 3228,
      "second": 3229,
      "tasks": 3230,
      "aatatha": 3231,
      "madiri": 3232,
      "requests": 3233,
      "18": 3234,
      "2m": 3235,
      "9k": 3236,
      "API": 3237,
      "Big": 3238,
      "Cur": 3239,
      "Late": 3240,
      "ML": 3241,
      "Miss": 3242,
      "Matri": 3243,
      "Py": 3244,
      "Photo": 3245,
      "School": 3246,
      "Will": 3247,
      "bh": 3248,
      "bran": 3249,
      "bahu": 3250,
      "cr": 3251,
      "ean": 3252,
      "fr": 3253,
      "ira": 3254,
      "lin": 3255,
      "ption": 3256,
      "tro": 3257,
      "window": 3258,
      "zy": 3259,
      "indu": 3260,
      "inni": 3261,
      "makka": 3262,
      "onnu": 3263,
      "itta": 3264,
      "ses": 3265,
      "seas": 3266,
      "seyya": 3267,
      "security": 3268,
      "untha": 3269,
      "road": 3270,
      "ooda": 3271,
      "vechi": 3272,
      "tradi": 3273,
      "aayi": 3274,
      "lol": 3275,
      "tau": 3276,
      "bathi": 3277,
      "mul": 3278,
      "no1": 3279,
      "romantic": 3280,
      "angala": 3281,
      "fear": 3282,
      "term": 3283,
      "kandula": 3284,
      "social": 3285,
      "vendam": 3286,
      "ones": 3287,
      "neriya": 3288,
      "iyar": 3289,
      "espe": 3290,
      "sham": 3291,
      "matters": 3292,
      "Unnakku": 3293,
      "pira": 3294,
      "ilable": 3295,
      "goal": 3296,
      "trend": 3297,
      "server": 3298,
      "does": 3299,
      "speed": 3300,
      "kudukanum": 3301,
      "friendship": 3302,
      "woww": 3303,
      "yourself": 3304,
      "songs": 3305,
      "panuven": 3306,
      "irukeengala": 3307,
      "manasu": 3308,
      "politics": 3309,
      "punch": 3310,
      "uddin": 3311,
      "thooku": 3312,
      "certific": 3313,
      "group": 3314,
      "reached": 3315,
      "distance": 3316,
      "evalo": 3317,
      "develop": 3318,
      "viswasatha": 3319,
      "failure": 3320,
      "moonji": 3321,
      "niraya": 3322,
      "vilayad": 3323,
      "management": 3324,
      "frame": 3325,
      "temple": 3326,
      "subscribe": 3327,
      "thadava": 3328,
      "flix": 3329,
      "pattrukken": 3330,
      "versity": 3331,
      "trailar": 3332,
      "paduthiringa": 3333,
      "write": 3334,
      "First": 3335,
      "Matrix": 3336,
      "Ac": 3337,
      "Bo": 3338,
      "Bus": 3339,
      "CS": 3340,
      "Coffee": 3341,
      "Dream": 3342,
      "It": 3343,
      "Pub": 3344,
      "Ra": 3345,
      "Ras": 3346,
      "achi": 3347,
      "fre": 3348,
      "ipa": 3349,
      "kha": 3350,
      "kkanum": 3351,
      "pber": 3352,
      "rare": 3353,
      "sco": 3354,
      "tou": 3355,
      "umaa": 3356,
      "wan": 3357,
      "increa": 3358,
      "info": 3359,
      "dal": 3360,
      "nail": 3361,
      "nalai": 3362,
      "thavanga": 3363,
      "gation": 3364,
      "paper": 3365,
      "pact": 3366,
      "pany": 3367,
      "keva": 3368,
      "kedai": 3369,
      "reco": 3370,
      "rection": 3371,
      "remind": 3372,
      "vaar": 3373,
      "vation": 3374,
      "pos": 3375,
      "poin": 3376,
      "poiru": 3377,
      "poren": 3378,
      "yaara": 3379,
      "irutha": 3380,
      "itt": 3381,
      "unt": 3382,
      "ssing": 3383,
      "ties": 3384,
      "order": 3385,
      "oom": 3386,
      "eech": 3387,
      "thir": 3388,
      "local": 3389,
      "dear": 3390,
      "defin": 3391,
      "should": 3392,
      "trailera": 3393,
      "sapa": 3394,
      "ped": 3395,
      "peak": 3396,
      "dhuku": 3397,
      "rendu": 3398,
      "pur": 3399,
      "angal": 3400,
      "cks": 3401,
      "yeh": 3402,
      "iyaa": 3403,
      "theater": 3404,
      "pannuren": 3405,
      "commer": 3406,
      "starting": 3407,
      "therila": 3408,
      "extra": 3409,
      "pathiya": 3410,
      "akki": 3411,
      "kittu": 3412,
      "ations": 3413,
      "padutha": 3414,
      "cancel": 3415,
      "chess": 3416,
      "tension": 3417,
      "idhula": 3418,
      "pidichuru": 3419,
      "speech": 3420,
      "yarum": 3421,
      "aamai": 3422,
      "available": 3423,
      "mokkaya": 3424,
      "syn": 3425,
      "evanum": 3426,
      "dailo": 3427,
      "Then": 3428,
      "aug": 3429,
      "eduthuka": 3430,
      "linear": 3431,
      "podalam": 3432,
      "panuveenga": 3433,
      "vidunga": 3434,
      "aagama": 3435,
      "veriyans": 3436,
      "Better": 3437,
      "focus": 3438,
      "Local": 3439,
      "function": 3440,
      "funny": 3441,
      "pakkanum": 3442,
      "dubbing": 3443,
      "tuning": 3444,
      "tokenization": 3445,
      "veetu": 3446,
      "opening": 3447,
      "expect": 3448,
      "villain": 3449,
      "thirumba": 3450,
      "semme": 3451,
      "pangaaligala": 3452,
      "pieces": 3453,
      "amitabh": 3454,
      "Netflix": 3455,
      "Learning": 3456,
      "integra": 3457,
      "Early": 3458,
      "electricity": 3459,
      "Python": 3460,
      "bahubali": 3461,
      "Raspber": 3462,
      "Raspberry": 3463,
      "'.": 3464,
      "Am": 3465,
      "CR": 3466,
      "Even": 3467,
      "Emer": 3468,
      "Fa": 3469,
      "Family": 3470,
      "GP": 3471,
      "Lan": 3472,
      "Let": 3473,
      "Our": 3474,
      "avara": 3475,
      "ature": 3476,
      "cap": 3477,
      "city": 3478,
      "dget": 3479,
      "hold": 3480,
      "iPhone": 3481,
      "jour": 3482,
      "kiya": 3483,
      "nana": 3484,
      "ona": 3485,
      "rand": 3486,
      "space": 3487,
      "tiny": 3488,
      "uy": 3489,
      "vul": 3490,
      "yr": 3491,
      "inka": 3492,
      "inspi": 3493,
      "dation": 3494,
      "eni": 3495,
      "maiya": 3496,
      "mask": 3497,
      "thathu": 3498,
      "ruka": 3499,
      "kaha": 3500,
      "disap": 3501,
      "illi": 3502,
      "sto": 3503,
      "reli": 3504,
      "rekka": 3505,
      "research": 3506,
      "vasa": 3507,
      "valu": 3508,
      "pot": 3509,
      "porun": 3510,
      "vitt": 3511,
      "vidiya": 3512,
      "else": 3513,
      "iting": 3514,
      "ittu": 3515,
      "room": 3516,
      "tice": 3517,
      "ors": 3518,
      "mele": 3519,
      "memor": 3520,
      "vanu": 3521,
      "vanilla": 3522,
      "success": 3523,
      "oot": 3524,
      "vest": 3525,
      "velai": 3526,
      "vegama": 3527,
      "wasam": 3528,
      "aala": 3529,
      "aaya": 3530,
      "loss": 3531,
      "pannra": 3532,
      "ennaku": 3533,
      "orutharu": 3534,
      "she": 3535,
      "shiva": 3536,
      "mara": 3537,
      "sath": 3538,
      "sasi": 3539,
      "tap": 3540,
      "padathukku": 3541,
      "enter": 3542,
      "luck": 3543,
      "cker": 3544,
      "few": 3545,
      "kannu": 3546,
      "anupren": 3547,
      "rance": 3548,
      "kodi": 3549,
      "ask": 3550,
      "ajit": 3551,
      "box": 3552,
      "mira": 3553,
      "mission": 3554,
      "quadra": 3555,
      "cially": 3556,
      "impact": 3557,
      "tribu": 3558,
      "illana": 3559,
      "aaguthe": 3560,
      "works": 3561,
      "erukum": 3562,
      "makes": 3563,
      "nadicha": 3564,
      "paduth": 3565,
      "pping": 3566,
      "eace": 3567,
      "sivakumar": 3568,
      "athukku": 3569,
      "kuduthu": 3570,
      "varumnu": 3571,
      "paduthureenga": 3572,
      "pakalam": 3573,
      "eduthutu": 3574,
      "pandravanga": 3575,
      "offline": 3576,
      "priva": 3577,
      "vachanga": 3578,
      "Any": 3579,
      "pesuvaaya": 3580,
      "hug": 3581,
      "Like": 3582,
      "darbar": 3583,
      "theriyala": 3584,
      "ennanga": 3585,
      "dubbed": 3586,
      "irundhuchu": 3587,
      "complexity": 3588,
      "cmnt": 3589,
      "study": 3590,
      "leave": 3591,
      "tificial": 3592,
      "virgin": 3593,
      "effect": 3594,
      "edukave": 3595,
      "Music": 3596,
      "celebra": 3597,
      "happened": 3598,
      "witter": 3599,
      "vivegam": 3600,
      "yosikkathu": 3601,
      "Forever": 3602,
      "Tech": 3603,
      "kalyan": 3604,
      "Happy": 3605,
      "developers": 3606,
      "reduce": 3607,
      "season": 3608,
      "vilayadarathu": 3609,
      "Emergency": 3610,
      "quadratic": 3611,
      "Avan": 3612,
      "Adhe": 3613,
      "Che": 3614,
      "Dep": 3615,
      "Full": 3616,
      "Gan": 3617,
      "Je": 3618,
      "Last": 3619,
      "Now": 3620,
      "Peace": 3621,
      "Sor": 3622,
      "See": 3623,
      "Tom": 3624,
      "When": 3625,
      "cam": 3626,
      "cip": 3627,
      "ddi": 3628,
      "ezh": 3629,
      "eyes": 3630,
      "fel": 3631,
      "green": 3632,
      "high": 3633,
      "idu": 3634,
      "iri": 3635,
      "jal": 3636,
      "kg": 3637,
      "lou": 3638,
      "os": 3639,
      "smart": 3640,
      "uine": 3641,
      "user": 3642,
      "which": 3643,
      "zon": 3644,
      "anno": 3645,
      "ththa": 3646,
      "inten": 3647,
      "maan": 3648,
      "mairu": 3649,
      "making": 3650,
      "madhri": 3651,
      "thaila": 3652,
      "gaandu": 3653,
      "pay": 3654,
      "pakanum": 3655,
      "kup": 3656,
      "ond": 3657,
      "ild": 3658,
      "ille": 3659,
      "iling": 3660,
      "ketu": 3661,
      "relationship": 3662,
      "vama": 3663,
      "pott": 3664,
      "thukal": 3665,
      "thunga": 3666,
      "inge": 3667,
      "tis": 3668,
      "orthara": 3669,
      "vandh": 3670,
      "veera": 3671,
      "varinga": 3672,
      "riga": 3673,
      "irukiya": 3674,
      "thalaiku": 3675,
      "shar": 3676,
      "mark": 3677,
      "anding": 3678,
      "mugan": 3679,
      "being": 3680,
      "engaluku": 3681,
      "thanu": 3682,
      "paris": 3683,
      "parkura": 3684,
      "puts": 3685,
      "forget": 3686,
      "irku": 3687,
      "started": 3688,
      "propa": 3689,
      "proving": 3690,
      "hogi": 3691,
      "kaasu": 3692,
      "kaata": 3693,
      "iyo": 3694,
      "irundh": 3695,
      "annaa": 3696,
      "cham": 3697,
      "bodhu": 3698,
      "maniku": 3699,
      "maasu": 3700,
      "ajithkumar": 3701,
      "dislikers": 3702,
      "ithuku": 3703,
      "vaazh": 3704,
      "ource": 3705,
      "polaye": 3706,
      "unakku": 3707,
      "thalapathy64": 3708,
      "Intelligence": 3709,
      "daii": 3710,
      "paartha": 3711,
      "paarva": 3712,
      "saaho": 3713,
      "background": 3714,
      "asura": 3715,
      "Nothing": 3716,
      "sanalum": 3717,
      "podura": 3718,
      "avathu": 3719,
      "irunthalum": 3720,
      "nanba": 3721,
      "irukeenga": 3722,
      "appdi": 3723,
      "surprise": 3724,
      "potutu": 3725,
      "pothum": 3726,
      "itive": 3727,
      "kellam": 3728,
      "vadachennai": 3729,
      "produce": 3730,
      "Paul": 3731,
      "poranthu": 3732,
      "Health": 3733,
      "visuvasam": 3734,
      "Artificial": 3735,
      "pesathingala": 3736,
      "solution": 3737,
      "village": 3738,
      "quick": 3739,
      "mathri": 3740,
      "grand": 3741,
      "remember": 3742,
      "sult": 3743,
      "matringale": 3744,
      "Colle": 3745,
      "manushan": 3746,
      "avengers": 3747,
      "iloso": 3748,
      "arasiyal": 3749,
      "swag": 3750,
      "mersal": 3751,
      "vettri": 3752,
      "touch": 3753,
      "commercial": 3754,
      "parison": 3755,
      "Bi": 3756,
      "Cry": 3757,
      "Deep": 3758,
      "Dinner": 3759,
      "ECR": 3760,
      "Fin": 3761,
      "Face": 3762,
      "Pl": 3763,
      "Ro": 3764,
      "Rest": 3765,
      "Raatha": 3766,
      "Tu": 3767,
      "Ten": 3768,
      "Uni": 3769,
      "cen": 3770,
      "fla": 3771,
      "fuck": 3772,
      "gle": 3773,
      "ghi": 3774,
      "house": 3775,
      "ida": 3776,
      "jh": 3777,
      "kko": 3778,
      "miya": 3779,
      "ninga": 3780,
      "niya": 3781,
      "nanum": 3782,
      "orama": 3783,
      "pm": 3784,
      "pr": 3785,
      "pli": 3786,
      "sara": 3787,
      "sche": 3788,
      "udi": 3789,
      "yena": 3790,
      "inen": 3791,
      "independ": 3792,
      "maar": 3793,
      "mali": 3794,
      "madri": 3795,
      "ratham": 3796,
      "pap": 3797,
      "pain": 3798,
      "pavam": 3799,
      "palaya": 3800,
      "kudhu": 3801,
      "kutti": 3802,
      "lia": 3803,
      "panirukeengala": 3804,
      "kettu": 3805,
      "stic": 3806,
      "stay": 3807,
      "stress": 3808,
      "replace": 3809,
      "vaz": 3810,
      "podhum": 3811,
      "elf": 3812,
      "tivity": 3813,
      "ooru": 3814,
      "ttum": 3815,
      "vech": 3816,
      "movi": 3817,
      "varla": 3818,
      "aag": 3819,
      "aairuku": 3820,
      "tea": 3821,
      "fanz": 3822,
      "tact": 3823,
      "badi": 3824,
      "bachan": 3825,
      "andra": 3826,
      "budget": 3827,
      "padathu": 3828,
      "muga": 3829,
      "mudin": 3830,
      "karam": 3831,
      "engal": 3832,
      "nothing": 3833,
      "fortable": 3834,
      "samma": 3835,
      "rangers": 3836,
      "rajinism": 3837,
      "ult": 3838,
      "kaat": 3839,
      "kaathu": 3840,
      "often": 3841,
      "mudicha": 3842,
      "maaten": 3843,
      "scar": 3844,
      "aagutaa": 3845,
      "tamilnadu": 3846,
      "cut": 3847,
      "irukala": 3848,
      "Indian": 3849,
      "doing": 3850,
      "docum": 3851,
      "truth": 3852,
      "saavanum": 3853,
      "panniko": 3854,
      "Already": 3855,
      "spr": 3856,
      "vayasanalum": 3857,
      "Read": 3858,
      "ayyoo": 3859,
      "aware": 3860,
      "supper": 3861,
      "vachum": 3862,
      "responsi": 3863,
      "Unnoda": 3864,
      "rathukaga": 3865,
      "Because": 3866,
      "founder": 3867,
      "soldra": 3868,
      "thookala": 3869,
      "rights": 3870,
      "Data": 3871,
      "structure": 3872,
      "valavu": 3873,
      "ricket": 3874,
      "cmt": 3875,
      "mathavangala": 3876,
      "Friends": 3877,
      "effort": 3878,
      "Thanks": 3879,
      "aiyo": 3880,
      "singapore": 3881,
      "vangiyacha": 3882,
      "configura": 3883,
      "Amazon": 3884,
      "patthi": 3885,
      "kaththi": 3886,
      "rasigargal": 3887,
      "Busy": 3888,
      "Social": 3889,
      "pressure": 3890,
      "nawazuddin": 3891,
      "athigama": 3892,
      "ability": 3893,
      "community": 3894,
      "bomma": 3895,
      "Honest": 3896,
      "legend": 3897,
      "expense": 3898,
      "recommend": 3899,
      "srilanka": 3900,
      "multi": 3901,
      "sapadhu": 3902,
      "pidichuruvanga": 3903,
      "synthe": 3904,
      "integration": 3905,
      "Depends": 3906,
      "Gandhi": 3907,
      "Sorry": 3908,
      "kgf": 3909,
      "11": 3910,
      "15": 3911,
      "47": 3912,
      "44k": 3913,
      "Ambu": 3914,
      "Bea": 3915,
      "Cal": 3916,
      "Dig": 3917,
      "EO": 3918,
      "Fre": 3919,
      "Fact": 3920,
      "GF": 3921,
      "Gen": 3922,
      "How": 3923,
      "Litt": 3924,
      "Sta": 3925,
      "Sho": 3926,
      "Tell": 3927,
      "Text": 3928,
      "Vo": 3929,
      "asi": 3930,
      "aur": 3931,
      "adei": 3932,
      "bs": 3933,
      "blan": 3934,
      "boring": 3935,
      "cca": 3936,
      "dun": 3937,
      "fund": 3938,
      "gara": 3939,
      "gress": 3940,
      "har": 3941,
      "ium": 3942,
      "moo": 3943,
      "mini": 3944,
      "plu": 3945,
      "rana": 3946,
      "situation": 3947,
      "tanga": 3948,
      "ues": 3949,
      "wal": 3950,
      "ym": 3951,
      "yy": 3952,
      "yeppa": 3953,
      "ank": 3954,
      "anunga": 3955,
      "thri": 3956,
      "erci": 3957,
      "ens": 3958,
      "enpt": 3959,
      "maaru": 3960,
      "maker": 3961,
      "thappa": 3962,
      "gate": 3963,
      "gaandla": 3964,
      "rain": 3965,
      "railer": 3966,
      "pal": 3967,
      "paah": 3968,
      "kama": 3969,
      "kata": 3970,
      "kalla": 3971,
      "little": 3972,
      "direction": 3973,
      "ildh": 3974,
      "panen": 3975,
      "kes": 3976,
      "kelu": 3977,
      "keela": 3978,
      "str": 3979,
      "stri": 3980,
      "stry": 3981,
      "redi": 3982,
      "lead": 3983,
      "least": 3984,
      "thun": 3985,
      "eld": 3986,
      "eliness": 3987,
      "elveli": 3988,
      "ited": 3989,
      "undhu": 3990,
      "unning": 3991,
      "mes": 3992,
      "medi": 3993,
      "metho": 3994,
      "meet": 3995,
      "sider": 3996,
      "vanda": 3997,
      "oogle": 3998,
      "ttam": 3999,
      "vettai": 4000,
      "aaye": 4001,
      "aache": 4002,
      "rier": 4003,
      "iruki": 4004,
      "dedic": 4005,
      "short": 4006,
      "peta": 4007,
      "pannavanga": 4008,
      "notice": 4009,
      "paath": 4010,
      "paavam": 4011,
      "angaali": 4012,
      "yean": 4013,
      "appro": 4014,
      "appuram": 4015,
      "appreci": 4016,
      "needs": 4017,
      "compare": 4018,
      "anuga": 4019,
      "vendi": 4020,
      "vendum": 4021,
      "provo": 4022,
      "semmaiya": 4023,
      "consistent": 4024,
      "contribu": 4025,
      "contact": 4026,
      "consider": 4027,
      "irunelveli": 4028,
      "ponda": 4029,
      "ithukku": 4030,
      "varuthe": 4031,
      "edukka": 4032,
      "access": 4033,
      "ringala": 4034,
      "option": 4035,
      "models": 4036,
      "nadippu": 4037,
      "solluvaanga": 4038,
      "emer": 4039,
      "eager": 4040,
      "chechi": 4041,
      "pathalum": 4042,
      "idhuku": 4043,
      "latest": 4044,
      "internet": 4045,
      "lowing": 4046,
      "pradesh": 4047,
      "sangathami": 4048,
      "priority": 4049,
      "yaarellam": 4050,
      "stain": 4051,
      "rukinga": 4052,
      "sapdalaama": 4053,
      "Personal": 4054,
      "solllam": 4055,
      "dark": 4056,
      "Daily": 4057,
      "anils": 4058,
      "paniko": 4059,
      "dharisanam": 4060,
      "limited": 4061,
      "idea": 4062,
      "present": 4063,
      "viron": 4064,
      "lonely": 4065,
      "loneliness": 4066,
      "secre": 4067,
      "peaceful": 4068,
      "cross": 4069,
      "confidence": 4070,
      "Goa": 4071,
      "Mark": 4072,
      "Trust": 4073,
      "Growing": 4074,
      "welcome": 4075,
      "pangalingala": 4076,
      "IPL": 4077,
      "Current": 4078,
      "certificate": 4079,
      "nalaiku": 4080,
      "uyir": 4081,
      "celebration": 4082,
      "Tomorrow": 4083,
      "propagation": 4084,
      "Plants": 4085,
      "configurable": 4086,
      "Ambur": 4087,
      "Beau": 4088,
      "Little": 4089,
      "ildhood": 4090,
      "provoke": 4091,
      "!,": 4092,
      "5th": 4093,
      "AM": 4094,
      "Ab": 4095,
      "Ad": 4096,
      "Appa": 4097,
      "Can": 4098,
      "Ena": 4099,
      "Google": 4100,
      "Hel": 4101,
      "Haha": 4102,
      "Ment": 4103,
      "October": 4104,
      "Pon": 4105,
      "Right": 4106,
      "Same": 4107,
      "Situation": 4108,
      "Take": 4109,
      "Una": 4110,
      "Zuck": 4111,
      "air": 4112,
      "bel": 4113,
      "band": 4114,
      "billa": 4115,
      "cool": 4116,
      "dd": 4117,
      "gang": 4118,
      "garam": 4119,
      "hang": 4120,
      "ix": 4121,
      "ivar": 4122,
      "kr": 4123,
      "kanga": 4124,
      "mm": 4125,
      "ms": 4126,
      "non": 4127,
      "ppan": 4128,
      "pto": 4129,
      "ppi": 4130,
      "siru": 4131,
      "ttha": 4132,
      "ton": 4133,
      "trea": 4134,
      "uda": 4135,
      "uyi": 4136,
      "writ": 4137,
      "yep": 4138,
      "annu": 4139,
      "another": 4140,
      "laga": 4141,
      "lazy": 4142,
      "erber": 4143,
      "inst": 4144,
      "inputs": 4145,
      "arum": 4146,
      "dalaama": 4147,
      "english": 4148,
      "mathi": 4149,
      "madurai": 4150,
      "rak": 4151,
      "rage": 4152,
      "rayum": 4153,
      "pata": 4154,
      "pakku": 4155,
      "kud": 4156,
      "kuran": 4157,
      "kae": 4158,
      "kathai": 4159,
      "keenga": 4160,
      "kelam": 4161,
      "poru": 4162,
      "letter": 4163,
      "itrailer": 4164,
      "rout": 4165,
      "tired": 4166,
      "chedu": 4167,
      "orig": 4168,
      "alone": 4169,
      "verse": 4170,
      "silai": 4171,
      "sug": 4172,
      "supar": 4173,
      "sufficient": 4174,
      "modi": 4175,
      "track": 4176,
      "aachi": 4177,
      "loge": 4178,
      "pannom": 4179,
      "pannradhu": 4180,
      "panninen": 4181,
      "personal": 4182,
      "ennaya": 4183,
      "ennamo": 4184,
      "teenga": 4185,
      "dec": 4186,
      "define": 4187,
      "olu": 4188,
      "guy": 4189,
      "guar": 4190,
      "taan": 4191,
      "tail": 4192,
      "baga": 4193,
      "bul": 4194,
      "engada": 4195,
      "pudu": 4196,
      "pull": 4197,
      "sami": 4198,
      "naanum": 4199,
      "comb": 4200,
      "comfortable": 4201,
      "soori": 4202,
      "anuku": 4203,
      "ication": 4204,
      "boys": 4205,
      "board": 4206,
      "exp": 4207,
      "wed": 4208,
      "milion": 4209,
      "varuva": 4210,
      "varusam": 4211,
      "fake": 4212,
      "poranga": 4213,
      "vaati": 4214,
      "tried": 4215,
      "adikuthu": 4216,
      "ellarukum": 4217,
      "ilaya": 4218,
      "portant": 4219,
      "YouTu": 4220,
      "nadich": 4221,
      "someone": 4222,
      "paathavanga": 4223,
      "maranaa": 4224,
      "planning": 4225,
      "backpropagation": 4226,
      "kalai": 4227,
      "without": 4228,
      "asingam": 4229,
      "ayya": 4230,
      "mally": 4231,
      "nerkondapaarva": 4232,
      "Think": 4233,
      "prayer": 4234,
      "wife": 4235,
      "Working": 4236,
      "World": 4237,
      "sunset": 4238,
      "dinner": 4239,
      "Exam": 4240,
      "policy": 4241,
      "career": 4242,
      "pundai": 4243,
      "series": 4244,
      "Problem": 4245,
      "sollitu": 4246,
      "calm": 4247,
      "dreams": 4248,
      "irukkom": 4249,
      "PUBG": 4250,
      "vintage": 4251,
      "early": 4252,
      "production": 4253,
      "conversational": 4254,
      "nenaikiren": 4255,
      "bring": 4256,
      "Sundhar": 4257,
      "saapda": 4258,
      "evalu": 4259,
      "ohh": 4260,
      "daww": 4261,
      "witch": 4262,
      "marupadi": 4263,
      "Important": 4264,
      "collection": 4265,
      "scious": 4266,
      "viladalaama": 4267,
      "Class": 4268,
      "concern": 4269,
      "ineering": 4270,
      "GPT": 4271,
      "Language": 4272,
      "journey": 4273,
      "felt": 4274,
      "College": 4275,
      "Facebook": 4276,
      "Tensor": 4277,
      "ghibran": 4278,
      "mudichacha": 4279,
      "thookalamaa": 4280,
      "synthesis": 4281,
      "ercise": 4282,
      "sangathamizhan": 4283,
      "Beautiful": 4284,
      "Zuckerber": 4285,
      "routine": 4286,
      "origin": 4287,
      "YouTube": 4288,
      "nerkondapaarvaitrailer": 4289,
      "Zuckerberg": 4290,
      "Bit": 4291,
      "Bal": 4292,
      "Book": 4293,
      "Bank": 4294,
      "Call": 4295,
      "Del": 4296,
      "Fri": 4297,
      "Flow": 4298,
      "Gener": 4299,
      "Gym": 4300,
      "Job": 4301,
      "MI": 4302,
      "NL": 4303,
      "Over": 4304,
      "Plan": 4305,
      "She": 4306,
      "Slow": 4307,
      "Self": 4308,
      "Tem": 4309,
      "They": 4310,
      "Up": 4311,
      "Wea": 4312,
      "ae": 4313,
      "agi": 4314,
      "assi": 4315,
      "away": 4316,
      "cing": 4317,
      "creat": 4318,
      "cted": 4319,
      "came": 4320,
      "citi": 4321,
      "dr": 4322,
      "equ": 4323,
      "fini": 4324,
      "gn": 4325,
      "hol": 4326,
      "hur": 4327,
      "ika": 4328,
      "oscar": 4329,
      "pit": 4330,
      "pper": 4331,
      "sah": 4332,
      "south": 4333,
      "tq": 4334,
      "two": 4335,
      "woo": 4336,
      "xi": 4337,
      "yin": 4338,
      "analum": 4339,
      "thro": 4340,
      "thee": 4341,
      "laval": 4342,
      "arr": 4343,
      "ennu": 4344,
      "mas": 4345,
      "thaaru": 4346,
      "pakkum": 4347,
      "pawan": 4348,
      "kuravanga": 4349,
      "kuranga": 4350,
      "onum": 4351,
      "kage": 4352,
      "liye": 4353,
      "stly": 4354,
      "reci": 4355,
      "thalam": 4356,
      "poster": 4357,
      "pogala": 4358,
      "levela": 4359,
      "thuru": 4360,
      "vira": 4361,
      "yala": 4362,
      "iruthu": 4363,
      "irumbu": 4364,
      "ham": 4365,
      "hate": 4366,
      "hair": 4367,
      "robo": 4368,
      "roll": 4369,
      "amo": 4370,
      "tici": 4371,
      "aling": 4372,
      "mea": 4373,
      "ouge": 4374,
      "vange": 4375,
      "surance": 4376,
      "ttal": 4377,
      "ttaa": 4378,
      "moti": 4379,
      "varama": 4380,
      "trali": 4381,
      "aadu": 4382,
      "aatta": 4383,
      "aachaa": 4384,
      "loy": 4385,
      "panningala": 4386,
      "cep": 4387,
      "tes": 4388,
      "irukkanum": 4389,
      "irukkaru": 4390,
      "dek": 4391,
      "des": 4392,
      "demo": 4393,
      "shing": 4394,
      "vely": 4395,
      "sab": 4396,
      "saar": 4397,
      "saga": 4398,
      "sapada": 4399,
      "tag": 4400,
      "bate": 4401,
      "battery": 4402,
      "mutta": 4403,
      "pannavan": 4404,
      "thaniya": 4405,
      "Need": 4406,
      "reng": 4407,
      "rency": 4408,
      "paathen": 4409,
      "formation": 4410,
      "feature": 4411,
      "solve": 4412,
      "irn": 4413,
      "irrun": 4414,
      "iyathu": 4415,
      "thevidiya": 4416,
      "teriy": 4417,
      "apy": 4418,
      "company": 4419,
      "sotta": 4420,
      "anukku": 4421,
      "anuppu": 4422,
      "venture": 4423,
      "hits": 4424,
      "iyoo": 4425,
      "panravan": 4426,
      "shakthi": 4427,
      "varadhu": 4428,
      "koodadhu": 4429,
      "exist": 4430,
      "hatma": 4431,
      "viswaa": 4432,
      "pakkaa": 4433,
      "improving": 4434,
      "eduthuku": 4435,
      "ellarayum": 4436,
      "goti": 4437,
      "portun": 4438,
      "ssive": 4439,
      "field": 4440,
      "Mahatma": 4441,
      "were": 4442,
      "ellent": 4443,
      "attitude": 4444,
      "gandu": 4445,
      "ayoo": 4446,
      "irruka": 4447,
      "summer": 4448,
      "evanda": 4449,
      "sambavatha": 4450,
      "plzz": 4451,
      "auto": 4452,
      "importance": 4453,
      "namakku": 4454,
      "Everything": 4455,
      "missing": 4456,
      "pogudhu": 4457,
      "pottutu": 4458,
      "kammiya": 4459,
      "difference": 4460,
      "vayasula": 4461,
      "pogtingala": 4462,
      "nadakadhu": 4463,
      "Produ": 4464,
      "partner": 4465,
      "kadavu": 4466,
      "theriyama": 4467,
      "pangali": 4468,
      "vilunthu": 4469,
      "moments": 4470,
      "ctivity": 4471,
      "issues": 4472,
      "gging": 4473,
      "paakurapo": 4474,
      "Door": 4475,
      "leavel": 4476,
      "beats": 4477,
      "garama": 4478,
      "optimally": 4479,
      "Arrange": 4480,
      "eedback": 4481,
      "aanalum": 4482,
      "solutely": 4483,
      "1947": 4484,
      "logic": 4485,
      "bayanthu": 4486,
      "chumma": 4487,
      "clean": 4488,
      "excellent": 4489,
      "generate": 4490,
      "decision": 4491,
      "kadhai": 4492,
      "speaking": 4493,
      "Without": 4494,
      "manusan": 4495,
      "choice": 4496,
      "piece": 4497,
      "vishvasam": 4498,
      "college": 4499,
      "True": 4500,
      "paravala": 4501,
      "Less": 4502,
      "nayagan": 4503,
      "farming": 4504,
      "prompt": 4505,
      "gonna": 4506,
      "paniten": 4507,
      "kaadhal": 4508,
      "1869": 4509,
      "Photosynthesis": 4510,
      "especially": 4511,
      "CSK": 4512,
      "Rain": 4513,
      "functioning": 4514,
      "Evening": 4515,
      "Crypto": 4516,
      "independence": 4517,
      "Digital": 4518,
      "approach": 4519,
      "eagerly": 4520,
      "stainable": 4521,
      "combination": 4522,
      "Weather": 4523,
      "!!": 4524,
      "'!": 4525,
      "12": 4526,
      "60": 4527,
      "67k": 4528,
      "Ap": 4529,
      "Anna": 4530,
      "Aust": 4531,
      "Banga": 4532,
      "Brea": 4533,
      "Cor": 4534,
      "Cooking": 4535,
      "CEO": 4536,
      "Edu": 4537,
      "FA": 4538,
      "High": 4539,
      "Jass": 4540,
      "Light": 4541,
      "Multi": 4542,
      "Res": 4543,
      "Spe": 4544,
      "Sur": 4545,
      "Too": 4546,
      "Why": 4547,
      "ade": 4548,
      "aparam": 4549,
      "bene": 4550,
      "blowing": 4551,
      "cooking": 4552,
      "ckup": 4553,
      "dom": 4554,
      "ek": 4555,
      "edh": 4556,
      "eco": 4557,
      "etho": 4558,
      "edho": 4559,
      "frm": 4560,
      "glo": 4561,
      "ikku": 4562,
      "kkan": 4563,
      "nor": 4564,
      "othing": 4565,
      "osm": 4566,
      "ppo": 4567,
      "pinga": 4568,
      "prin": 4569,
      "rar": 4570,
      "switch": 4571,
      "tn": 4572,
      "utha": 4573,
      "voru": 4574,
      "vous": 4575,
      "yeru": 4576,
      "zen": 4577,
      "zos": 4578,
      "launch": 4579,
      "initi": 4580,
      "dalam": 4581,
      "enka": 4582,
      "entation": 4583,
      "mae": 4584,
      "malai": 4585,
      "ralia": 4586,
      "rush": 4587,
      "rural": 4588,
      "paan": 4589,
      "pavan": 4590,
      "kuthi": 4591,
      "onu": 4592,
      "kasu": 4593,
      "live": 4594,
      "dish": 4595,
      "streng": 4596,
      "rela": 4597,
      "rece": 4598,
      "lean": 4599,
      "hain": 4600,
      "itely": 4601,
      "section": 4602,
      "changa": 4603,
      "alle": 4604,
      "siddi": 4605,
      "vanka": 4606,
      "vangu": 4607,
      "suburaj": 4608,
      "tte": 4609,
      "ttan": 4610,
      "ttar": 4611,
      "varam": 4612,
      "varthai": 4613,
      "trained": 4614,
      "perspe": 4615,
      "irukom": 4616,
      "irukara": 4617,
      "thalaiya": 4618,
      "saw": 4619,
      "sapt": 4620,
      "tability": 4621,
      "buy": 4622,
      "pesama": 4623,
      "levell": 4624,
      "tox": 4625,
      "karuma": 4626,
      "bet": 4627,
      "negoti": 4628,
      "nology": 4629,
      "irukuu": 4630,
      "pula": 4631,
      "push": 4632,
      "formal": 4633,
      "yedu": 4634,
      "ither": 4635,
      "jack": 4636,
      "pannuradhu": 4637,
      "aprom": 4638,
      "sola": 4639,
      "venam": 4640,
      "loved": 4641,
      "promo": 4642,
      "progress": 4643,
      "koi": 4644,
      "koda": 4645,
      "neram": 4646,
      "host": 4647,
      "conscious": 4648,
      "kaattu": 4649,
      "niku": 4650,
      "iyil": 4651,
      "irunga": 4652,
      "irundu": 4653,
      "worst": 4654,
      "chai": 4655,
      "ponn": 4656,
      "ponnu": 4657,
      "kiravanga": 4658,
      "boy": 4659,
      "area": 4660,
      "padipu": 4661,
      "coin": 4662,
      "coding": 4663,
      "hats": 4664,
      "dialouge": 4665,
      "adchi": 4666,
      "pathingala": 4667,
      "aries": 4668,
      "cident": 4669,
      "fair": 4670,
      "adika": 4671,
      "adikka": 4672,
      "ellamey": 4673,
      "ellaarum": 4674,
      "ilama": 4675,
      "got": 4676,
      "gover": 4677,
      "goals": 4678,
      "opportun": 4679,
      "ports": 4680,
      "judge": 4681,
      "vuthu": 4682,
      "sollura": 4683,
      "domain": 4684,
      "May": 4685,
      "vidamaten": 4686,
      "saava": 4687,
      "saapida": 4688,
      "sivaji": 4689,
      "vayasa": 4690,
      "selfi": 4691,
      "avalo": 4692,
      "capa": 4693,
      "jection": 4694,
      "mokkaiya": 4695,
      "pudicha": 4696,
      "pudichavanga": 4697,
      "evanu": 4698,
      "nenaiku": 4699,
      "lesson": 4700,
      "usband": 4701,
      "100k": 4702,
      "podama": 4703,
      "price": 4704,
      "sirappa": 4705,
      "vidunka": 4706,
      "currency": 4707,
      "picha": 4708,
      "Andy": 4709,
      "Comfort": 4710,
      "sollava": 4711,
      "nadakavum": 4712,
      "Bezos": 4713,
      "irukkanga": 4714,
      "Once": 4715,
      "damn": 4716,
      "kadasi": 4717,
      "paruthi": 4718,
      "katradhukaga": 4719,
      "countability": 4720,
      "thonuthu": 4721,
      "kodutha": 4722,
      "winner": 4723,
      "Movie": 4724,
      "baap": 4725,
      "khan": 4726,
      "potavan": 4727,
      "Still": 4728,
      "others": 4729,
      "kadaisila": 4730,
      "improvement": 4731,
      "channels": 4732,
      "stuck": 4733,
      "sense": 4734,
      "Poli": 4735,
      "didn": 4736,
      "Sometimes": 4737,
      "silent": 4738,
      "payale": 4739,
      "sistency": 4740,
      "ritical": 4741,
      "pullari": 4742,
      "crore": 4743,
      "thirumbi": 4744,
      "vareengala": 4745,
      "veeram": 4746,
      "editing": 4747,
      "basics": 4748,
      "Serious": 4749,
      "magic": 4750,
      "audience": 4751,
      "Complex": 4752,
      "paakringa": 4753,
      "wonder": 4754,
      "xygen": 4755,
      "Few": 4756,
      "puriyala": 4757,
      "congrats": 4758,
      "business": 4759,
      "public": 4760,
      "memories": 4761,
      "sasikumar": 4762,
      "tapsee": 4763,
      "Jeff": 4764,
      "loud": 4765,
      "Shopping": 4766,
      "method": 4767,
      "suggest": 4768,
      "logesh": 4769,
      "Balance": 4770,
      "Delhi": 4771,
      "Friday": 4772,
      "NLP": 4773,
      "Australia": 4774,
      "Jassy": 4775,
      "perspective": 4776,
      "saptingala": 4777,
      "\",": 4778,
      "..": 4779,
      "13": 4780,
      "11m": 4781,
      "2nd": 4782,
      "Af": 4783,
      "Average": 4784,
      "CM": 4785,
      "Clean": 4786,
      "Dis": 4787,
      "East": 4788,
      "Fo": 4789,
      "Fun": 4790,
      "Jour": 4791,
      "Ka": 4792,
      "Oxygen": 4793,
      "Pe": 4794,
      "Sap": 4795,
      "Smart": 4796,
      "Two": 4797,
      "Use": 4798,
      "aka": 4799,
      "aal": 4800,
      "asa": 4801,
      "ata": 4802,
      "athan": 4803,
      "average": 4804,
      "bara": 4805,
      "cin": 4806,
      "card": 4807,
      "ctical": 4808,
      "cricket": 4809,
      "dya": 4810,
      "dro": 4811,
      "drama": 4812,
      "fle": 4813,
      "fall": 4814,
      "gommala": 4815,
      "husband": 4816,
      "iv": 4817,
      "iki": 4818,
      "jum": 4819,
      "jee": 4820,
      "junga": 4821,
      "kkar": 4822,
      "kis": 4823,
      "mum": 4824,
      "mine": 4825,
      "nnu": 4826,
      "nic": 4827,
      "odu": 4828,
      "pee": 4829,
      "plic": 4830,
      "rha": 4831,
      "sApp": 4832,
      "tone": 4833,
      "twitter": 4834,
      "udane": 4835,
      "vun": 4836,
      "wt": 4837,
      "warm": 4838,
      "thin": 4839,
      "ththu": 4840,
      "thare": 4841,
      "later": 4842,
      "eran": 4843,
      "eruntha": 4844,
      "mad": 4845,
      "maha": 4846,
      "mati": 4847,
      "mavana": 4848,
      "nad": 4849,
      "nale": 4850,
      "naama": 4851,
      "nadan": 4852,
      "thatha": 4853,
      "thaana": 4854,
      "gacy": 4855,
      "ravi": 4856,
      "rugan": 4857,
      "pakara": 4858,
      "kusu": 4859,
      "online": 4860,
      "kaka": 4861,
      "kaal": 4862,
      "kakki": 4863,
      "lite": 4864,
      "didate": 4865,
      "kevala": 4866,
      "vay": 4867,
      "poem": 4868,
      "poten": 4869,
      "lets": 4870,
      "viru": 4871,
      "irumugan": 4872,
      "itinga": 4873,
      "setting": 4874,
      "unce": 4875,
      "ungo": 4876,
      "tik": 4877,
      "organ": 4878,
      "alin": 4879,
      "sional": 4880,
      "vanth": 4881,
      "vangi": 4882,
      "dhanu": 4883,
      "ves": 4884,
      "veara": 4885,
      "dul": 4886,
      "varan": 4887,
      "vararu": 4888,
      "risk": 4889,
      "anai": 4890,
      "deal": 4891,
      "dead": 4892,
      "debate": 4893,
      "fanzz": 4894,
      "ungal": 4895,
      "sali": 4896,
      "saganum": 4897,
      "satis": 4898,
      "tat": 4899,
      "tations": 4900,
      "taste": 4901,
      "illaye": 4902,
      "mura": 4903,
      "total": 4904,
      "paakren": 4905,
      "pudhu": 4906,
      "iyae": 4907,
      "theenga": 4908,
      "thevai": 4909,
      "pannuna": 4910,
      "apparam": 4911,
      "kannadi": 4912,
      "reali": 4913,
      "reading": 4914,
      "comfort": 4915,
      "comparison": 4916,
      "stars": 4917,
      "Ennaku": 4918,
      "thalaivare": 4919,
      "enaya": 4920,
      "irukkura": 4921,
      "irunda": 4922,
      "worry": 4923,
      "kidu": 4924,
      "mattu": 4925,
      "padikala": 4926,
      "padippu": 4927,
      "odathu": 4928,
      "viswasama": 4929,
      "pathinga": 4930,
      "mista": 4931,
      "cid": 4932,
      "varusham": 4933,
      "fact": 4934,
      "edom": 4935,
      "poraru": 4936,
      "feels": 4937,
      "alagum": 4938,
      "inning": 4939,
      "esting": 4940,
      "edukala": 4941,
      "adicha": 4942,
      "aaguma": 4943,
      "irukkalam": 4944,
      "irukkaanga": 4945,
      "kolai": 4946,
      "nadikira": 4947,
      "upload": 4948,
      "Mahal": 4949,
      "paarthu": 4950,
      "knowledge": 4951,
      "nadakum": 4952,
      "attend": 4953,
      "lated": 4954,
      "sangu": 4955,
      "interview": 4956,
      "international": 4957,
      "file": 4958,
      "vayase": 4959,
      "thatti": 4960,
      "thanama": 4961,
      "trying": 4962,
      "irrukum": 4963,
      "avala": 4964,
      "avadhu": 4965,
      "happiness": 4966,
      "symb": 4967,
      "layae": 4968,
      "subject": 4969,
      "overloaded": 4970,
      "colour": 4971,
      "sapten": 4972,
      "fficult": 4973,
      "paakama": 4974,
      "creative": 4975,
      "solrathuku": 4976,
      "panuva": 4977,
      "dina": 4978,
      "kkiya": 4979,
      "helpful": 4980,
      "Commun": 4981,
      "dambaram": 4982,
      "ities": 4983,
      "kadavul": 4984,
      "vandhavanga": 4985,
      "rasikan": 4986,
      "pakra": 4987,
      "Cont": 4988,
      "biryani": 4989,
      "wins": 4990,
      "avaroda": 4991,
      "naraiya": 4992,
      "growth": 4993,
      "WhatsApp": 4994,
      "brand": 4995,
      "Heist": 4996,
      "distri": 4997,
      "kaatrathu": 4998,
      "Sub": 4999,
      "Super": 5000,
      "thevaiyana": 5001,
      "warrier": 5002,
      "kelatu": 5003,
      "responses": 5004,
      "example": 5005,
      "niraiya": 5006,
      "pakuravanga": 5007,
      "unmaiya": 5008,
      "inimey": 5009,
      "slowly": 5010,
      "kudichen": 5011,
      "generation": 5012,
      "Start": 5013,
      "alluthu": 5014,
      "aniruth": 5015,
      "jeichan": 5016,
      "jeichanga": 5017,
      "ayaz": 5018,
      "club": 5019,
      "sakthiman": 5020,
      "naturally": 5021,
      "vaanganum": 5022,
      "missed": 5023,
      "pollu": 5024,
      "industry": 5025,
      "development": 5026,
      "kevalama": 5027,
      "purpose": 5028,
      "dailogue": 5029,
      "Ammu": 5030,
      "disappoin": 5031,
      "entertain": 5032,
      "paduthringa": 5033,
      "privacy": 5034,
      "ennangada": 5035,
      "announce": 5036,
      "sharing": 5037,
      "ccasional": 5038,
      "plus": 5039,
      "vironment": 5040,
      "secret": 5041,
      "Absolutely": 5042,
      "writing": 5043,
      "kudingala": 5044,
      "guarant": 5045,
      "assistant": 5046,
      "gnition": 5047,
      "Bangalore": 5048,
      "ecosystem": 5049,
      "strength": 5050,
      "selfie": 5051,
      "Saptingala": 5052,
      "symbol": 5053,
      "40": 5054,
      "4m": 5055,
      "Ag": 5056,
      "Action": 5057,
      "CO": 5058,
      "Cel": 5059,
      "EE": 5060,
      "Efficient": 5061,
      "Food": 5062,
      "Fast": 5063,
      "Ge": 5064,
      "Gro": 5065,
      "Gover": 5066,
      "II": 5067,
      "Iniku": 5068,
      "Ja": 5069,
      "Lin": 5070,
      "Mana": 5071,
      "Many": 5072,
      "NA": 5073,
      "OT": 5074,
      "Out": 5075,
      "PR": 5076,
      "PS": 5077,
      "Ph": 5078,
      "Sp": 5079,
      "Sum": 5080,
      "Stu": 5081,
      "Sof": 5082,
      "Sci": 5083,
      "Show": 5084,
      "Tri": 5085,
      "Taj": 5086,
      "Ve": 5087,
      "Vera": 5088,
      "Window": 5089,
      "Watch": 5090,
      "Yaar": 5091,
      "athe": 5092,
      "acha": 5093,
      "ative": 5094,
      "cry": 5095,
      "cked": 5096,
      "eve": 5097,
      "ety": 5098,
      "gent": 5099,
      "hr": 5100,
      "hon": 5101,
      "hara": 5102,
      "ioo": 5103,
      "ivana": 5104,
      "jama": 5105,
      "jithu": 5106,
      "ntr": 5107,
      "ppadi": 5108,
      "pinn": 5109,
      "spo": 5110,
      "som": 5111,
      "slan": 5112,
      "tla": 5113,
      "uin": 5114,
      "ucle": 5115,
      "wh": 5116,
      "went": 5117,
      "wis": 5118,
      "would": 5119,
      "xima": 5120,
      "za": 5121,
      "anaa": 5122,
      "thil": 5123,
      "into": 5124,
      "inju": 5125,
      "endu": 5126,
      "mach": 5127,
      "matu": 5128,
      "maja": 5129,
      "master": 5130,
      "nathu": 5131,
      "naat": 5132,
      "naai": 5133,
      "thale": 5134,
      "raha": 5135,
      "rathanga": 5136,
      "ruu": 5137,
      "pah": 5138,
      "pair": 5139,
      "kula": 5140,
      "kuru": 5141,
      "kuren": 5142,
      "kudaa": 5143,
      "kava": 5144,
      "kave": 5145,
      "katti": 5146,
      "living": 5147,
      "pande": 5148,
      "reengala": 5149,
      "reform": 5150,
      "reloaded": 5151,
      "vacha": 5152,
      "poravanga": 5153,
      "potti": 5154,
      "pokuthu": 5155,
      "thuu": 5156,
      "viol": 5157,
      "vitta": 5158,
      "vija": 5159,
      "yabagam": 5160,
      "ingo": 5161,
      "ingiru": 5162,
      "hass": 5163,
      "sele": 5164,
      "ror": 5165,
      "roid": 5166,
      "amitha": 5167,
      "tire": 5168,
      "chitu": 5169,
      "metri": 5170,
      "veru": 5171,
      "simi": 5172,
      "sius": 5173,
      "vanthinga": 5174,
      "dhinga": 5175,
      "vegam": 5176,
      "wat": 5177,
      "varaa": 5178,
      "trading": 5179,
      "aay": 5180,
      "ennaa": 5181,
      "oruthara": 5182,
      "irukena": 5183,
      "dele": 5184,
      "delay": 5185,
      "degre": 5186,
      "thalaivana": 5187,
      "guru": 5188,
      "mary": 5189,
      "sava": 5190,
      "tai": 5191,
      "baya": 5192,
      "babu": 5193,
      "andri": 5194,
      "murai": 5195,
      "mukkiya": 5196,
      "beg": 5197,
      "beach": 5198,
      "engalukku": 5199,
      "thanum": 5200,
      "thangala": 5201,
      "lyric": 5202,
      "dham": 5203,
      "epudi": 5204,
      "rompa": 5205,
      "paakanum": 5206,
      "paapom": 5207,
      "pus": 5208,
      "pura": 5209,
      "forward": 5210,
      "solran": 5211,
      "yed": 5212,
      "amai": 5213,
      "amal": 5214,
      "ising": 5215,
      "pannuveenga": 5216,
      "kanom": 5217,
      "startup": 5218,
      "rant": 5219,
      "proof": 5220,
      "promotion": 5221,
      "ultural": 5222,
      "condi": 5223,
      "nific": 5224,
      "abhi": 5225,
      "thaanda": 5226,
      "chap": 5227,
      "kiram": 5228,
      "rami": 5229,
      "varatha": 5230,
      "boiling": 5231,
      "areas": 5232,
      "manda": 5233,
      "maadi": 5234,
      "exercise": 5235,
      "discu": 5236,
      "podung": 5237,
      "adventure": 5238,
      "paththa": 5239,
      "guess": 5240,
      "pidu": 5241,
      "ating": 5242,
      "owner": 5243,
      "pakkalam": 5244,
      "pongada": 5245,
      "nowledge": 5246,
      "workers": 5247,
      "aksh": 5248,
      "sky": 5249,
      "ellaru": 5250,
      "eruka": 5251,
      "arden": 5252,
      "nadipp": 5253,
      "heroine": 5254,
      "volo": 5255,
      "musical": 5256,
      "prepare": 5257,
      "mudiyaathu": 5258,
      "doctor": 5259,
      "Madurai": 5260,
      "emp": 5261,
      "known": 5262,
      "candidate": 5263,
      "itual": 5264,
      "kalaam": 5265,
      "runga": 5266,
      "santho": 5267,
      "merat": 5268,
      "perusa": 5269,
      "filter": 5270,
      "athula": 5271,
      "therikuthu": 5272,
      "utk": 5273,
      "vachuru": 5274,
      "avana": 5275,
      "friendly": 5276,
      "nenachu": 5277,
      "resource": 5278,
      "verithanamana": 5279,
      "signific": 5280,
      "reet": 5281,
      "users": 5282,
      "creativity": 5283,
      "10th": 5284,
      "paathuttu": 5285,
      "vanthuru": 5286,
      "vandhuru": 5287,
      "finally": 5288,
      "fferent": 5289,
      "dhey": 5290,
      "statu": 5291,
      "stagram": 5292,
      "Under": 5293,
      "screens": 5294,
      "Childhood": 5295,
      "sunrise": 5296,
      "poola": 5297,
      "poora": 5298,
      "aduthu": 5299,
      "intro": 5300,
      "standard": 5301,
      "pogren": 5302,
      "pogringala": 5303,
      "breaks": 5304,
      "summava": 5305,
      "innaiku": 5306,
      "paraakk": 5307,
      "Online": 5308,
      "bedkar": 5309,
      "emotion": 5310,
      "reasoning": 5311,
      "sollanum": 5312,
      "certain": 5313,
      "kodumai": 5314,
      "genuine": 5315,
      "villan": 5316,
      "building": 5317,
      "Different": 5318,
      "records": 5319,
      "Model": 5320,
      "avargal": 5321,
      "product": 5322,
      "malaysian": 5323,
      "Stalin": 5324,
      "mostly": 5325,
      "shows": 5326,
      "brary": 5327,
      "Doctor": 5328,
      "Docum": 5329,
      "chittu": 5330,
      "script": 5331,
      "ivalo": 5332,
      "sindhi": 5333,
      "months": 5334,
      "analyze": 5335,
      "talent": 5336,
      "kedIn": 5337,
      "thevayana": 5338,
      "silence": 5339,
      "payalu": 5340,
      "ethirku": 5341,
      "Friendship": 5342,
      "unmaiyana": 5343,
      "bayangaram": 5344,
      "happening": 5345,
      "katurathukaga": 5346,
      "excuse": 5347,
      "vivek": 5348,
      "therinja": 5349,
      "therinjavan": 5350,
      "thoughts": 5351,
      "attatha": 5352,
      "frastructure": 5353,
      "technology": 5354,
      "honestly": 5355,
      "veeran": 5356,
      "nariya": 5357,
      "vishwasam": 5358,
      "evvalavu": 5359,
      "Pradesh": 5360,
      "mentation": 5361,
      "talaiva": 5362,
      "talaivar": 5363,
      "inimae": 5364,
      "meaningful": 5365,
      "appadiye": 5366,
      "charger": 5367,
      "shopping": 5368,
      "Safe": 5369,
      "audio": 5370,
      "aarambi": 5371,
      "tamizhan": 5372,
      "Auto": 5373,
      "girls": 5374,
      "tools": 5375,
      "compute": 5376,
      "recognition": 5377,
      "capital": 5378,
      "random": 5379,
      "mirattal": 5380,
      "blank": 5381,
      "appreciate": 5382,
      "Pongal": 5383,
      "TensorFlow": 5384,
      "Bitcoin": 5385,
      "citizen": 5386,
      "hurt": 5387,
      "sahoo": 5388,
      "through": 5389,
      "recipe": 5390,
      "tralier": 5391,
      "aadukalam": 5392,
      "Cryptocurrency": 5393,
      "edhir": 5394,
      "jackson": 5395,
      "sirappaana": 5396,
      "Celsius": 5397,
      "LinkedIn": 5398,
      "Soft": 5399,
      "slang": 5400,
      "uinely": 5401,
      "rathangale": 5402,
      "hassan": 5403,
      "degrees": 5404,
      "25": 5405,
      "350": 5406,
      "467k": 5407,
      "5m": 5408,
      "500k": 5409,
      "700k": 5410,
      "80k": 5411,
      "81k": 5412,
      "AR": 5413,
      "Air": 5414,
      "Agra": 5415,
      "Acid": 5416,
      "Bud": 5417,
      "Come": 5418,
      "DNA": 5419,
      "Ele": 5420,
      "Each": 5421,
      "Elon": 5422,
      "Free": 5423,
      "Fake": 5424,
      "Grat": 5425,
      "Hum": 5426,
      "Hard": 5427,
      "Jo": 5428,
      "Kar": 5429,
      "Mom": 5430,
      "Mind": 5431,
      "Met": 5432,
      "Or": 5433,
      "Old": 5434,
      "Open": 5435,
      "Play": 5436,
      "Phy": 5437,
      "Ru": 5438,
      "TN": 5439,
      "Uttar": 5440,
      "ale": 5441,
      "aye": 5442,
      "azhi": 5443,
      "bc": 5444,
      "ball": 5445,
      "cate": 5446,
      "crow": 5447,
      "cinima": 5448,
      "credi": 5449,
      "doo": 5450,
      "eenga": 5451,
      "eye": 5452,
      "fu": 5453,
      "far": 5454,
      "flu": 5455,
      "fare": 5456,
      "gri": 5457,
      "gand": 5458,
      "garden": 5459,
      "hoo": 5460,
      "hig": 5461,
      "harm": 5462,
      "janu": 5463,
      "kand": 5464,
      "kkira": 5465,
      "krama": 5466,
      "llam": 5467,
      "landing": 5468,
      "moodi": 5469,
      "nj": 5470,
      "niru": 5471,
      "nanu": 5472,
      "nandri": 5473,
      "oxy": 5474,
      "october": 5475,
      "sit": 5476,
      "sitive": 5477,
      "tw": 5478,
      "tre": 5479,
      "tchi": 5480,
      "tollywood": 5481,
      "v2": 5482,
      "yanga": 5483,
      "zer": 5484,
      "ange": 5485,
      "andula": 5486,
      "thn": 5487,
      "thol": 5488,
      "lat": 5489,
      "lations": 5490,
      "inja": 5491,
      "intelligence": 5492,
      "invest": 5493,
      "insurance": 5494,
      "aro": 5495,
      "argum": 5496,
      "ense": 5497,
      "ennum": 5498,
      "enrum": 5499,
      "nall": 5500,
      "thalla": 5501,
      "thavira": 5502,
      "gap": 5503,
      "gaandula": 5504,
      "raw": 5505,
      "padh": 5506,
      "pate": 5507,
      "paana": 5508,
      "pakar": 5509,
      "paiya": 5510,
      "paara": 5511,
      "paid": 5512,
      "ongoing": 5513,
      "kaana": 5514,
      "kalu": 5515,
      "kazh": 5516,
      "kapoor": 5517,
      "lio": 5518,
      "liya": 5519,
      "liter": 5520,
      "lism": 5521,
      "disa": 5522,
      "pans": 5523,
      "panam": 5524,
      "panir": 5525,
      "panday": 5526,
      "kekka": 5527,
      "stud": 5528,
      "reven": 5529,
      "pow": 5530,
      "pole": 5531,
      "pori": 5532,
      "pothe": 5533,
      "thukka": 5534,
      "vitra": 5535,
      "visa": 5536,
      "vious": 5537,
      "yai": 5538,
      "yathu": 5539,
      "umma": 5540,
      "separ": 5541,
      "unmay": 5542,
      "undation": 5543,
      "tial": 5544,
      "ory": 5545,
      "met": 5546,
      "meala": 5547,
      "vert": 5548,
      "verum": 5549,
      "veriy": 5550,
      "sili": 5551,
      "vedi": 5552,
      "velaya": 5553,
      "vediya": 5554,
      "dura": 5555,
      "duper": 5556,
      "aavathu": 5557,
      "thiga": 5558,
      "thiram": 5559,
      "thirai": 5560,
      "rice": 5561,
      "ribon": 5562,
      "pannrom": 5563,
      "ahe": 5564,
      "oruthavanga": 5565,
      "tuu": 5566,
      "shoot": 5567,
      "oll": 5568,
      "ollu": 5569,
      "ungalu": 5570,
      "marna": 5571,
      "saving": 5572,
      "sattai": 5573,
      "saamy": 5574,
      "bak": 5575,
      "veralevel": 5576,
      "pet": 5577,
      "pepper": 5578,
      "getting": 5579,
      "padaiya": 5580,
      "padayappa": 5581,
      "illadha": 5582,
      "begin": 5583,
      "thani": 5584,
      "thann": 5585,
      "lying": 5586,
      "neer": 5587,
      "near": 5588,
      "necess": 5589,
      "dhala": 5590,
      "eppudi": 5591,
      "puda": 5592,
      "inimel": 5593,
      "cken": 5594,
      "yevlo": 5595,
      "yeduthu": 5596,
      "samy": 5597,
      "sambha": 5598,
      "kanam": 5599,
      "kanithan": 5600,
      "reaction": 5601,
      "compli": 5602,
      "therapy": 5603,
      "proxima": 5604,
      "nervous": 5605,
      "conven": 5606,
      "iyanum": 5607,
      "maranama": 5608,
      "maranamass": 5609,
      "kondi": 5610,
      "koncham": 5611,
      "chidambaram": 5612,
      "varatum": 5613,
      "manam": 5614,
      "manitha": 5615,
      "coder": 5616,
      "maadhiri": 5617,
      "ween": 5618,
      "weak": 5619,
      "podcast": 5620,
      "addi": 5621,
      "tharum": 5622,
      "tharanum": 5623,
      "tharisanam": 5624,
      "mili": 5625,
      "fac": 5626,
      "atlee": 5627,
      "useful": 5628,
      "alaga": 5629,
      "alagu": 5630,
      "pakkama": 5631,
      "innorthara": 5632,
      "kene": 5633,
      "stylum": 5634,
      "aaguviya": 5635,
      "eruke": 5636,
      "ilaye": 5637,
      "nadipu": 5638,
      "Instagram": 5639,
      "solluravanga": 5640,
      "kinge": 5641,
      "angle": 5642,
      "matan": 5643,
      "sera": 5644,
      "Deoxy": 5645,
      "plans": 5646,
      "kagave": 5647,
      "pathuten": 5648,
      "asure": 5649,
      "pannia": 5650,
      "asingapaduthuringa": 5651,
      "alization": 5652,
      "ions": 5653,
      "nammakitta": 5654,
      "kudadhu": 5655,
      "poduringa": 5656,
      "pidikum": 5657,
      "spir": 5658,
      "vume": 5659,
      "helped": 5660,
      "yarlam": 5661,
      "vanthathu": 5662,
      "therium": 5663,
      "lifetime": 5664,
      "irrukku": 5665,
      "grace": 5666,
      "grate": 5667,
      "caste": 5668,
      "pudikkum": 5669,
      "sarbaga": 5670,
      "minja": 5671,
      "eduthuru": 5672,
      "sangatamilan": 5673,
      "manasa": 5674,
      "nambi": 5675,
      "valid": 5676,
      "claim": 5677,
      "ometers": 5678,
      "standing": 5679,
      "careful": 5680,
      "completely": 5681,
      "serial": 5682,
      "adhuku": 5683,
      "ethukku": 5684,
      "Program": 5685,
      "pannitinga": 5686,
      "parakk": 5687,
      "pottavan": 5688,
      "languages": 5689,
      "thonu": 5690,
      "thonudhu": 5691,
      "ennanu": 5692,
      "understanding": 5693,
      "Direct": 5694,
      "Mostly": 5695,
      "karavanga": 5696,
      "munnadiye": 5697,
      "jobs": 5698,
      "porandhu": 5699,
      "visual": 5700,
      "Code": 5701,
      "Sunday": 5702,
      "distra": 5703,
      "kaatradhu": 5704,
      "balan": 5705,
      "loading": 5706,
      "parthavanga": 5707,
      "alavukku": 5708,
      "Musk": 5709,
      "vazhthukkal": 5710,
      "iranthu": 5711,
      "edhuku": 5712,
      "marubadi": 5713,
      "Startup": 5714,
      "salt": 5715,
      "movement": 5716,
      "kilometers": 5717,
      "sounds": 5718,
      "sults": 5719,
      "Quality": 5720,
      "meeting": 5721,
      "underwearoda": 5722,
      "ulaga": 5723,
      "purinjavan": 5724,
      "solitu": 5725,
      "pictures": 5726,
      "siripu": 5727,
      "seruppadi": 5728,
      "kaandula": 5729,
      "protect": 5730,
      "protection": 5731,
      "nenachale": 5732,
      "ovvoru": 5733,
      "expectations": 5734,
      "inniki": 5735,
      "tradition": 5736,
      "achieve": 5737,
      "increase": 5738,
      "reminder": 5739,
      "veetuku": 5740,
      "Check": 5741,
      "Peaceful": 5742,
      "ilosophy": 5743,
      "responsibility": 5744,
      "aayegi": 5745,
      "dedicated": 5746,
      "pondati": 5747,
      "emergency": 5748,
      "Currently": 5749,
      "Help": 5750,
      "Mental": 5751,
      "explore": 5752,
      "marupadiyum": 5753,
      "Classic": 5754,
      "original": 5755,
      "Temple": 5756,
      "finish": 5757,
      "motivation": 5758,
      "aattatha": 5759,
      "loyment": 5760,
      "teriyumaa": 5761,
      "viswaasam": 5762,
      "Approxima": 5763,
      "Education": 5764,
      "Multiple": 5765,
      "othingiru": 5766,
      "princip": 5767,
      "initiative": 5768,
      "between": 5769,
      "Maybe": 5770,
      "capable": 5771,
      "Journal": 5772,
      "kannadiga": 5773,
      "pollution": 5774,
      "Government": 5775,
      "Japan": 5776,
      "OTT": 5777,
      "Summer": 5778,
      "Science": 5779,
      "ucleic": 5780,
      "metrics": 5781,
      "beginning": 5782,
      "lyrics": 5783,
      "status": 5784,
      "Gratitude": 5785,
      "argument": 5786,
      "ribonucleic": 5787,
      "Deoxyribonucleic": 5788,
      "Programming": 5789,
      "Approximately": 5790,
      "14": 5791,
      "60k": 5792,
      "80": 5793,
      "Arm": 5794,
      "Cho": 5795,
      "Clear": 5796,
      "DS": 5797,
      "Em": 5798,
      "Emo": 5799,
      "FO": 5800,
      "Fest": 5801,
      "Give": 5802,
      "Hi": 5803,
      "Hand": 5804,
      "Hub": 5805,
      "Id": 5806,
      "Kind": 5807,
      "Keep": 5808,
      "Lunch": 5809,
      "Man": 5810,
      "Mon": 5811,
      "NG": 5812,
      "Prom": 5813,
      "Pure": 5814,
      "RE": 5815,
      "SS": 5816,
      "Sc": 5817,
      "Sy": 5818,
      "South": 5819,
      "Tes": 5820,
      "Toda": 5821,
      "Top": 5822,
      "Teach": 5823,
      "Vir": 5824,
      "Wake": 5825,
      "adh": 5826,
      "asai": 5827,
      "bb": 5828,
      "bil": 5829,
      "bana": 5830,
      "blog": 5831,
      "bnail": 5832,
      "eth": 5833,
      "eda": 5834,
      "etu": 5835,
      "feedback": 5836,
      "gya": 5837,
      "ganu": 5838,
      "gandla": 5839,
      "hari": 5840,
      "ivi": 5841,
      "ich": 5842,
      "ivara": 5843,
      "jana": 5844,
      "jolly": 5845,
      "ksh": 5846,
      "ler": 5847,
      "mic": 5848,
      "manna": 5849,
      "ns": 5850,
      "nical": 5851,
      "ora": 5852,
      "othu": 5853,
      "odh": 5854,
      "ove": 5855,
      "othaa": 5856,
      "pk": 5857,
      "ppe": 5858,
      "pho": 5859,
      "rn": 5860,
      "ssed": 5861,
      "uff": 5862,
      "vm": 5863,
      "vt": 5864,
      "vya": 5865,
      "vol": 5866,
      "voda": 5867,
      "vnga": 5868,
      "w8": 5869,
      "wom": 5870,
      "yellarum": 5871,
      "ane": 5872,
      "anne": 5873,
      "anni": 5874,
      "ancial": 5875,
      "thor": 5876,
      "three": 5877,
      "thirunelveli": 5878,
      "lab": 5879,
      "lavel": 5880,
      "lady": 5881,
      "inclu": 5882,
      "art": 5883,
      "mata": 5884,
      "machan": 5885,
      "magan": 5886,
      "maanam": 5887,
      "masala": 5888,
      "naam": 5889,
      "nature": 5890,
      "thama": 5891,
      "thavan": 5892,
      "gaya": 5893,
      "galuku": 5894,
      "radha": 5895,
      "rated": 5896,
      "patu": 5897,
      "pack": 5898,
      "pattu": 5899,
      "pathuku": 5900,
      "pavali": 5901,
      "patam": 5902,
      "pazha": 5903,
      "kaar": 5904,
      "kamala": 5905,
      "kajal": 5906,
      "dir": 5907,
      "paninga": 5908,
      "pananum": 5909,
      "panitu": 5910,
      "stance": 5911,
      "stunning": 5912,
      "thalavar": 5913,
      "thalabathi": 5914,
      "vava": 5915,
      "vasi": 5916,
      "poyi": 5917,
      "left": 5918,
      "lekin": 5919,
      "legacy": 5920,
      "vidha": 5921,
      "vision": 5922,
      "viral": 5923,
      "vised": 5924,
      "yave": 5925,
      "yash": 5926,
      "yamma": 5927,
      "yaare": 5928,
      "irum": 5929,
      "irupan": 5930,
      "els": 5931,
      "had": 5932,
      "itage": 5933,
      "setu": 5934,
      "sedhu": 5935,
      "seat": 5936,
      "unn": 5937,
      "unnu": 5938,
      "unnoda": 5939,
      "roda": 5940,
      "timing": 5941,
      "chintha": 5942,
      "aler": 5943,
      "liked": 5944,
      "member": 5945,
      "verra": 5946,
      "veriyar": 5947,
      "sight": 5948,
      "suthum": 5949,
      "tters": 5950,
      "dhool": 5951,
      "ved": 5952,
      "veg": 5953,
      "vekka": 5954,
      "vettu": 5955,
      "vetti": 5956,
      "moka": 5957,
      "duvan": 5958,
      "duven": 5959,
      "varare": 5960,
      "aap": 5961,
      "thik": 5962,
      "thila": 5963,
      "thira": 5964,
      "rist": 5965,
      "lovely": 5966,
      "percent": 5967,
      "massuu": 5968,
      "ced": 5969,
      "ennakku": 5970,
      "tutor": 5971,
      "devi": 5972,
      "ungada": 5973,
      "velu": 5974,
      "savanum": 5975,
      "saami": 5976,
      "tatti": 5977,
      "bas": 5978,
      "bala": 5979,
      "basha": 5980,
      "bution": 5981,
      "getha": 5982,
      "gets": 5983,
      "ingaa": 5984,
      "youu": 5985,
      "superhit": 5986,
      "muj": 5987,
      "toh": 5988,
      "tography": 5989,
      "pannadhu": 5990,
      "become": 5991,
      "engayo": 5992,
      "kkudhu": 5993,
      "lyk": 5994,
      "irukuthu": 5995,
      "paration": 5996,
      "igar": 5997,
      "paavi": 5998,
      "paathi": 5999,
      "lusu": 6000,
      "sirr": 6001,
      "pubg": 6002,
      "pudunga": 6003,
      "angali": 6004,
      "fessi": 6005,
      "sollum": 6006,
      "yeman": 6007,
      "yester": 6008,
      "yethana": 6009,
      "cts": 6010,
      "ithellam": 6011,
      "thes": 6012,
      "thevu": 6013,
      "teri": 6014,
      "teriya": 6015,
      "ternal": 6016,
      "Ennai": 6017,
      "thalaivarr": 6018,
      "nerya": 6019,
      "asing": 6020,
      "asked": 6021,
      "hest": 6022,
      "cons": 6023,
      "consum": 6024,
      "conform": 6025,
      "kaati": 6026,
      "kaatta": 6027,
      "ippu": 6028,
      "irunthen": 6029,
      "koothi": 6030,
      "chain": 6031,
      "mudiuma": 6032,
      "chii": 6033,
      "varavanga": 6034,
      "cost": 6035,
      "pettai": 6036,
      "odai": 6037,
      "varumaa": 6038,
      "faster": 6039,
      "pid": 6040,
      "edy": 6041,
      "atleast": 6042,
      "acce": 6043,
      "accu": 6044,
      "ours": 6045,
      "ilaa": 6046,
      "goes": 6047,
      "kolaa": 6048,
      "kolama": 6049,
      "jud": 6050,
      "ssibility": 6051,
      "apdilam": 6052,
      "undaries": 6053,
      "changing": 6054,
      "vuku": 6055,
      "kumari": 6056,
      "solluvanga": 6057,
      "actly": 6058,
      "telling": 6059,
      "uppu": 6060,
      "paathalum": 6061,
      "Dev": 6062,
      "Deal": 6063,
      "paarka": 6064,
      "saavu": 6065,
      "saavadi": 6066,
      "asual": 6067,
      "kalakit": 6068,
      "Neil": 6069,
      "ungga": 6070,
      "alig": 6071,
      "millions": 6072,
      "yaaruku": 6073,
      "seeman": 6074,
      "perumai": 6075,
      "corpora": 6076,
      "kudutha": 6077,
      "therikkuthu": 6078,
      "Research": 6079,
      "selvam": 6080,
      "Eng": 6081,
      "avaga": 6082,
      "pudich": 6083,
      "pudichi": 6084,
      "films": 6085,
      "agathu": 6086,
      "kolantha": 6087,
      "kollaama": 6088,
      "those": 6089,
      "arambam": 6090,
      "simbu": 6091,
      "everywhere": 6092,
      "nerkondapaarvai": 6093,
      "paakalam": 6094,
      "Three": 6095,
      "yours": 6096,
      "pakam": 6097,
      "ennaikum": 6098,
      "offic": 6099,
      "theriyumaa": 6100,
      "anyway": 6101,
      "innoruthare": 6102,
      "yaarlam": 6103,
      "steel": 6104,
      "wide": 6105,
      "watched": 6106,
      "dinu": 6107,
      "poodunga": 6108,
      "fficiency": 6109,
      "breathe": 6110,
      "adhukku": 6111,
      "pesura": 6112,
      "avunga": 6113,
      "rathukku": 6114,
      "calcu": 6115,
      "awards": 6116,
      "continu": 6117,
      "folio": 6118,
      "thooki": 6119,
      "kaaliyoda": 6120,
      "panniten": 6121,
      "monit": 6122,
      "thairiya": 6123,
      "changes": 6124,
      "listic": 6125,
      "proved": 6126,
      "katrathu": 6127,
      "mindset": 6128,
      "Conversa": 6129,
      "theriyatha": 6130,
      "varaikkum": 6131,
      "bird": 6132,
      "turing": 6133,
      "barra": 6134,
      "Moon": 6135,
      "reddy": 6136,
      "radhuku": 6137,
      "potavanga": 6138,
      "Should": 6139,
      "clothes": 6140,
      "healthy": 6141,
      "Strong": 6142,
      "projects": 6143,
      "nenaikira": 6144,
      "20m": 6145,
      "Pass": 6146,
      "Post": 6147,
      "ideas": 6148,
      "kaatrathukaga": 6149,
      "kaatradhukaga": 6150,
      "aanaa": 6151,
      "brain": 6152,
      "1969": 6153,
      "click": 6154,
      "quiet": 6155,
      "dependent": 6156,
      "Parents": 6157,
      "loosu": 6158,
      "testing": 6159,
      "sooper": 6160,
      "pandravan": 6161,
      "lagta": 6162,
      "veerama": 6163,
      "salute": 6164,
      "kollame": 6165,
      "half": 6166,
      "spider": 6167,
      "pinnadi": 6168,
      "veliya": 6169,
      "Qui": 6170,
      "abirami": 6171,
      "Priva": 6172,
      "ivaruku": 6173,
      "communication": 6174,
      "azhaga": 6175,
      "uruva": 6176,
      "sakthimaan": 6177,
      "skills": 6178,
      "aarambam": 6179,
      "farmers": 6180,
      "vendiyathu": 6181,
      "doii": 6182,
      "adhigama": 6183,
      "kedacha": 6184,
      "regular": 6185,
      "congratu": 6186,
      "Medicine": 6187,
      "paithiya": 6188,
      "teacher": 6189,
      "lines": 6190,
      "piragu": 6191,
      "doesn": 6192,
      "scope": 6193,
      "nailed": 6194,
      "definition": 6195,
      "Fail": 6196,
      "vasatha": 6197,
      "camera": 6198,
      "Bike": 6199,
      "University": 6200,
      "schemes": 6201,
      "Ready": 6202,
      "multiple": 6203,
      "Stay": 6204,
      "leader": 6205,
      "contribute": 6206,
      "Unakku": 6207,
      "ddle": 6208,
      "ixed": 6209,
      "siruthai": 6210,
      "evaluation": 6211,
      "Slowly": 6212,
      "pitch": 6213,
      "woow": 6214,
      "normali": 6215,
      "receive": 6216,
      "siddiqui": 6217,
      "karumam": 6218,
      "After": 6219,
      "nadandhu": 6220,
      "solrathukune": 6221,
      "Content": 6222,
      "disappointed": 6223,
      "wisdom": 6224,
      "select": 6225,
      "similar": 6226,
      "chapter": 6227,
      "discuss": 6228,
      "paththaathu": 6229,
      "nadippin": 6230,
      "significance": 6231,
      "Budget": 6232,
      "Metro": 6233,
      "january": 6234,
      "separate": 6235,
      "necessary": 6236,
      "sambhavam": 6237,
      "Armstrong": 6238,
      "Festival": 6239,
      "Tesla": 6240,
      "Today": 6241,
      "Virtual": 6242,
      "varareda": 6243,
      "fessional": 6244,
      "yesterday": 6245,
      "'!\"": 6246,
      "17": 6247,
      "10k": 6248,
      "20k": 6249,
      "200k": 6250,
      "26k": 6251,
      "39k": 6252,
      "92k": 6253,
      "AG": 6254,
      "Ada": 6255,
      "Att": 6256,
      "Ani": 6257,
      "By": 6258,
      "Beach": 6259,
      "Bhara": 6260,
      "Cy": 6261,
      "Chat": 6262,
      "City": 6263,
      "Day": 6264,
      "Did": 6265,
      "EMI": 6266,
      "Five": 6267,
      "Git": 6268,
      "Hu": 6269,
      "Hea": 6270,
      "IS": 6271,
      "If": 6272,
      "Kan": 6273,
      "Lab": 6274,
      "Maran": 6275,
      "Non": 6276,
      "Ok": 6277,
      "Pet": 6278,
      "Port": 6279,
      "Ram": 6280,
      "Ris": 6281,
      "Respe": 6282,
      "Running": 6283,
      "Sil": 6284,
      "Sing": 6285,
      "Sto": 6286,
      "Sai": 6287,
      "Sweet": 6288,
      "Smile": 6289,
      "Side": 6290,
      "Space": 6291,
      "Schedu": 6292,
      "Sollu": 6293,
      "Ta": 6294,
      "Tho": 6295,
      "Talk": 6296,
      "Twitter": 6297,
      "Vali": 6298,
      "Wa": 6299,
      "Who": 6300,
      "Yen": 6301,
      "aen": 6302,
      "ayu": 6303,
      "ago": 6304,
      "adai": 6305,
      "athana": 6306,
      "aganum": 6307,
      "bri": 6308,
      "bah": 6309,
      "bba": 6310,
      "bill": 6311,
      "bbaa": 6312,
      "cl": 6313,
      "cook": 6314,
      "cream": 6315,
      "cvf": 6316,
      "catch": 6317,
      "ega": 6318,
      "ess": 6319,
      "eval": 6320,
      "eur": 6321,
      "efficiency": 6322,
      "fam": 6323,
      "fee": 6324,
      "flow": 6325,
      "fits": 6326,
      "gla": 6327,
      "gel": 6328,
      "garu": 6329,
      "gment": 6330,
      "hn": 6331,
      "hin": 6332,
      "ii": 6333,
      "ik": 6334,
      "idh": 6335,
      "ikka": 6336,
      "iye": 6337,
      "idhan": 6338,
      "kor": 6339,
      "khu": 6340,
      "kkara": 6341,
      "lle": 6342,
      "lood": 6343,
      "loose": 6344,
      "lunch": 6345,
      "mit": 6346,
      "normal": 6347,
      "oka": 6348,
      "oor": 6349,
      "ote": 6350,
      "okka": 6351,
      "pha": 6352,
      "pwo": 6353,
      "pengal": 6354,
      "rku": 6355,
      "sthi": 6356,
      "sent": 6357,
      "swee": 6358,
      "sses": 6359,
      "till": 6360,
      "twi": 6361,
      "ura": 6362,
      "ual": 6363,
      "ups": 6364,
      "udam": 6365,
      "vy": 6366,
      "ws": 6367,
      "xity": 6368,
      "yee": 6369,
      "yanna": 6370,
      "thla": 6371,
      "thook": 6372,
      "though": 6373,
      "lae": 6374,
      "laan": 6375,
      "ere": 6376,
      "erum": 6377,
      "erunthu": 6378,
      "ines": 6379,
      "inai": 6380,
      "instant": 6381,
      "inorthara": 6382,
      "information": 6383,
      "infrastructure": 6384,
      "ark": 6385,
      "army": 6386,
      "daan": 6387,
      "dated": 6388,
      "daugh": 6389,
      "enum": 6390,
      "enamo": 6391,
      "environment": 6392,
      "mada": 6393,
      "mama": 6394,
      "mail": 6395,
      "maya": 6396,
      "mage": 6397,
      "matta": 6398,
      "matri": 6399,
      "nati": 6400,
      "nacks": 6401,
      "thaala": 6402,
      "thamil": 6403,
      "thappu": 6404,
      "thavangala": 6405,
      "thakida": 6406,
      "gain": 6407,
      "gale": 6408,
      "radi": 6409,
      "rasana": 6410,
      "ruva": 6411,
      "runu": 6412,
      "ruven": 6413,
      "rukkum": 6414,
      "pause": 6415,
      "pakala": 6416,
      "papen": 6417,
      "kuu": 6418,
      "kuraru": 6419,
      "onga": 6420,
      "kaaran": 6421,
      "lip": 6422,
      "lication": 6423,
      "dich": 6424,
      "dive": 6425,
      "diversity": 6426,
      "illu": 6427,
      "panala": 6428,
      "panranga": 6429,
      "panraru": 6430,
      "kekum": 6431,
      "kets": 6432,
      "stability": 6433,
      "rean": 6434,
      "regi": 6435,
      "results": 6436,
      "thalada": 6437,
      "thalayum": 6438,
      "vaither": 6439,
      "poit": 6440,
      "pool": 6441,
      "porum": 6442,
      "leh": 6443,
      "leve": 6444,
      "thuten": 6445,
      "vizh": 6446,
      "yaen": 6447,
      "yakumari": 6448,
      "iruppa": 6449,
      "ello": 6450,
      "ings": 6451,
      "hack": 6452,
      "ummaa": 6453,
      "itan": 6454,
      "sela": 6455,
      "session": 6456,
      "undha": 6457,
      "round": 6458,
      "ambedkar": 6459,
      "tist": 6460,
      "tize": 6461,
      "chin": 6462,
      "chee": 6463,
      "ord": 6464,
      "mein": 6465,
      "veral": 6466,
      "veriya": 6467,
      "verila": 6468,
      "versar": 6469,
      "siya": 6470,
      "sible": 6471,
      "vant": 6472,
      "vanna": 6473,
      "vanuga": 6474,
      "suthu": 6475,
      "supp": 6476,
      "oomb": 6477,
      "vedha": 6478,
      "mothi": 6479,
      "wala": 6480,
      "watha": 6481,
      "vartha": 6482,
      "aale": 6483,
      "aaha": 6484,
      "aasa": 6485,
      "thiran": 6486,
      "rich": 6487,
      "lose": 6488,
      "lover": 6489,
      "logo": 6490,
      "logging": 6491,
      "perum": 6492,
      "ennapa": 6493,
      "tele": 6494,
      "anama": 6495,
      "orutha": 6496,
      "irukar": 6497,
      "irukkar": 6498,
      "sheep": 6499,
      "olunga": 6500,
      "gud": 6501,
      "guthu": 6502,
      "trailere": 6503,
      "mariya": 6504,
      "says": 6505,
      "sapida": 6506,
      "taanga": 6507,
      "bathy": 6508,
      "bust": 6509,
      "pear": 6510,
      "pettaa": 6511,
      "getic": 6512,
      "padai": 6513,
      "padathoda": 6514,
      "kkalam": 6515,
      "illayo": 6516,
      "illaamal": 6517,
      "supera": 6518,
      "supervised": 6519,
      "beside": 6520,
      "rajan": 6521,
      "engaa": 6522,
      "lyca": 6523,
      "dhada": 6524,
      "dhavan": 6525,
      "novel": 6526,
      "irukuravanga": 6527,
      "parents": 6528,
      "parrak": 6529,
      "partici": 6530,
      "igil": 6531,
      "paathe": 6532,
      "paakum": 6533,
      "puraj": 6534,
      "pular": 6535,
      "force": 6536,
      "format": 6537,
      "padamum": 6538,
      "solld": 6539,
      "yevan": 6540,
      "irka": 6541,
      "irkum": 6542,
      "pannuvanga": 6543,
      "apps": 6544,
      "appidi": 6545,
      "kanda": 6546,
      "venuma": 6547,
      "thalaivaroda": 6548,
      "pros": 6549,
      "kotha": 6550,
      "neru": 6551,
      "nerunga": 6552,
      "waitingg": 6553,
      "asan": 6554,
      "ascin": 6555,
      "hite": 6556,
      "consistency": 6557,
      "kaath": 6558,
      "nim": 6559,
      "ippdi": 6560,
      "irunduchu": 6561,
      "mudium": 6562,
      "konja": 6563,
      "kili": 6564,
      "kiss": 6565,
      "endru": 6566,
      "endrum": 6567,
      "chitham": 6568,
      "plexity": 6569,
      "bothu": 6570,
      "mannan": 6571,
      "core": 6572,
      "maattai": 6573,
      "exper": 6574,
      "nallave": 6575,
      "discip": 6576,
      "podanum": 6577,
      "advo": 6578,
      "quote": 6579,
      "faction": 6580,
      "fulness": 6581,
      "Nature": 6582,
      "Natural": 6583,
      "ower": 6584,
      "vaasam": 6585,
      "trilar": 6586,
      "illanu": 6587,
      "eduku": 6588,
      "edukku": 6589,
      "edukren": 6590,
      "eduthingala": 6591,
      "accident": 6592,
      "adich": 6593,
      "mattume": 6594,
      "bias": 6595,
      "eruk": 6596,
      "erukan": 6597,
      "erukinge": 6598,
      "yoli": 6599,
      "yogi": 6600,
      "gotha": 6601,
      "iteenga": 6602,
      "Inga": 6603,
      "Input": 6604,
      "vallu": 6605,
      "herova": 6606,
      "vukku": 6607,
      "vote": 6608,
      "ppen": 6609,
      "ppavum": 6610,
      "pression": 6611,
      "maariye": 6612,
      "vaiku": 6613,
      "paathale": 6614,
      "Devel": 6615,
      "vidamaa": 6616,
      "planned": 6617,
      "saaga": 6618,
      "john": 6619,
      "Neu": 6620,
      "ungge": 6621,
      "nadakuthu": 6622,
      "irukumnu": 6623,
      "pathale": 6624,
      "pathavaga": 6625,
      "vjmaa": 6626,
      "yaarukellam": 6627,
      "corn": 6628,
      "vayasana": 6629,
      "thanai": 6630,
      "diwaliku": 6631,
      "Regu": 6632,
      "Regre": 6633,
      "supr": 6634,
      "paduthuring": 6635,
      "comes": 6636,
      "avanu": 6637,
      "irunthaalum": 6638,
      "sumara": 6639,
      "evanavathu": 6640,
      "sariyana": 6641,
      "cycle": 6642,
      "kolandha": 6643,
      "simply": 6644,
      "nerkondaparvai": 6645,
      "cinematography": 6646,
      "aurant": 6647,
      "pray": 6648,
      "theriyuthu": 6649,
      "translation": 6650,
      "booking": 6651,
      "maira": 6652,
      "manager": 6653,
      "diyathu": 6654,
      "videos": 6655,
      "vidrom": 6656,
      "energetic": 6657,
      "poguthe": 6658,
      "aagadhu": 6659,
      "Exc": 6660,
      "aduchu": 6661,
      "etc": 6662,
      "limits": 6663,
      "sonnathu": 6664,
      "irukkiya": 6665,
      "soldren": 6666,
      "Travel": 6667,
      "carry": 6668,
      "classic": 6669,
      "pannittu": 6670,
      "emotional": 6671,
      "List": 6672,
      "pottavanga": 6673,
      "darshan": 6674,
      "pakravanga": 6675,
      "Context": 6676,
      "odiru": 6677,
      "yosikira": 6678,
      "Diwali": 6679,
      "roles": 6680,
      "baad": 6681,
      "dont": 6682,
      "rinath": 6683,
      "Stress": 6684,
      "Street": 6685,
      "badly": 6686,
      "thumbnail": 6687,
      "perature": 6688,
      "Back": 6689,
      "anilu": 6690,
      "brilli": 6691,
      "kunjunga": 6692,
      "younger": 6693,
      "visuals": 6694,
      "Positive": 6695,
      "yaralayum": 6696,
      "sinthi": 6697,
      "saaptu": 6698,
      "Sustainable": 6699,
      "agudhu": 6700,
      "talks": 6701,
      "actors": 6702,
      "ninaikiravanga": 6703,
      "onnume": 6704,
      "kelavan": 6705,
      "Web": 6706,
      "parthutu": 6707,
      "singam": 6708,
      "katura": 6709,
      "confident": 6710,
      "exciting": 6711,
      "confirmed": 6712,
      "seriously": 6713,
      "malayali": 6714,
      "temp": 6715,
      "techni": 6716,
      "laws": 6717,
      "engineering": 6718,
      "naalaiku": 6719,
      "varikum": 6720,
      "clearly": 6721,
      "notes": 6722,
      "kidaiyathu": 6723,
      "Interesting": 6724,
      "Network": 6725,
      "Practice": 6726,
      "edit": 6727,
      "Quest": 6728,
      "pakurathu": 6729,
      "seconds": 6730,
      "Hot": 6731,
      "Hope": 6732,
      "vaangi": 6733,
      "vitruven": 6734,
      "charge": 6735,
      "azhagum": 6736,
      "killing": 6737,
      "laughter": 6738,
      "pattaya": 6739,
      "vadivelu": 6740,
      "Android": 6741,
      "preneur": 6742,
      "dekhne": 6743,
      "takkar": 6744,
      "takkaru": 6745,
      "negative": 6746,
      "headphone": 6747,
      "Honesty": 6748,
      "kadaisiya": 6749,
      "Feel": 6750,
      "promising": 6751,
      "regulation": 6752,
      "Medical": 6753,
      "ghatiya": 6754,
      "kaadhali": 6755,
      "traditional": 6756,
      "Accountability": 6757,
      "fresh": 6758,
      "score": 6759,
      "reminds": 6760,
      "definitely": 6761,
      "dailog": 6762,
      "religi": 6763,
      "valuable": 6764,
      "porunthum": 6765,
      "shivaji": 6766,
      "sathyama": 6767,
      "Technical": 6768,
      "ezhu": 6769,
      "intense": 6770,
      "payyan": 6771,
      "scheme": 6772,
      "pappom": 6773,
      "Genuine": 6774,
      "strict": 6775,
      "tonight": 6776,
      "treasure": 6777,
      "General": 6778,
      "creator": 6779,
      "xibility": 6780,
      "dekho": 6781,
      "automa": 6782,
      "pangaligala": 6783,
      "Specific": 6784,
      "benefit": 6785,
      "hostel": 6786,
      "consciousness": 6787,
      "opportunity": 6788,
      "paruthiveeran": 6789,
      "mahala": 6790,
      "potential": 6791,
      "virupu": 6792,
      "satisfaction": 6793,
      "announcement": 6794,
      "Group": 6795,
      "violence": 6796,
      "vijaya": 6797,
      "mukkiyam": 6798,
      "pannuveengaa": 6799,
      "Human": 6800,
      "disaster": 6801,
      "ahead": 6802,
      "padaiyappa": 6803,
      "grateful": 6804,
      "marubadiyum": 6805,
      "principles": 6806,
      "Idli": 6807,
      "Screen": 6808,
      "tutorial": 6809,
      "mujhe": 6810,
      "Engineering": 6811,
      "barrassing": 6812,
      "Maranthuten": 6813,
      "Risk": 6814,
      "Respect": 6815,
      "Those": 6816,
      "famous": 6817,
      "pwoli": 6818,
      "daughter": 6819,
      "vaithericha": 6820,
      "versary": 6821,
      "14k": 6822,
      "150k": 6823,
      "43k": 6824,
      "51k": 6825,
      "56k": 6826,
      "91k": 6827,
      "Cli": 6828,
      "Crea": 6829,
      "Chi": 6830,
      "Culture": 6831,
      "Critical": 6832,
      "Cloud": 6833,
      "Casual": 6834,
      "DA": 6835,
      "Dee": 6836,
      "Dark": 6837,
      "Ess": 6838,
      "Formal": 6839,
      "Gre": 6840,
      "Green": 6841,
      "Hy": 6842,
      "Hab": 6843,
      "Hindi": 6844,
      "Hear": 6845,
      "House": 6846,
      "Ker": 6847,
      "Kit": 6848,
      "Kodai": 6849,
      "Luck": 6850,
      "MO": 6851,
      "Mic": 6852,
      "NE": 6853,
      "NN": 6854,
      "Nor": 6855,
      "Namma": 6856,
      "Nalla": 6857,
      "Occasional": 6858,
      "PC": 6859,
      "Pu": 6860,
      "Power": 6861,
      "RO": 6862,
      "RR": 6863,
      "Raj": 6864,
      "Si": 6865,
      "Sam": 6866,
      "Sad": 6867,
      "Sala": 6868,
      "Shi": 6869,
      "Skill": 6870,
      "Ther": 6871,
      "Twent": 6872,
      "UX": 6873,
      "Wi": 6874,
      "Yo": 6875,
      "Zero": 6876,
      "aara": 6877,
      "avu": 6878,
      "akash": 6879,
      "ahaa": 6880,
      "apuram": 6881,
      "bru": 6882,
      "cg": 6883,
      "cru": 6884,
      "cou": 6885,
      "cket": 6886,
      "critical": 6887,
      "ddu": 6888,
      "ego": 6889,
      "ethula": 6890,
      "fru": 6891,
      "gana": 6892,
      "gini": 6893,
      "gine": 6894,
      "hind": 6895,
      "ivanga": 6896,
      "idhe": 6897,
      "isai": 6898,
      "kro": 6899,
      "lga": 6900,
      "llu": 6901,
      "lanu": 6902,
      "mand": 6903,
      "manga": 6904,
      "mir": 6905,
      "mgr": 6906,
      "nance": 6907,
      "ode": 6908,
      "overa": 6909,
      "penga": 6910,
      "pip": 6911,
      "ptions": 6912,
      "ppom": 6913,
      "rl": 6914,
      "ron": 6915,
      "ranu": 6916,
      "rhi": 6917,
      "ritual": 6918,
      "sang": 6919,
      "source": 6920,
      "schedu": 6921,
      "sports": 6922,
      "tara": 6923,
      "tcha": 6924,
      "took": 6925,
      "tringa": 6926,
      "ude": 6927,
      "vn": 6928,
      "venga": 6929,
      "wn": 6930,
      "wers": 6931,
      "wind": 6932,
      "yn": 6933,
      "yila": 6934,
      "yennada": 6935,
      "yeppavum": 6936,
      "yyayayaya": 6937,
      "yond": 6938,
      "zone": 6939,
      "zim": 6940,
      "ano": 6941,
      "angu": 6942,
      "thellam": 6943,
      "thlai": 6944,
      "lal": 6945,
      "laum": 6946,
      "labo": 6947,
      "laiyum": 6948,
      "erry": 6949,
      "ins": 6950,
      "inno": 6951,
      "inthe": 6952,
      "inue": 6953,
      "dae": 6954,
      "dah": 6955,
      "david": 6956,
      "endh": 6957,
      "enta": 6958,
      "enjo": 6959,
      "maj": 6960,
      "mathu": 6961,
      "thay": 6962,
      "thaya": 6963,
      "thatt": 6964,
      "thatra": 6965,
      "thalum": 6966,
      "thaiyum": 6967,
      "gai": 6968,
      "gay": 6969,
      "gaand": 6970,
      "gaye": 6971,
      "rad": 6972,
      "rase": 6973,
      "rahi": 6974,
      "racy": 6975,
      "rukaru": 6976,
      "ruparu": 6977,
      "rules": 6978,
      "pam": 6979,
      "paiy": 6980,
      "payam": 6981,
      "patti": 6982,
      "pahh": 6983,
      "kadi": 6984,
      "kale": 6985,
      "kappa": 6986,
      "kaluku": 6987,
      "kasta": 6988,
      "kaappa": 6989,
      "kaami": 6990,
      "library": 6991,
      "dio": 6992,
      "dication": 6993,
      "pantra": 6994,
      "panlama": 6995,
      "panrenga": 6996,
      "kedu": 6997,
      "kekku": 6998,
      "keys": 6999,
      "stam": 7000,
      "rem": 7001,
      "reviews": 7002,
      "result": 7003,
      "repair": 7004,
      "repreneur": 7005,
      "vas": 7006,
      "vame": 7007,
      "vadu": 7008,
      "valo": 7009,
      "vaaru": 7010,
      "vable": 7011,
      "vagga": 7012,
      "vazhi": 7013,
      "poe": 7014,
      "polam": 7015,
      "pogi": 7016,
      "poita": 7017,
      "poolu": 7018,
      "popular": 7019,
      "leya": 7020,
      "lease": 7021,
      "thuka": 7022,
      "thuringa": 7023,
      "thuppa": 7024,
      "vita": 7025,
      "vick": 7026,
      "vijai": 7027,
      "vikaram": 7028,
      "yah": 7029,
      "yatha": 7030,
      "yadhu": 7031,
      "yalam": 7032,
      "yachum": 7033,
      "eline": 7034,
      "eluntha": 7035,
      "hasan": 7036,
      "umb": 7037,
      "iten": 7038,
      "itna": 7039,
      "itself": 7040,
      "sea": 7041,
      "sei": 7042,
      "sector": 7043,
      "seiyanum": 7044,
      "unk": 7045,
      "ungu": 7046,
      "unding": 7047,
      "unbelie": 7048,
      "roo": 7049,
      "ambit": 7050,
      "tir": 7051,
      "tiye": 7052,
      "timent": 7053,
      "chana": 7054,
      "chand": 7055,
      "chill": 7056,
      "chunu": 7057,
      "china": 7058,
      "ordin": 7059,
      "allam": 7060,
      "memb": 7061,
      "measure": 7062,
      "suu": 7063,
      "sura": 7064,
      "such": 7065,
      "susp": 7066,
      "sugar": 7067,
      "sudeep": 7068,
      "sustainable": 7069,
      "veda": 7070,
      "veinga": 7071,
      "vestor": 7072,
      "mom": 7073,
      "motha": 7074,
      "modhi": 7075,
      "mohan": 7076,
      "wale": 7077,
      "wasa": 7078,
      "wating": 7079,
      "dup": 7080,
      "duke": 7081,
      "duction": 7082,
      "duvom": 7083,
      "during": 7084,
      "varthu": 7085,
      "varanu": 7086,
      "aaj": 7087,
      "aavi": 7088,
      "aattam": 7089,
      "thii": 7090,
      "rify": 7091,
      "loyal": 7092,
      "panne": 7093,
      "panniru": 7094,
      "ennappa": 7095,
      "anation": 7096,
      "detail": 7097,
      "detox": 7098,
      "decoding": 7099,
      "dedication": 7100,
      "thalaiyoda": 7101,
      "shit": 7102,
      "shion": 7103,
      "shut": 7104,
      "shif": 7105,
      "fansu": 7106,
      "maranna": 7107,
      "sat": 7108,
      "savu": 7109,
      "sapp": 7110,
      "savunga": 7111,
      "tali": 7112,
      "bag": 7113,
      "bai": 7114,
      "bap": 7115,
      "bass": 7116,
      "badh": 7117,
      "badu": 7118,
      "bato": 7119,
      "baby": 7120,
      "baira": 7121,
      "backup": 7122,
      "andom": 7123,
      "bula": 7124,
      "pethu": 7125,
      "pearu": 7126,
      "peyar": 7127,
      "padathe": 7128,
      "entrepreneur": 7129,
      "kkave": 7130,
      "illam": 7131,
      "illatha": 7132,
      "mulu": 7133,
      "mukiya": 7134,
      "murugan": 7135,
      "pannaanga": 7136,
      "kare": 7137,
      "rajin": 7138,
      "dhal": 7139,
      "noon": 7140,
      "broad": 7141,
      "irukumo": 7142,
      "eppaa": 7143,
      "paran": 7144,
      "parra": 7145,
      "parent": 7146,
      "romm": 7147,
      "rendum": 7148,
      "paapa": 7149,
      "paakar": 7150,
      "puli": 7151,
      "cknowledge": 7152,
      "sollama": 7153,
      "yethir": 7154,
      "sambar": 7155,
      "samrat": 7156,
      "sampavam": 7157,
      "iry": 7158,
      "isine": 7159,
      "jathi": 7160,
      "jaye": 7161,
      "thea": 7162,
      "their": 7163,
      "theory": 7164,
      "tern": 7165,
      "apt": 7166,
      "appan": 7167,
      "vangaa": 7168,
      "kanma": 7169,
      "kanal": 7170,
      "reality": 7171,
      "realistic": 7172,
      "soor": 7173,
      "soff": 7174,
      "chut": 7175,
      "venalum": 7176,
      "ranunga": 7177,
      "heritage": 7178,
      "rajiniya": 7179,
      "nerama": 7180,
      "asse": 7181,
      "asking": 7182,
      "conom": 7183,
      "constant": 7184,
      "consult": 7185,
      "kaalam": 7186,
      "ippe": 7187,
      "ipidi": 7188,
      "annaiku": 7189,
      "koot": 7190,
      "chal": 7191,
      "konj": 7192,
      "shah": 7193,
      "kid": 7194,
      "endar": 7195,
      "chicken": 7196,
      "bow": 7197,
      "mango": 7198,
      "padichen": 7199,
      "colate": 7200,
      "exe": 7201,
      "expl": 7202,
      "extension": 7203,
      "nallaa": 7204,
      "web": 7205,
      "bigg": 7206,
      "admi": 7207,
      "admin": 7208,
      "paththu": 7209,
      "pathingiru": 7210,
      "miga": 7211,
      "ithuvum": 7212,
      "varusa": 7213,
      "varuven": 7214,
      "pick": 7215,
      "pichi": 7216,
      "used": 7217,
      "sonnalum": 7218,
      "imbato": 7219,
      "scaling": 7220,
      "adiku": 7221,
      "adikanum": 7222,
      "skip": 7223,
      "ellai": 7224,
      "bili": 7225,
      "tamilrock": 7226,
      "erukkum": 7227,
      "erukinga": 7228,
      "polaa": 7229,
      "cuisine": 7230,
      "govt": 7231,
      "unak": 7232,
      "kite": 7233,
      "kitea": 7234,
      "aisa": 7235,
      "irukaaru": 7236,
      "yandi": 7237,
      "makeup": 7238,
      "july": 7239,
      "apdiya": 7240,
      "apdiyae": 7241,
      "nadikar": 7242,
      "nadichi": 7243,
      "nadigan": 7244,
      "nadigar": 7245,
      "paduthanum": 7246,
      "valga": 7247,
      "valka": 7248,
      "rajnified": 7249,
      "kumaru": 7250,
      "verithan": 7251,
      "dhanda": 7252,
      "nerayaa": 7253,
      "preference": 7254,
      "mudiyaadhu": 7255,
      "phical": 7256,
      "daaw": 7257,
      "upgra": 7258,
      "dog": 7259,
      "dosa": 7260,
      "Mag": 7261,
      "Make": 7262,
      "empathy": 7263,
      "Defin": 7264,
      "paaraa": 7265,
      "tickets": 7266,
      "vidalama": 7267,
      "vidamatten": 7268,
      "elling": 7269,
      "pathute": 7270,
      "chey": 7271,
      "nadakkum": 7272,
      "attam": 7273,
      "tention": 7274,
      "pathathu": 7275,
      "idhukku": 7276,
      "mere": 7277,
      "learned": 7278,
      "uron": 7279,
      "seekiram": 7280,
      "peruku": 7281,
      "yarru": 7282,
      "orutharmela": 7283,
      "kuduka": 7284,
      "vayasaa": 7285,
      "jii": 7286,
      "zhu": 7287,
      "diwalikku": 7288,
      "hands": 7289,
      "handling": 7290,
      "Repe": 7291,
      "ayioo": 7292,
      "ghter": 7293,
      "plat": 7294,
      "irruk": 7295,
      "irruken": 7296,
      "irrukaru": 7297,
      "poidum": 7298,
      "avanoda": 7299,
      "jey": 7300,
      "jeal": 7301,
      "mokkai": 7302,
      "irunthaa": 7303,
      "pudikala": 7304,
      "nanbi": 7305,
      "overload": 7306,
      "aagumnu": 7307,
      "thotta": 7308,
      "naaye": 7309,
      "sapta": 7310,
      "yaruku": 7311,
      "plss": 7312,
      "auth": 7313,
      "pakathana": 7314,
      "kalli": 7315,
      "102k": 7316,
      "anybody": 7317,
      "yaaro": 7318,
      "period": 7319,
      "sirappu": 7320,
      "Everyone": 7321,
      "vidya": 7322,
      "dheenga": 7323,
      "curry": 7324,
      "validation": 7325,
      "lightweight": 7326,
      "kamiya": 7327,
      "Words": 7328,
      "thirupi": 7329,
      "thiruttu": 7330,
      "Child": 7331,
      "Change": 7332,
      "versions": 7333,
      "rates": 7334,
      "Antha": 7335,
      "Annu": 7336,
      "Company": 7337,
      "Comparison": 7338,
      "pesuna": 7339,
      "hahahaha": 7340,
      "huge": 7341,
      "continue": 7342,
      "foundation": 7343,
      "vandhalum": 7344,
      "nina": 7345,
      "ninnu": 7346,
      "sides": 7347,
      "weights": 7348,
      "changed": 7349,
      "directly": 7350,
      "velayu": 7351,
      "sollra": 7352,
      "paruga": 7353,
      "kanavula": 7354,
      "darisanam": 7355,
      "Consistent": 7356,
      "theriyathu": 7357,
      "turday": 7358,
      "koduma": 7359,
      "smell": 7360,
      "vilundhu": 7361,
      "calls": 7362,
      "yosichu": 7363,
      "News": 7364,
      "Difficult": 7365,
      "lief": 7366,
      "baasha": 7367,
      "ctiona": 7368,
      "producer": 7369,
      "productivity": 7370,
      "2k19": 7371,
      "closing": 7372,
      "patience": 7373,
      "healthcare": 7374,
      "Stand": 7375,
      "maybe": 7376,
      "tokens": 7377,
      "senj": 7378,
      "triler": 7379,
      "yaralaa": 7380,
      "worthy": 7381,
      "deepawali": 7382,
      "krishna": 7383,
      "saapitta": 7384,
      "sridevi": 7385,
      "layea": 7386,
      "epovum": 7387,
      "pressed": 7388,
      "agumnu": 7389,
      "shock": 7390,
      "parakum": 7391,
      "manikku": 7392,
      "manithan": 7393,
      "belief": 7394,
      "weekends": 7395,
      "pakuringa": 7396,
      "unmaya": 7397,
      "katurathu": 7398,
      "excited": 7399,
      "vivews": 7400,
      "takes": 7401,
      "therinju": 7402,
      "connect": 7403,
      "connected": 7404,
      "Stars": 7405,
      "manusana": 7406,
      "aduthavangala": 7407,
      "munji": 7408,
      "engineer": 7409,
      "warden": 7410,
      "image": 7411,
      "imagine": 7412,
      "Market": 7413,
      "paakuravanga": 7414,
      "Practical": 7415,
      "bangalore": 7416,
      "avaruku": 7417,
      "mixed": 7418,
      "photography": 7419,
      "Price": 7420,
      "Session": 7421,
      "Learn": 7422,
      "Saturday": 7423,
      "bommai": 7424,
      "magical": 7425,
      "vaalthukkal": 7426,
      "purinji": 7427,
      "Complete": 7428,
      "Completely": 7429,
      "Growth": 7430,
      "science": 7431,
      "thalli": 7432,
      "thamizh": 7433,
      "visited": 7434,
      "jaasthi": 7435,
      "arasiya": 7436,
      "expensive": 7437,
      "crime": 7438,
      "crisis": 7439,
      "regula": 7440,
      "pollachi": 7441,
      "destination": 7442,
      "expected": 7443,
      "expectation": 7444,
      "paisa": 7445,
      "puthusa": 7446,
      "computing": 7447,
      "troll": 7448,
      "aayiduchu": 7449,
      "Boundaries": 7450,
      "freedom": 7451,
      "increasing": 7452,
      "kevalam": 7453,
      "points": 7454,
      "paduthathinga": 7455,
      "eduthukave": 7456,
      "inspire": 7457,
      "inspired": 7458,
      "inspiration": 7459,
      "values": 7460,
      "private": 7461,
      "Anywhere": 7462,
      "vandhinga": 7463,
      "thanush": 7464,
      "ilosophical": 7465,
      "Financial": 7466,
      "Road": 7467,
      "niyabagam": 7468,
      "print": 7469,
      "mugamudi": 7470,
      "mudinja": 7471,
      "mudinju": 7472,
      "document": 7473,
      "responsible": 7474,
      "Fresh": 7475,
      "aayega": 7476,
      "dedicate": 7477,
      "contribution": 7478,
      "pondatti": 7479,
      "yeppaa": 7480,
      "instance": 7481,
      "pakkuravanga": 7482,
      "pullingo": 7483,
      "Thinking": 7484,
      "Update": 7485,
      "equal": 7486,
      "holding": 7487,
      "democra": 7488,
      "irrundha": 7489,
      "eduthukuvanunga": 7490,
      "Product": 7491,
      "Respon": 7492,
      "global": 7493,
      "toxic": 7494,
      "negotiable": 7495,
      "government": 7496,
      "nenaikuravanga": 7497,
      "wonderful": 7498,
      "Useful": 7499,
      "jeeva": 7500,
      "wtf": 7501,
      "kusuvasam": 7502,
      "realise": 7503,
      "mistake": 7504,
      "Communication": 7505,
      "distribution": 7506,
      "entertainer": 7507,
      "guaranteed": 7508,
      "Getting": 7509,
      "IIT": 7510,
      "Philosophy": 7511,
      "Tried": 7512,
      "gentle": 7513,
      "sombu": 7514,
      "while": 7515,
      "machine": 7516,
      "kavalan": 7517,
      "akshara": 7518,
      "sollanumna": 7519,
      "Document": 7520,
      "sindhika": 7521,
      "Joy": 7522,
      "Organ": 7523,
      "Rural": 7524,
      "highest": 7525,
      "twice": 7526,
      "students": 7527,
      "revenge": 7528,
      "conveni": 7529,
      "tharumaru": 7530,
      "Emotional": 7531,
      "kshmi": 7532,
      "chinthamani": 7533,
      "congratulations": 7534,
      "AGI": 7535,
      "Didn": 7536,
      "GitHub": 7537,
      "Portfolio": 7538,
      "twist": 7539,
      "ascinating": 7540,
      "chithambaram": 7541,
      "discipline": 7542,
      "advocate": 7543,
      "Kodaikanal": 7544,
      "Lucky": 7545,
      "Salary": 7546,
      "Twenty": 7547,
      "pipeline": 7548,
      "zimmer": 7549,
      "kaappaan": 7550,
      "ordinary": 7551,
      "members": 7552,
      "details": 7553,
      "imbatore": 7554,
      "tamilrockers": 7555,
      "13k": 7556,
      "2point": 7557,
      "25k": 7558,
      "28k": 7559,
      "3m": 7560,
      "30k": 7561,
      "38k": 7562,
      "400k": 7563,
      "6m": 7564,
      "9m": 7565,
      "Apa": 7566,
      "Ali": 7567,
      "Avoid": 7568,
      "BI": 7569,
      "Bur": 7570,
      "Blue": 7571,
      "Batch": 7572,
      "CA": 7573,
      "Ca": 7574,
      "Cap": 7575,
      "Care": 7576,
      "Cricket": 7577,
      "Dest": 7578,
      "EL": 7579,
      "EV": 7580,
      "Ef": 7581,
      "Eppavum": 7582,
      "Fu": 7583,
      "Fil": 7584,
      "Feedback": 7585,
      "Fixed": 7586,
      "Grate": 7587,
      "Grand": 7588,
      "HR": 7589,
      "Ha": 7590,
      "Har": 7591,
      "Know": 7592,
      "Kollywood": 7593,
      "Lim": 7594,
      "Lay": 7595,
      "MB": 7596,
      "MS": 7597,
      "Mil": 7598,
      "Minima": 7599,
      "Nu": 7600,
      "Oo": 7601,
      "Ops": 7602,
      "PF": 7603,
      "Pop": 7604,
      "RI": 7605,
      "Red": 7606,
      "Random": 7607,
      "SD": 7608,
      "SL": 7609,
      "Stra": 7610,
      "Sup": 7611,
      "Sele": 7612,
      "Stop": 7613,
      "SIP": 7614,
      "Speak": 7615,
      "TF": 7616,
      "TR": 7617,
      "Tiru": 7618,
      "Trans": 7619,
      "Tele": 7620,
      "UFO": 7621,
      "Vai": 7622,
      "VID": 7623,
      "Warm": 7624,
      "Which": 7625,
      "Yenna": 7626,
      "az": 7627,
      "aanu": 7628,
      "aena": 7629,
      "avaa": 7630,
      "ayo": 7631,
      "athiru": 7632,
      "apart": 7633,
      "avangala": 7634,
      "adeii": 7635,
      "ben": 7636,
      "bol": 7637,
      "bye": 7638,
      "bis": 7639,
      "bold": 7640,
      "cre": 7641,
      "cat": 7642,
      "cgi": 7643,
      "dc": 7644,
      "dcast": 7645,
      "eli": 7646,
      "eya": 7647,
      "edha": 7648,
      "echa": 7649,
      "eties": 7650,
      "econom": 7651,
      "fc": 7652,
      "gor": 7653,
      "goo": 7654,
      "ggu": 7655,
      "gta": 7656,
      "gic": 7657,
      "garan": 7658,
      "hir": 7659,
      "hans": 7660,
      "iur": 7661,
      "jin": 7662,
      "jen": 7663,
      "kb": 7664,
      "ky": 7665,
      "kla": 7666,
      "koru": 7667,
      "kran": 7668,
      "ksha": 7669,
      "kiran": 7670,
      "lm": 7671,
      "lana": 7672,
      "land": 7673,
      "lord": 7674,
      "mella": 7675,
      "nya": 7676,
      "ndha": 7677,
      "oct": 7678,
      "otta": 7679,
      "ody": 7680,
      "oada": 7681,
      "odum": 7682,
      "ology": 7683,
      "ography": 7684,
      "odane": 7685,
      "occasional": 7686,
      "pil": 7687,
      "pillai": 7688,
      "phaa": 7689,
      "rthu": 7690,
      "sw": 7691,
      "sli": 7692,
      "ske": 7693,
      "soru": 7694,
      "sthalam": 7695,
      "srinath": 7696,
      "tah": 7697,
      "tvai": 7698,
      "tile": 7699,
      "uka": 7700,
      "uvan": 7701,
      "vr": 7702,
      "voo": 7703,
      "vsp": 7704,
      "vingala": 7705,
      "vdiya": 7706,
      "wig": 7707,
      "waram": 7708,
      "white": 7709,
      "y1": 7710,
      "yare": 7711,
      "yepdi": 7712,
      "yeppo": 7713,
      "anan": 7714,
      "anti": 7715,
      "thitu": 7716,
      "lakh": 7717,
      "error": 7718,
      "inoruthar": 7719,
      "inside": 7720,
      "intake": 7721,
      "influ": 7722,
      "investor": 7723,
      "ars": 7724,
      "arun": 7725,
      "arding": 7726,
      "artic": 7727,
      "dala": 7728,
      "dama": 7729,
      "daya": 7730,
      "enthu": 7731,
      "ended": 7732,
      "ented": 7733,
      "enkita": 7734,
      "enthiran": 7735,
      "map": 7736,
      "matra": 7737,
      "madhu": 7738,
      "mato": 7739,
      "mahe": 7740,
      "mazz": 7741,
      "nak": 7742,
      "natt": 7743,
      "natu": 7744,
      "nation": 7745,
      "nair": 7746,
      "naadi": 7747,
      "native": 7748,
      "thavara": 7749,
      "thagi": 7750,
      "thayoli": 7751,
      "galu": 7752,
      "ratu": 7753,
      "rahe": 7754,
      "pac": 7755,
      "papa": 7756,
      "pathan": 7757,
      "palla": 7758,
      "paul": 7759,
      "paki": 7760,
      "pakum": 7761,
      "pawali": 7762,
      "paahh": 7763,
      "kuma": 7764,
      "kuppa": 7765,
      "kudum": 7766,
      "kunga": 7767,
      "kudunga": 7768,
      "kaam": 7769,
      "kalan": 7770,
      "kalum": 7771,
      "kathinga": 7772,
      "kavathu": 7773,
      "kadhar": 7774,
      "kappan": 7775,
      "liku": 7776,
      "lium": 7777,
      "dikha": 7778,
      "difficult": 7779,
      "dirunu": 7780,
      "ilt": 7781,
      "pandi": 7782,
      "kea": 7783,
      "keku": 7784,
      "kett": 7785,
      "stle": 7786,
      "stun": 7787,
      "stal": 7788,
      "stom": 7789,
      "stood": 7790,
      "stitu": 7791,
      "rega": 7792,
      "remain": 7793,
      "reference": 7794,
      "reward": 7795,
      "repetition": 7796,
      "recent": 7797,
      "retire": 7798,
      "thalap": 7799,
      "thalafans": 7800,
      "thalavaa": 7801,
      "valla": 7802,
      "vaara": 7803,
      "vaiy": 7804,
      "vall": 7805,
      "vasee": 7806,
      "vatti": 7807,
      "vasaya": 7808,
      "vaera": 7809,
      "vacation": 7810,
      "poy": 7811,
      "poka": 7812,
      "poana": 7813,
      "poom": 7814,
      "pochi": 7815,
      "pooda": 7816,
      "potinga": 7817,
      "leak": 7818,
      "legal": 7819,
      "vibe": 7820,
      "vizha": 7821,
      "yaan": 7822,
      "yaman": 7823,
      "irudh": 7824,
      "irupen": 7825,
      "elu": 7826,
      "hater": 7827,
      "itaru": 7828,
      "itment": 7829,
      "seum": 7830,
      "sett": 7831,
      "seathu": 7832,
      "union": 7833,
      "untain": 7834,
      "uncertain": 7835,
      "ross": 7836,
      "rope": 7837,
      "roshan": 7838,
      "timel": 7839,
      "choo": 7840,
      "charan": 7841,
      "charm": 7842,
      "child": 7843,
      "childhood": 7844,
      "alent": 7845,
      "alty": 7846,
      "album": 7847,
      "likee": 7848,
      "meera": 7849,
      "megha": 7850,
      "verit": 7851,
      "versal": 7852,
      "simu": 7853,
      "sister": 7854,
      "vane": 7855,
      "vanthi": 7856,
      "vantu": 7857,
      "vanta": 7858,
      "sual": 7859,
      "suttu": 7860,
      "sukondi": 7861,
      "ooth": 7862,
      "ooting": 7863,
      "dhya": 7864,
      "vet": 7865,
      "vetha": 7866,
      "vesh": 7867,
      "vesukondi": 7868,
      "mov": 7869,
      "mosam": 7870,
      "mother": 7871,
      "modo": 7872,
      "wast": 7873,
      "duma": 7874,
      "dual": 7875,
      "duchi": 7876,
      "varunu": 7877,
      "trade": 7878,
      "traffic": 7879,
      "aadi": 7880,
      "aasu": 7881,
      "aakuthu": 7882,
      "aatam": 7883,
      "river": 7884,
      "loving": 7885,
      "lovers": 7886,
      "pannirukalam": 7887,
      "pannirukkom": 7888,
      "perfe": 7889,
      "periyar": 7890,
      "ennam": 7891,
      "ennala": 7892,
      "anat": 7893,
      "anada": 7894,
      "oruvan": 7895,
      "irukanu": 7896,
      "irukingala": 7897,
      "irukanuga": 7898,
      "tuff": 7899,
      "tups": 7900,
      "deva": 7901,
      "dece": 7902,
      "dekha": 7903,
      "shir": 7904,
      "fanss": 7905,
      "fanta": 7906,
      "trailler": 7907,
      "gut": 7908,
      "guide": 7909,
      "guilt": 7910,
      "trailerla": 7911,
      "trailerku": 7912,
      "ungaa": 7913,
      "marke": 7914,
      "samaa": 7915,
      "tax": 7916,
      "bath": 7917,
      "batch": 7918,
      "bur": 7919,
      "ommaa": 7920,
      "ged": 7921,
      "getta": 7922,
      "padath": 7923,
      "padame": 7924,
      "padamaa": 7925,
      "youth": 7926,
      "levelu": 7927,
      "entity": 7928,
      "illaa": 7929,
      "movieku": 7930,
      "superman": 7931,
      "superhero": 7932,
      "muru": 7933,
      "muthu": 7934,
      "muttu": 7935,
      "mutual": 7936,
      "museum": 7937,
      "pannalum": 7938,
      "kari": 7939,
      "kart": 7940,
      "kartik": 7941,
      "beyond": 7942,
      "kkunu": 7943,
      "thandi": 7944,
      "thanni": 7945,
      "nelama": 7946,
      "fansku": 7947,
      "dhaana": 7948,
      "Needs": 7949,
      "epd": 7950,
      "eppdi": 7951,
      "park": 7952,
      "parai": 7953,
      "paritha": 7954,
      "parpom": 7955,
      "parkuravanga": 7956,
      "paralle": 7957,
      "igma": 7958,
      "romance": 7959,
      "rench": 7960,
      "lur": 7961,
      "nutr": 7962,
      "forgetta": 7963,
      "ckers": 7964,
      "ckname": 7965,
      "padamna": 7966,
      "solunga": 7967,
      "sampl": 7968,
      "samjh": 7969,
      "irkaru": 7970,
      "isma": 7971,
      "waitting": 7972,
      "iyai": 7973,
      "theiva": 7974,
      "ternative": 7975,
      "apidi": 7976,
      "vangalam": 7977,
      "kanu": 7978,
      "compo": 7979,
      "common": 7980,
      "therla": 7981,
      "therithu": 7982,
      "veness": 7983,
      "arachi": 7984,
      "araliya": 7985,
      "loves": 7986,
      "rajinikant": 7987,
      "proper": 7988,
      "kosu": 7989,
      "korai": 7990,
      "komali": 7991,
      "hehe": 7992,
      "hoga": 7993,
      "holi": 7994,
      "conf": 7995,
      "conser": 7996,
      "concep": 7997,
      "kaaka": 7998,
      "kaatt": 7999,
      "nikku": 8000,
      "nikkuthu": 8001,
      "nickname": 8002,
      "above": 8003,
      "irukkumo": 8004,
      "irukkunu": 8005,
      "iyya": 8006,
      "timeless": 8007,
      "ipd": 8008,
      "ippidi": 8009,
      "ippudi": 8010,
      "irunth": 8011,
      "eswaram": 8012,
      "thaane": 8013,
      "visvasatha": 8014,
      "annai": 8015,
      "annamalai": 8016,
      "bgmm": 8017,
      "chada": 8018,
      "chasan": 8019,
      "konnu": 8020,
      "kithu": 8021,
      "endgame": 8022,
      "viewers": 8023,
      "bobby": 8024,
      "matte": 8025,
      "manent": 8026,
      "cover": 8027,
      "conair": 8028,
      "maathri": 8029,
      "expan": 8030,
      "external": 8031,
      "exactly": 8032,
      "nallathu": 8033,
      "weigh": 8034,
      "poddu": 8035,
      "podunka": 8036,
      "bigger": 8037,
      "bigboss": 8038,
      "adanga": 8039,
      "address": 8040,
      "dialoge": 8041,
      "thari": 8042,
      "bless": 8043,
      "pathen": 8044,
      "mium": 8045,
      "quer": 8046,
      "quant": 8047,
      "quali": 8048,
      "semaiya": 8049,
      "cision": 8050,
      "varuvom": 8051,
      "father": 8052,
      "fashion": 8053,
      "ator": 8054,
      "giving": 8055,
      "yude": 8056,
      "pakkava": 8057,
      "pakkathana": 8058,
      "pakkathula": 8059,
      "innoruthar": 8060,
      "karthic": 8061,
      "sics": 8062,
      "immedia": 8063,
      "vaali": 8064,
      "scary": 8065,
      "scale": 8066,
      "tym": 8067,
      "eduth": 8068,
      "kaipulla": 8069,
      "styla": 8070,
      "acy": 8071,
      "acti": 8072,
      "account": 8073,
      "accep": 8074,
      "accountability": 8075,
      "adii": 8076,
      "adipoli": 8077,
      "podungaa": 8078,
      "workplace": 8079,
      "akk": 8080,
      "irukkaen": 8081,
      "eruthu": 8082,
      "erukanum": 8083,
      "ilaiya": 8084,
      "bigilu": 8085,
      "cuit": 8086,
      "cution": 8087,
      "custom": 8088,
      "sethupati": 8089,
      "sethubathi": 8090,
      "options": 8091,
      "irukathu": 8092,
      "juz": 8093,
      "milest": 8094,
      "nadichu": 8095,
      "nadichuru": 8096,
      "nadikir": 8097,
      "Indu": 8098,
      "Instant": 8099,
      "pspk": 8100,
      "trendingla": 8101,
      "vudu": 8102,
      "vuthi": 8103,
      "kaithii": 8104,
      "kaithidiwali": 8105,
      "mudiyama": 8106,
      "angum": 8107,
      "mating": 8108,
      "matti": 8109,
      "fidence": 8110,
      "sern": 8111,
      "relevant": 8112,
      "thukudi": 8113,
      "empt": 8114,
      "Detail": 8115,
      "tically": 8116,
      "marandhu": 8117,
      "vidama": 8118,
      "saali": 8119,
      "saavan": 8120,
      "saavunga": 8121,
      "saapidu": 8122,
      "joshi": 8123,
      "wants": 8124,
      "kalaila": 8125,
      "kalathula": 8126,
      "checkup": 8127,
      "cheyandi": 8128,
      "smaller": 8129,
      "within": 8130,
      "ungry": 8131,
      "pannidu": 8132,
      "ates": 8133,
      "attempt": 8134,
      "tendul": 8135,
      "Alone": 8136,
      "pathaa": 8137,
      "sandai": 8138,
      "mervin": 8139,
      "spital": 8140,
      "perula": 8141,
      "yarunu": 8142,
      "mariye": 8143,
      "athuvum": 8144,
      "mathiriye": 8145,
      "kudukum": 8146,
      "therii": 8147,
      "therikudhu": 8148,
      "ingalaa": 8149,
      "Rela": 8150,
      "Relationship": 8151,
      "Retire": 8152,
      "panathinga": 8153,
      "awsome": 8154,
      "irrukanga": 8155,
      "poravan": 8156,
      "poramai": 8157,
      "avatar": 8158,
      "suppuraj": 8159,
      "paduthuriga": 8160,
      "irundhalum": 8161,
      "comedya": 8162,
      "avanum": 8163,
      "jective": 8164,
      "pudika": 8165,
      "pudichu": 8166,
      "summari": 8167,
      "subbu": 8168,
      "justice": 8169,
      "collea": 8170,
      "collabo": 8171,
      "thola": 8172,
      "thoong": 8173,
      "thosai": 8174,
      "aramana": 8175,
      "naale": 8176,
      "dailyum": 8177,
      "simon": 8178,
      "yaruda": 8179,
      "plants": 8180,
      "gaming": 8181,
      "eduthukida": 8182,
      "prabha": 8183,
      "practical": 8184,
      "pandren": 8185,
      "pandran": 8186,
      "paathuri": 8187,
      "offer": 8188,
      "vanthutu": 8189,
      "theriyudhu": 8190,
      "anytime": 8191,
      "anything": 8192,
      "afternoon": 8193,
      "reaming": 8194,
      "solravan": 8195,
      "perience": 8196,
      "sirapaana": 8197,
      "dera": 8198,
      "entist": 8199,
      "wise": 8200,
      "wick": 8201,
      "nambu": 8202,
      "samam": 8203,
      "samaya": 8204,
      "samajh": 8205,
      "gethuu": 8206,
      "clash": 8207,
      "irukkumnu": 8208,
      "weekly": 8209,
      "Worth": 8210,
      "sunni": 8211,
      "pooga": 8212,
      "Experience": 8213,
      "vayasuku": 8214,
      "breath": 8215,
      "ify": 8216,
      "aving": 8217,
      "ethum": 8218,
      "sollala": 8219,
      "Proud": 8220,
      "innai": 8221,
      "Beta": 8222,
      "raise": 8223,
      "ultimatestar": 8224,
      "found": 8225,
      "soldringa": 8226,
      "kirama": 8227,
      "Romantic": 8228,
      "penalty": 8229,
      "kadasila": 8230,
      "ngada": 8231,
      "rasika": 8232,
      "rasikar": 8233,
      "Live": 8234,
      "Loss": 8235,
      "agric": 8236,
      "astal": 8237,
      "velaiya": 8238,
      "eppovum": 8239,
      "kanakar": 8240,
      "saying": 8241,
      "problems": 8242,
      "adichukka": 8243,
      "Consistency": 8244,
      "Confidence": 8245,
      "goosebum": 8246,
      "kodukkura": 8247,
      "signs": 8248,
      "genuinely": 8249,
      "commitment": 8250,
      "answered": 8251,
      "valar": 8252,
      "buildup": 8253,
      "yosichen": 8254,
      "yira": 8255,
      "baat": 8256,
      "mavaney": 8257,
      "paakurathuku": 8258,
      "implement": 8259,
      "Share": 8260,
      "malaysians": 8261,
      "mrg": 8262,
      "narayan": 8263,
      "mayiru": 8264,
      "nenaikura": 8265,
      "worldwide": 8266,
      "Pati": 8267,
      "Pattern": 8268,
      "improvements": 8269,
      "Dog": 8270,
      "studi": 8271,
      "stuff": 8272,
      "porantha": 8273,
      "senju": 8274,
      "traru": 8275,
      "visuwasam": 8276,
      "purila": 8277,
      "puriyu": 8278,
      "Possible": 8279,
      "Podcast": 8280,
      "yaravathu": 8281,
      "yaravadhu": 8282,
      "kalichi": 8283,
      "depth": 8284,
      "maathiriye": 8285,
      "Coimbatore": 8286,
      "election": 8287,
      "veetla": 8288,
      "sindhana": 8289,
      "annante": 8290,
      "saapttu": 8291,
      "Arch": 8292,
      "diehard": 8293,
      "chancey": 8294,
      "ninaikiren": 8295,
      "silukku": 8296,
      "usual": 8297,
      "kelap": 8298,
      "kelattu": 8299,
      "tification": 8300,
      "heartbeat": 8301,
      "brave": 8302,
      "Friendly": 8303,
      "tharuviya": 8304,
      "logical": 8305,
      "parakka": 8306,
      "fails": 8307,
      "pullainga": 8308,
      "Mutual": 8309,
      "Murugan": 8310,
      "crossed": 8311,
      "bayandhu": 8312,
      "bayangarama": 8313,
      "steps": 8314,
      "vazhiya": 8315,
      "irandu": 8316,
      "nadakkadhu": 8317,
      "depends": 8318,
      "Part": 8319,
      "Party": 8320,
      "kadhal": 8321,
      "tests": 8322,
      "speaks": 8323,
      "attack": 8324,
      "ethavathu": 8325,
      "thrill": 8326,
      "alludhu": 8327,
      "theatrela": 8328,
      "Birthday": 8329,
      "restaurant": 8330,
      "subscriber": 8331,
      "subscription": 8332,
      "optimization": 8333,
      "naren": 8334,
      "irukkeenga": 8335,
      "kattum": 8336,
      "vanducha": 8337,
      "Tired": 8338,
      "events": 8339,
      "patthu": 8340,
      "paakuren": 8341,
      "paakuran": 8342,
      "Interview": 8343,
      "Forgive": 8344,
      "editor": 8345,
      "easily": 8346,
      "pinni": 8347,
      "repeated": 8348,
      "talaivaa": 8349,
      "allah": 8350,
      "clutter": 8351,
      "photos": 8352,
      "tingale": 8353,
      "ratchasan": 8354,
      "password": 8355,
      "subbraj": 8356,
      "bond": 8357,
      "manushana": 8358,
      "ulagam": 8359,
      "charisma": 8360,
      "azhagu": 8361,
      "crash": 8362,
      "vaalthukal": 8363,
      "seiyal": 8364,
      "pesna": 8365,
      "returns": 8366,
      "Team": 8367,
      "serupadi": 8368,
      "kaanom": 8369,
      "kaduppa": 8370,
      "kalyani": 8371,
      "protein": 8372,
      "tamili": 8373,
      "aarvama": 8374,
      "jaadhi": 8375,
      "objection": 8376,
      "legends": 8377,
      "jokes": 8378,
      "listening": 8379,
      "BGMI": 8380,
      "ngiru": 8381,
      "ovoru": 8382,
      "mammoo": 8383,
      "sumava": 8384,
      "oruthanum": 8385,
      "Ungaluku": 8386,
      "srilankan": 8387,
      "Vijay": 8388,
      "boost": 8389,
      "boomi": 8390,
      "flimsy": 8391,
      "shanker": 8392,
      "publish": 8393,
      "pudingi": 8394,
      "pudingiku": 8395,
      "concert": 8396,
      "kunjugal": 8397,
      "connections": 8398,
      "roadmap": 8399,
      "aayidu": 8400,
      "taught": 8401,
      "developing": 8402,
      "Public": 8403,
      "positive": 8404,
      "poirum": 8405,
      "oomba": 8406,
      "shoulder": 8407,
      "disappoint": 8408,
      "stocks": 8409,
      "reliable": 8410,
      "memorial": 8411,
      "enterprise": 8412,
      "lucky": 8413,
      "Anytime": 8414,
      "ilingual": 8415,
      "thungada": 8416,
      "irundhen": 8417,
      "asurathanam": 8418,
      "Final": 8419,
      "Unique": 8420,
      "cenima": 8421,
      "fucking": 8422,
      "vazthukal": 8423,
      "documents": 8424,
      "documentation": 8425,
      "Calcu": 8426,
      "Freedom": 8427,
      "Genuinely": 8428,
      "Voice": 8429,
      "asiga": 8430,
      "bsite": 8431,
      "blanket": 8432,
      "harvest": 8433,
      "walo": 8434,
      "walking": 8435,
      "palli": 8436,
      "irukiga": 8437,
      "appreciation": 8438,
      "vendiy": 8439,
      "Enakum": 8440,
      "uyira": 8441,
      "kelambu": 8442,
      "Classical": 8443,
      "concerns": 8444,
      "xiety": 8445,
      "shakthiman": 8446,
      "partnership": 8447,
      "Break": 8448,
      "Surprise": 8449,
      "benefits": 8450,
      "governance": 8451,
      "opportunities": 8452,
      "nenaikuren": 8453,
      "suggestions": 8454,
      "...": 8455,
      "Focus": 8456,
      "atatha": 8457,
      "flexibility": 8458,
      "jump": 8459,
      "peeta": 8460,
      "matiri": 8461,
      "nadinga": 8462,
      "settings": 8463,
      "organi": 8464,
      "thevaiyanatha": 8465,
      "guarantee": 8466,
      "Agree": 8467,
      "Actions": 8468,
      "PSC": 8469,
      "Study": 8470,
      "Student": 8471,
      "Windows": 8472,
      "masterpiece": 8473,
      "kudaathu": 8474,
      "delete": 8475,
      "maadiri": 8476,
      "ellarume": 8477,
      "Software": 8478,
      "Comedy": 8479,
      "Electric": 8480,
      "Playlist": 8481,
      "grimage": 8482,
      "around": 8483,
      "literature": 8484,
      "unmayana": 8485,
      "silience": 8486,
      "savings": 8487,
      "compliance": 8488,
      "podcasts": 8489,
      "distraction": 8490,
      "Journaling": 8491,
      "Prompt": 8492,
      "System": 8493,
      "orae": 8494,
      "anniversary": 8495,
      "pazhaya": 8496,
      "yammaadi": 8497,
      "setupati": 8498,
      "alert": 8499,
      "thevudiya": 8500,
      "consumption": 8501,
      "accessible": 8502,
      "accuracy": 8503,
      "DevOps": 8504,
      "corporate": 8505,
      "official": 8506,
      "continuous": 8507,
      "monitoring": 8508,
      "thairiyama": 8509,
      "Quick": 8510,
      "Private": 8511,
      "Attention": 8512,
      "ChatGPT": 8513,
      "ISRO": 8514,
      "Rameswaram": 8515,
      "Single": 8516,
      "Tax": 8517,
      "aendaa": 8518,
      "sentence": 8519,
      "thamilan": 8520,
      "ellorum": 8521,
      "participate": 8522,
      "solldravanga": 8523,
      "nimirn": 8524,
      "Regret": 8525,
      "Listen": 8526,
      "brilliant": 8527,
      "technique": 8528,
      "kaadhaliken": 8529,
      "tutorials": 8530,
      "Greedy": 8531,
      "Heart": 8532,
      "Kitchen": 8533,
      "Micro": 8534,
      "North": 8535,
      "crucial": 8536,
      "rls": 8537,
      "schedule": 8538,
      "endhiran": 8539,
      "enjoyed": 8540,
      "unbelievable": 8541,
      "ambition": 8542,
      "konjom": 8543,
      "explanation": 8544,
      "admire": 8545,
      "upgrade": 8546,
      "Definitely": 8547,
      "Repeat": 8548,
      "platform": 8549,
      "Annual": 8550,
      "Organic": 8551,
      "Filter": 8552,
      "Grateful": 8553,
      "Ooty": 8554,
      "Popcorn": 8555,
      "tvaivaal": 8556,
      "article": 8557,
      "mahesh": 8558,
      "poanaen": 8559,
      "modoro": 8560,
      "fantastic": 8561,
      "parallel": 8562,
      "nutrition": 8563,
      "forgettable": 8564,
      "sampling": 8565,
      "conservation": 8566,
      "concepts": 8567,
      "immediately": 8568,
      "Detailed": 8569,
      "tendulkar": 8570,
      "agriculture": 8571,
      "kodukkuraanunga": 8572,
      "16": 8573,
      "12k": 8574,
      "21": 8575,
      "21k": 8576,
      "250k": 8577,
      "300k": 8578,
      "32k": 8579,
      "45": 8580,
      "40k": 8581,
      "4days": 8582,
      "41k": 8583,
      "55k": 8584,
      "63": 8585,
      "600k": 8586,
      "77": 8587,
      "7m": 8588,
      "70k": 8589,
      "77k": 8590,
      "8m": 8591,
      "AS": 8592,
      "Ala": 8593,
      "Ana": 8594,
      "BP": 8595,
      "Bye": 8596,
      "Bas": 8597,
      "Bad": 8598,
      "Bright": 8599,
      "Boring": 8600,
      "Brain": 8601,
      "CU": 8602,
      "Cer": 8603,
      "Cha": 8604,
      "Cam": 8605,
      "Cri": 8606,
      "Cand": 8607,
      "Cook": 8608,
      "Cake": 8609,
      "Cultural": 8610,
      "Civi": 8611,
      "Du": 8612,
      "Done": 8613,
      "Dad": 8614,
      "Dance": 8615,
      "Eas": 8616,
      "Edge": 8617,
      "Epdi": 8618,
      "FD": 8619,
      "FI": 8620,
      "Fi": 8621,
      "Fol": 8622,
      "From": 8623,
      "Find": 8624,
      "Fish": 8625,
      "Flip": 8626,
      "French": 8627,
      "Gu": 8628,
      "Gra": 8629,
      "Great": 8630,
      "Gold": 8631,
      "Hor": 8632,
      "Has": 8633,
      "Hill": 8634,
      "Hungry": 8635,
      "Io": 8636,
      "Itha": 8637,
      "JS": 8638,
      "Ki": 8639,
      "Kum": 8640,
      "Kaa": 8641,
      "Key": 8642,
      "Knowledge": 8643,
      "Lar": 8644,
      "Lap": 8645,
      "Low": 8646,
      "Lite": 8647,
      "Later": 8648,
      "Mini": 8649,
      "Mani": 8650,
      "Mute": 8651,
      "NRI": 8652,
      "OC": 8653,
      "Op": 8654,
      "Paa": 8655,
      "Pay": 8656,
      "Pres": 8657,
      "Please": 8658,
      "RT": 8659,
      "Rah": 8660,
      "Rea": 8661,
      "RAM": 8662,
      "Rich": 8663,
      "Sit": 8664,
      "Sri": 8665,
      "Ste": 8666,
      "Send": 8667,
      "Set": 8668,
      "Seni": 8669,
      "Sports": 8670,
      "Snacks": 8671,
      "TS": 8672,
      "TV": 8673,
      "Treat": 8674,
      "Tree": 8675,
      "Tough": 8676,
      "Trip": 8677,
      "Testing": 8678,
      "UI": 8679,
      "US": 8680,
      "Ur": 8681,
      "UPSC": 8682,
      "VP": 8683,
      "Vana": 8684,
      "Villa": 8685,
      "Valent": 8686,
      "Wed": 8687,
      "Winter": 8688,
      "Wish": 8689,
      "ash": 8690,
      "awaiting": 8691,
      "adhaan": 8692,
      "athey": 8693,
      "abroad": 8694,
      "bn": 8695,
      "bor": 8696,
      "bbi": 8697,
      "bally": 8698,
      "bhu": 8699,
      "cant": 8700,
      "cala": 8701,
      "cali": 8702,
      "ctional": 8703,
      "clim": 8704,
      "cling": 8705,
      "crush": 8706,
      "cloud": 8707,
      "dla": 8708,
      "dru": 8709,
      "dana": 8710,
      "dye": 8711,
      "ew": 8712,
      "ese": 8713,
      "esh": 8714,
      "eilla": 8715,
      "epaa": 8716,
      "eanga": 8717,
      "etta": 8718,
      "evaru": 8719,
      "edhum": 8720,
      "evolo": 8721,
      "fill": 8722,
      "fume": 8723,
      "foot": 8724,
      "fascinating": 8725,
      "gil": 8726,
      "gol": 8727,
      "gone": 8728,
      "gni": 8729,
      "gend": 8730,
      "gant": 8731,
      "hs": 8732,
      "hood": 8733,
      "hill": 8734,
      "hmm": 8735,
      "ie": 8736,
      "ili": 8737,
      "ior": 8738,
      "ithi": 8739,
      "ipaa": 8740,
      "ivaa": 8741,
      "ivu": 8742,
      "igala": 8743,
      "ipudi": 8744,
      "irai": 8745,
      "jini": 8746,
      "jis": 8747,
      "jlee": 8748,
      "km": 8749,
      "kna": 8750,
      "kiru": 8751,
      "kkoo": 8752,
      "kken": 8753,
      "khi": 8754,
      "knight": 8755,
      "knew": 8756,
      "killer": 8757,
      "kkellam": 8758,
      "lg": 8759,
      "lli": 8760,
      "lena": 8761,
      "mst": 8762,
      "mba": 8763,
      "mig": 8764,
      "mith": 8765,
      "mention": 8766,
      "noo": 8767,
      "noru": 8768,
      "nxt": 8769,
      "nds": 8770,
      "oz": 8771,
      "oli": 8772,
      "oce": 8773,
      "ota": 8774,
      "oram": 8775,
      "otic": 8776,
      "odunga": 8777,
      "oduthu": 8778,
      "occa": 8779,
      "othun": 8780,
      "pilla": 8781,
      "pone": 8782,
      "priya": 8783,
      "rkinga": 8784,
      "ranuga": 8785,
      "sb": 8786,
      "sl": 8787,
      "spa": 8788,
      "sou": 8789,
      "smo": 8790,
      "sand": 8791,
      "send": 8792,
      "sour": 8793,
      "sund": 8794,
      "sell": 8795,
      "tm": 8796,
      "tiru": 8797,
      "told": 8798,
      "tmr": 8799,
      "tending": 8800,
      "titude": 8801,
      "tirunelveli": 8802,
      "taramana": 8803,
      "tilingual": 8804,
      "ux": 8805,
      "uri": 8806,
      "vda": 8807,
      "vent": 8808,
      "vvu": 8809,
      "wha": 8810,
      "winter": 8811,
      "whel": 8812,
      "xic": 8813,
      "yel": 8814,
      "yanu": 8815,
      "yrs": 8816,
      "yenakku": 8817,
      "yenada": 8818,
      "zu": 8819,
      "zan": 8820,
      "zar": 8821,
      "zoo": 8822,
      "zee": 8823,
      "кк": 8824,
      "annen": 8825,
      "anxiety": 8826,
      "thenga": 8827,
      "thong": 8828,
      "threat": 8829,
      "thiruntha": 8830,
      "thool": 8831,
      "lap": 8832,
      "lathu": 8833,
      "lame": 8834,
      "ladesh": 8835,
      "erate": 8836,
      "erruku": 8837,
      "invi": 8838,
      "intu": 8839,
      "inji": 8840,
      "inted": 8841,
      "infin": 8842,
      "indhe": 8843,
      "incident": 8844,
      "arama": 8845,
      "arter": 8846,
      "arunu": 8847,
      "artist": 8848,
      "dad": 8849,
      "datha": 8850,
      "dable": 8851,
      "enaa": 8852,
      "enanga": 8853,
      "maga": 8854,
      "mast": 8855,
      "male": 8856,
      "mater": 8857,
      "maara": 8858,
      "maza": 8859,
      "madura": 8860,
      "nah": 8861,
      "nava": 8862,
      "nattu": 8863,
      "natic": 8864,
      "nakkal": 8865,
      "naaga": 8866,
      "nagar": 8867,
      "nabagam": 8868,
      "natcha": 8869,
      "thava": 8870,
      "thagu": 8871,
      "gas": 8872,
      "gave": 8873,
      "galum": 8874,
      "raga": 8875,
      "rame": 8876,
      "raiya": 8877,
      "ragini": 8878,
      "rule": 8879,
      "ruken": 8880,
      "pae": 8881,
      "papan": 8882,
      "page": 8883,
      "padha": 8884,
      "payum": 8885,
      "pado": 8886,
      "pagal": 8887,
      "paste": 8888,
      "pakk": 8889,
      "padum": 8890,
      "packed": 8891,
      "kunu": 8892,
      "kumaa": 8893,
      "kuttu": 8894,
      "kudo": 8895,
      "kutho": 8896,
      "ony": 8897,
      "onda": 8898,
      "onna": 8899,
      "kah": 8900,
      "kaya": 8901,
      "kaun": 8902,
      "kame": 8903,
      "katru": 8904,
      "kapathu": 8905,
      "katit": 8906,
      "kathon": 8907,
      "kaalla": 8908,
      "kaandu": 8909,
      "kavuthi": 8910,
      "lize": 8911,
      "diss": 8912,
      "dichu": 8913,
      "ditional": 8914,
      "divide": 8915,
      "diet": 8916,
      "dipawali": 8917,
      "pangu": 8918,
      "panama": 8919,
      "panran": 8920,
      "pangam": 8921,
      "panies": 8922,
      "keh": 8923,
      "kek": 8924,
      "kella": 8925,
      "kekanum": 8926,
      "kekuthu": 8927,
      "keduthu": 8928,
      "kekra": 8929,
      "stan": 8930,
      "stel": 8931,
      "stable": 8932,
      "stunt": 8933,
      "rey": 8934,
      "rema": 8935,
      "revi": 8936,
      "resi": 8937,
      "rella": 8938,
      "retry": 8939,
      "resum": 8940,
      "retch": 8941,
      "restart": 8942,
      "redirect": 8943,
      "requi": 8944,
      "resem": 8945,
      "resolution": 8946,
      "reels": 8947,
      "recharge": 8948,
      "retention": 8949,
      "thalathan": 8950,
      "thaladan": 8951,
      "thalayoda": 8952,
      "thalabathy": 8953,
      "vah": 8954,
      "vairu": 8955,
      "vati": 8956,
      "vathi": 8957,
      "vage": 8958,
      "vadai": 8959,
      "vasan": 8960,
      "vational": 8961,
      "vazha": 8962,
      "poma": 8963,
      "podi": 8964,
      "potra": 8965,
      "poiya": 8966,
      "poven": 8967,
      "poara": 8968,
      "podaa": 8969,
      "povum": 8970,
      "pout": 8971,
      "potho": 8972,
      "pothathu": 8973,
      "poittu": 8974,
      "possibility": 8975,
      "lem": 8976,
      "letters": 8977,
      "leaving": 8978,
      "thule": 8979,
      "thukum": 8980,
      "thumea": 8981,
      "via": 8982,
      "vit": 8983,
      "vidhya": 8984,
      "yadu": 8985,
      "yamaa": 8986,
      "yathuku": 8987,
      "irup": 8988,
      "iruparu": 8989,
      "iruppen": 8990,
      "elance": 8991,
      "ingla": 8992,
      "hay": 8993,
      "haasan": 8994,
      "itanga": 8995,
      "seq": 8996,
      "sey": 8997,
      "seth": 8998,
      "seme": 8999,
      "setta": 9000,
      "undu": 9001,
      "unte": 9002,
      "unkala": 9003,
      "unmai": 9004,
      "unnar": 9005,
      "rome": 9006,
      "robust": 9007,
      "ssu": 9008,
      "ssor": 9009,
      "amir": 9010,
      "tick": 9011,
      "tight": 9012,
      "timate": 9013,
      "chor": 9014,
      "chenna": 9015,
      "chir": 9016,
      "chiy": 9017,
      "chine": 9018,
      "chella": 9019,
      "chiran": 9020,
      "chinda": 9021,
      "orge": 9022,
      "almost": 9023,
      "meme": 9024,
      "meta": 9025,
      "meant": 9026,
      "mezh": 9027,
      "meela": 9028,
      "memes": 9029,
      "verti": 9030,
      "verter": 9031,
      "vergin": 9032,
      "veriyana": 9033,
      "sithan": 9034,
      "sivaa": 9035,
      "sijlee": 9036,
      "vanam": 9037,
      "vanthen": 9038,
      "vantheenga": 9039,
      "suh": 9040,
      "sube": 9041,
      "sukran": 9042,
      "oott": 9043,
      "ooruku": 9044,
      "ttin": 9045,
      "dhillu": 9046,
      "veta": 9047,
      "vetta": 9048,
      "vecha": 9049,
      "moder": 9050,
      "moving": 9051,
      "waa": 9052,
      "wah": 9053,
      "wake": 9054,
      "dukka": 9055,
      "duvanga": 9056,
      "duty": 9057,
      "varar": 9058,
      "varma": 9059,
      "varun": 9060,
      "varthi": 9061,
      "vargal": 9062,
      "varalla": 9063,
      "aad": 9064,
      "aai": 9065,
      "aachum": 9066,
      "aakathu": 9067,
      "aavuthu": 9068,
      "thidirunu": 9069,
      "ris": 9070,
      "ride": 9071,
      "riyam": 9072,
      "lov": 9073,
      "loan": 9074,
      "logue": 9075,
      "lots": 9076,
      "loans": 9077,
      "lowed": 9078,
      "pannirukaru": 9079,
      "pannina": 9080,
      "pannunka": 9081,
      "pannirukkalam": 9082,
      "persistent": 9083,
      "massive": 9084,
      "ennagada": 9085,
      "tein": 9086,
      "teengala": 9087,
      "tears": 9088,
      "anala": 9089,
      "anatha": 9090,
      "oruth": 9091,
      "oruvaru": 9092,
      "orutar": 9093,
      "irukenga": 9094,
      "irukko": 9095,
      "irukkaa": 9096,
      "irukkena": 9097,
      "irukkey": 9098,
      "irukkara": 9099,
      "tuna": 9100,
      "tutu": 9101,
      "tucker": 9102,
      "dev": 9103,
      "dex": 9104,
      "dete": 9105,
      "deol": 9106,
      "desk": 9107,
      "devo": 9108,
      "dewali": 9109,
      "death": 9110,
      "decoder": 9111,
      "shine": 9112,
      "shback": 9113,
      "shwar": 9114,
      "shrad": 9115,
      "fancy": 9116,
      "gula": 9117,
      "gudhu": 9118,
      "trailerkku": 9119,
      "maram": 9120,
      "vella": 9121,
      "saam": 9122,
      "satta": 9123,
      "savadi": 9124,
      "sapuda": 9125,
      "sachin": 9126,
      "tava": 9127,
      "taking": 9128,
      "bac": 9129,
      "buthi": 9130,
      "pea": 9131,
      "pedi": 9132,
      "pesi": 9133,
      "pesum": 9134,
      "pesar": 9135,
      "omen": 9136,
      "gement": 9137,
      "dhura": 9138,
      "dhukku": 9139,
      "levels": 9140,
      "kkaa": 9141,
      "kkai": 9142,
      "kkama": 9143,
      "kkaka": 9144,
      "superpower": 9145,
      "mud": 9146,
      "mug": 9147,
      "mula": 9148,
      "mutha": 9149,
      "musi": 9150,
      "mudu": 9151,
      "mute": 9152,
      "mukki": 9153,
      "mutiya": 9154,
      "mudya": 9155,
      "tosai": 9156,
      "pannama": 9157,
      "karta": 9158,
      "karuppu": 9159,
      "beer": 9160,
      "rajkumar": 9161,
      "nethu": 9162,
      "nehi": 9163,
      "nejama": 9164,
      "neyabagam": 9165,
      "nov": 9166,
      "noise": 9167,
      "nokki": 9168,
      "bros": 9169,
      "brother": 9170,
      "irukuma": 9171,
      "irukudhu": 9172,
      "epidi": 9173,
      "eppothum": 9174,
      "pariy": 9175,
      "pared": 9176,
      "parcel": 9177,
      "parties": 9178,
      "ign": 9179,
      "paathuku": 9180,
      "paakkum": 9181,
      "paapen": 9182,
      "paathiya": 9183,
      "paakra": 9184,
      "paadalam": 9185,
      "puya": 9186,
      "puyal": 9187,
      "nukku": 9188,
      "formed": 9189,
      "angale": 9190,
      "inistic": 9191,
      "fective": 9192,
      "fessor": 9193,
      "solving": 9194,
      "solraru": 9195,
      "yetha": 9196,
      "yepa": 9197,
      "yeah": 9198,
      "yedhu": 9199,
      "yethum": 9200,
      "yevanum": 9201,
      "yedhuku": 9202,
      "amaa": 9203,
      "irri": 9204,
      "irkku": 9205,
      "irrit": 9206,
      "isal": 9207,
      "mmaa": 9208,
      "iyal": 9209,
      "ithm": 9210,
      "thalaivaar": 9211,
      "jail": 9212,
      "theer": 9213,
      "thevdiya": 9214,
      "pannugga": 9215,
      "terrace": 9216,
      "terika": 9217,
      "appada": 9218,
      "appu": 9219,
      "vangada": 9220,
      "kanyakumari": 9221,
      "arumai": 9222,
      "arumaiya": 9223,
      "neeyum": 9224,
      "competit": 9225,
      "companies": 9226,
      "soil": 9227,
      "soci": 9228,
      "starts": 9229,
      "theridhu": 9230,
      "chutiya": 9231,
      "anupi": 9232,
      "vention": 9233,
      "araja": 9234,
      "rank": 9235,
      "randa": 9236,
      "icate": 9237,
      "icism": 9238,
      "thalaivaruku": 9239,
      "proce": 9240,
      "professional": 9241,
      "enapa": 9242,
      "enagada": 9243,
      "koma": 9244,
      "kosam": 9245,
      "kotta": 9246,
      "kochada": 9247,
      "asinka": 9248,
      "heat": 9249,
      "heard": 9250,
      "heada": 9251,
      "ultra": 9252,
      "hotel": 9253,
      "hospital": 9254,
      "cond": 9255,
      "conut": 9256,
      "conversion": 9257,
      "conference": 9258,
      "kaapan": 9259,
      "kaatit": 9260,
      "nii": 9261,
      "nikka": 9262,
      "niriya": 9263,
      "iyu": 9264,
      "iyee": 9265,
      "ipti": 9266,
      "ipdina": 9267,
      "irungada": 9268,
      "ysr": 9269,
      "escala": 9270,
      "outing": 9271,
      "outside": 9272,
      "koop": 9273,
      "chata": 9274,
      "chathiram": 9275,
      "mudilaye": 9276,
      "kia": 9277,
      "kich": 9278,
      "kirom": 9279,
      "kick": 9280,
      "kidai": 9281,
      "kizh": 9282,
      "endra": 9283,
      "chipuram": 9284,
      "varadha": 9285,
      "varalaa": 9286,
      "bots": 9287,
      "boarding": 9288,
      "mattanga": 9289,
      "mandi": 9290,
      "padithi": 9291,
      "padicha": 9292,
      "copi": 9293,
      "coverage": 9294,
      "maatti": 9295,
      "maatan": 9296,
      "maadri": 9297,
      "maatum": 9298,
      "maadhri": 9299,
      "maatten": 9300,
      "export": 9301,
      "except": 9302,
      "exchange": 9303,
      "express": 9304,
      "expression": 9305,
      "ajithku": 9306,
      "website": 9307,
      "podungo": 9308,
      "hatsoff": 9309,
      "adenga": 9310,
      "adline": 9311,
      "adphone": 9312,
      "addict": 9313,
      "pathila": 9314,
      "unnai": 9315,
      "unnaku": 9316,
      "blessing": 9317,
      "paththathu": 9318,
      "mid": 9319,
      "mist": 9320,
      "middle": 9321,
      "guest": 9322,
      "cible": 9323,
      "varutha": 9324,
      "varuvan": 9325,
      "fabul": 9326,
      "ased": 9327,
      "lance": 9328,
      "pist": 9329,
      "piri": 9330,
      "gia": 9331,
      "alarm": 9332,
      "alapara": 9333,
      "owl": 9334,
      "impossible": 9335,
      "impress": 9336,
      "impressed": 9337,
      "vaaz": 9338,
      "vaada": 9339,
      "illon": 9340,
      "eduk": 9341,
      "actions": 9342,
      "activity": 9343,
      "acade": 9344,
      "ringaa": 9345,
      "lastic": 9346,
      "ellaa": 9347,
      "ellar": 9348,
      "eruken": 9349,
      "erukra": 9350,
      "polayae": 9351,
      "yoga": 9352,
      "yosinga": 9353,
      "nerathula": 9354,
      "cure": 9355,
      "cular": 9356,
      "cuddle": 9357,
      "gopi": 9358,
      "oppos": 9359,
      "kitna": 9360,
      "individu": 9361,
      "aid": 9362,
      "irukalaam": 9363,
      "stylea": 9364,
      "styleum": 9365,
      "kolaveri": 9366,
      "kolacase": 9367,
      "apdila": 9368,
      "undo": 9369,
      "unds": 9370,
      "item": 9371,
      "itect": 9372,
      "Insurance": 9373,
      "Independent": 9374,
      "heros": 9375,
      "vudane": 9376,
      "yentha": 9377,
      "yendha": 9378,
      "orey": 9379,
      "prep": 9380,
      "pressive": 9381,
      "previous": 9382,
      "preparation": 9383,
      "mudiyatha": 9384,
      "phon": 9385,
      "updated": 9386,
      "figu": 9387,
      "vaika": 9388,
      "vaikanum": 9389,
      "someday": 9390,
      "door": 9391,
      "emini": 9392,
      "embarrassing": 9393,
      "paathathum": 9394,
      "Demo": 9395,
      "Deadline": 9396,
      "marano": 9397,
      "maranthu": 9398,
      "vidalam": 9399,
      "vidamate": 9400,
      "cannot": 9401,
      "eadu": 9402,
      "kagavum": 9403,
      "sethupathikaga": 9404,
      "saaganum": 9405,
      "joker": 9406,
[...]
