{
  "version": "1.0",
  "truncation": null,
  "padding": null,
  "added_tokens": [
    {
      "id": 0,
      "content": "[START]",
      "single_word": false,
      "lstrip": false,
      "rstrip": false,
      "normalized": false,
      "special": true
    },
    {
      "id": 1,
      "content": "[END]",
      "single_word": false,
      "lstrip": false,
      "rstrip": false,
      "normalized": false,
      "special": true
    },
    {
      "id": 2,
      "content": "[PROMPT]",
      "single_word": false,
      "lstrip": false,
      "rstrip": false,
      "normalized": false,
      "special": true
    },
    {
      "id": 3,
      "content": "[AI]",
      "single_word": false,
      "lstrip": false,
      "rstrip": false,
      "normalized": false,
      "special": true
    },
    {
      "id": 4,
      "content": "[SEP]",
      "single_word": false,
      "lstrip": false,
      "rstrip": false,
      "normalized": false,
      "special": true
    },
    {
      "id": 5,
      "content": "[PAD]",
      "single_word": false,
      "lstrip": false,
      "rstrip": false,
      "normalized": false,
      "special": true
    },
    {
      "id": 6,
      "content": "[UNK]",
      "single_word": false,
      "lstrip": false,
      "rstrip": false,
      "normalized": false,
      "special": true
    }
  ],
  "normalizer": null,
  "pre_tokenizer": {
    "type": "Whitespace"
  },
  "post_processor": null,
  "decoder": null,
  "model": {
    "type": "BPE",
    "dropout": null,
    "unk_token": null,
    "continuing_subword_prefix": null,
    "end_of_word_suffix": null,
    "fuse_unk": false,
    "byte_fallback": false,
    "ignore_merges": false,
    "vocab": {
      "[START]": 0,
      "[END]": 1,
      "[PROMPT]": 2,
      "[AI]": 3,
      "[SEP]": 4,
      "[PAD]": 5,
      "[UNK]": 6,
      "!": 7,
      "\"": 8,
      "%": 9,
      "'": 10,
      "(": 11,
      ")": 12,
      "*": 13,
      "+": 14,
      ",": 15,
      "-": 16,
      ".": 17,
      "/": 18,
      "0": 19,
      "1": 20,
      "2": 21,
      "3": 22,
      "4": 23,
      "5": 24,
      "6": 25,
      "7": 26,
      "8": 27,
      "9": 28,
      ":": 29,
      "=": 30,
      ">": 31,
      "?": 32,
      "A": 33,
      "B": 34,
      "C": 35,
      "D": 36,
      "E": 37,
      "F": 38,
      "G": 39,
      "H": 40,
      "I": 41,
      "J": 42,
      "K": 43,
      "L": 44,
      "M": 45,
      "N": 46,
      "O": 47,
      "P": 48,
      "Q": 49,
      "R": 50,
      "S": 51,
      "T": 52,
      "U": 53,
      "V": 54,
      "W": 55,
      "X": 56,
      "Y": 57,
      "Z": 58,
      "a": 59,
      "b": 60,
      "c": 61,
      "d": 62,
      "e": 63,
      "f": 64,
      "g": 65,
      "h": 66,
      "i": 67,
      "j": 68,
      "k": 69,
      "l": 70,
      "m": 71,
      "n": 72,
      "o": 73,
      "p": 74,
      "q": 75,
      "r": 76,
      "s": 77,
      "t": 78,
      "u": 79,
      "v": 80,
      "w": 81,
      "x": 82,
      "y": 83,
      "z": 84,
      "²": 85,
      "π": 86,
      "–": 87,
      "’": 88,
      "₂": 89,
      "→": 90,
      "☀": 91,
      "☔": 92,
      "️": 93,
      "🐱": 94,
      "🔥": 95,
      "🥹": 96,
      "in": 97,
      "an": 98,
      "at": 99,
      "re": 100,
      "?,": 101,
      "en": 102,
      "on": 103,
      "er": 104,
      "al": 105,
      "th": 106,
      "or": 107,
      "ing": 108,
      "ou": 109,
      "is": 110,
      "es": 111,
      "ar": 112,
      "it": 113,
      "am": 114,
      "ion": 115,
      "hat": 116,
      "st": 117,
      "le": 118,
      "ic": 119,
      "and": 120,
      "aa": 121,
      "ed": 122,
      "ve": 123,
      "om": 124,
      "what": 125,
      "ir": 126,
      "to": 127,
      "il": 128,
      "el": 129,
      "pan": 130,
      "the": 131,
      "ct": 132,
      "ce": 133,
      "ch": 134,
      "da": 135,
      "you": 136,
      "la": 137,
      "ent": 138,
      "pann": 139,
      "ro": 140,
      "im": 141,
      "se": 142,
      "?,\"": 143,
      "ur": 144,
      "ol": 145,
      "et": 146,
      "Aam": 147,
      ".\"": 148,
      "Aamaa": 149,
      "as": 150,
      "iru": 151,
      "ad": 152,
      "od": 153,
      "of": 154,
      "ig": 155,
      "ation": 156,
      "ut": 157,
      "eng": 158,
      "ow": 159,
      "are": 160,
      "un": 161,
      "iruk": 162,
      "pannu": 163,
      "ala": 164,
      "for": 165,
      "li": 166,
      "um": 167,
      "ul": 168,
      "ly": 169,
      "ver": 170,
      "id": 171,
      "ke": 172,
      "na": 173,
      "tr": 174,
      "ab": 175,
      "te": 176,
      "he": 177,
      "pp": 178,
      "engala": 179,
      "ex": 180,
      "di": 181,
      "ood": 182,
      "fe": 183,
      "ge": 184,
      "ity": 185,
      "ess": 186,
      "pe": 187,
      "mo": 188,
      "ha": 189,
      "igh": 190,
      "What": 191,
      "ure": 192,
      "con": 193,
      "pro": 194,
      "per": 195,
      "lo": 196,
      "us": 197,
      "est": 198,
      "ah": 199,
      "me": 200,
      "ant": 201,
      "ith": 202,
      "veengala": 203,
      "ter": 204,
      "all": 205,
      "ra": 206,
      "with": 207,
      "ight": 208,
      "pannuveengala": 209,
      "ci": 210,
      "ne": 211,
      "com": 212,
      "ort": 213,
      "po": 214,
      "ate": 215,
      "be": 216,
      "irukaa": 217,
      "like": 218,
      "ri": 219,
      "de": 220,
      "ment": 221,
      "op": 222,
      "qu": 223,
      "enna": 224,
      "wor": 225,
      "res": 226,
      "art": 227,
      "ld": 228,
      "ist": 229,
      "ay": 230,
      "nd": 231,
      "ac": 232,
      "our": 233,
      "sh": 234,
      "we": 235,
      "pl": 236,
      "amil": 237,
      "ain": 238,
      "su": 239,
      "one": 240,
      "In": 241,
      "ance": 242,
      "that": 243,
      "ice": 244,
      "ful": 245,
      "port": 246,
      "rest": 247,
      "out": 248,
      "ical": 249,
      "ot": 250,
      "em": 251,
      "ku": 252,
      "ep": 253,
      "king": 254,
      "rom": 255,
      "wh": 256,
      "thing": 257,
      "do": 258,
      "ag": 259,
      "ies": 260,
      "tim": 261,
      "but": 262,
      "ence": 263,
      "av": 264,
      "rou": 265,
      "end": 266,
      "ould": 267,
      "ction": 268,
      "age": 269,
      "ren": 270,
      "ers": 271,
      "gh": 272,
      "ome": 273,
      "ive": 274,
      "ath": 275,
      "hel": 276,
      "ph": 277,
      "ine": 278,
      "Tamil": 279,
      "ast": 280,
      "now": 281,
      "ater": 282,
      "here": 283,
      "time": 284,
      "help": 285,
      "can": 286,
      "day": 287,
      "your": 288,
      "terest": 289,
      "ple": 290,
      "ther": 291,
      "ach": 292,
      "ind": 293,
      "interest": 294,
      "ang": 295,
      "ill": 296,
      "ide": 297,
      "use": 298,
      "ven": 299,
      "ite": 300,
      "ong": 301,
      "En": 302,
      "ore": 303,
      "pa": 304,
      "ell": 305,
      "cre": 306,
      "dis": 307,
      "ie": 308,
      "if": 309,
      "ning": 310,
      "der": 311,
      "oo": 312,
      "need": 313,
      "work": 314,
      "hu": 315,
      "form": 316,
      "from": 317,
      "ma": 318,
      "pt": 319,
      "peri": 320,
      "by": 321,
      "any": 322,
      "ural": 323,
      "ck": 324,
      "food": 325,
      "os": 326,
      "over": 327,
      "pre": 328,
      "ru": 329,
      "about": 330,
      "ear": 331,
      "ud": 332,
      "ip": 333,
      "ness": 334,
      "act": 335,
      "iv": 336,
      "col": 337,
      "sm": 338,
      "import": 339,
      "ten": 340,
      "ous": 341,
      "ition": 342,
      "able": 343,
      "app": 344,
      "gy": 345,
      "spe": 346,
      "oll": 347,
      "ult": 348,
      "water": 349,
      "try": 350,
      "An": 351,
      "Ch": 352,
      "Good": 353,
      "ry": 354,
      "arm": 355,
      "cial": 356,
      "Indi": 357,
      "ap": 358,
      "experi": 359,
      "aw": 360,
      "cur": 361,
      "good": 362,
      "so": 363,
      "ory": 364,
      "plan": 365,
      "gan": 366,
      "up": 367,
      "ard": 368,
      "ble": 369,
      "ving": 370,
      "would": 371,
      "very": 372,
      "du": 373,
      "gen": 374,
      "ss": 375,
      "ound": 376,
      "ass": 377,
      "rough": 378,
      "experience": 379,
      "ak": 380,
      "some": 381,
      "vs": 382,
      "ions": 383,
      "iruku": 384,
      "Enna": 385,
      "br": 386,
      "know": 387,
      "ust": 388,
      "through": 389,
      "oun": 390,
      "ppo": 391,
      "important": 392,
      "India": 393,
      "cess": 394,
      "ire": 395,
      "jam": 396,
      "mar": 397,
      "sy": 398,
      "inion": 399,
      "read": 400,
      "ild": 401,
      "row": 402,
      "irukk": 403,
      "feel": 404,
      "opinion": 405,
      "ress": 406,
      "ourite": 407,
      "avourite": 408,
      "aware": 409,
      "ber": 410,
      "pla": 411,
      "ric": 412,
      "reat": 413,
      "onjam": 414,
      "ish": 415,
      "ign": 416,
      "pannuv": 417,
      "how": 418,
      "right": 419,
      "ts": 420,
      "ary": 421,
      "lear": 422,
      "ily": 423,
      "epdi": 424,
      "The": 425,
      "iy": 426,
      "no": 427,
      "ob": 428,
      "other": 429,
      "pr": 430,
      "sol": 431,
      "ream": 432,
      "als": 433,
      "under": 434,
      "more": 435,
      "des": 436,
      "dha": 437,
      "iz": 438,
      "ile": 439,
      "alth": 440,
      "ility": 441,
      "Un": 442,
      "af": 443,
      "cl": 444,
      "go": 445,
      "mat": 446,
      "mor": 447,
      "ty": 448,
      "way": 449,
      "ans": 450,
      "thin": 451,
      "elf": 452,
      "qual": 453,
      "when": 454,
      "rent": 455,
      "pannuvom": 456,
      "Re": 457,
      "bl": 458,
      "light": 459,
      "where": 460,
      "often": 461,
      "ds": 462,
      "fl": 463,
      "ated": 464,
      "ents": 465,
      "ople": 466,
      "dhaan": 467,
      "00": 468,
      "air": 469,
      "ca": 470,
      "ser": 471,
      "tain": 472,
      "itu": 473,
      "ich": 474,
      "ics": 475,
      "chan": 476,
      "ura": 477,
      "happ": 478,
      "bu": 479,
      "cus": 480,
      "get": 481,
      "ks": 482,
      "nat": 483,
      "og": 484,
      "vis": 485,
      "organ": 486,
      "vel": 487,
      "ely": 488,
      "vers": 489,
      "people": 490,
      "have": 491,
      "That": 492,
      "cy": 493,
      "fic": 494,
      "gr": 495,
      "ious": 496,
      "ippo": 497,
      "ket": 498,
      "part": 499,
      "ta": 500,
      "enga": 501,
      "life": 502,
      "exp": 503,
      "awareness": 504,
      "Ear": 505,
      "St": 506,
      "bod": 507,
      "ins": 508,
      "ating": 509,
      "ext": 510,
      "comm": 511,
      "needed": 512,
      "small": 513,
      "Konjam": 514,
      "Ne": 515,
      "bet": 516,
      "ue": 517,
      "var": 518,
      "inter": 519,
      "ree": 520,
      "aag": 521,
      "love": 522,
      "ready": 523,
      "ace": 524,
      "car": 525,
      "hy": 526,
      "min": 527,
      "oth": 528,
      "ough": 529,
      "ama": 530,
      "stand": 531,
      "stem": 532,
      "edu": 533,
      "daily": 534,
      "ade": 535,
      "comp": 536,
      "phy": 537,
      "dream": 538,
      "ele": 539,
      "my": 540,
      "man": 541,
      "ual": 542,
      "ise": 543,
      "iss": 544,
      "che": 545,
      "cho": 546,
      "ution": 547,
      "tra": 548,
      "aby": 549,
      "health": 550,
      "most": 551,
      "who": 552,
      "Th": 553,
      "cer": 554,
      "care": 555,
      "ffe": 556,
      "many": 557,
      "self": 558,
      "tion": 559,
      "ens": 560,
      "than": 561,
      "issu": 562,
      "tem": 563,
      "used": 564,
      "rain": 565,
      "plant": 566,
      "ollow": 567,
      "quality": 568,
      "!\"": 569,
      "Al": 570,
      "He": 571,
      "bas": 572,
      "cor": 573,
      "fun": 574,
      "med": 575,
      "not": 576,
      "pu": 577,
      "int": 578,
      "red": 579,
      "reg": 580,
      "ings": 581,
      "irst": 582,
      "else": 583,
      "pport": 584,
      "ship": 585,
      "something": 586,
      "natural": 587,
      "coun": 588,
      "ek": 589,
      "farm": 590,
      "ial": 591,
      "kum": 592,
      "oc": 593,
      "sur": 594,
      "anim": 595,
      "ors": 596,
      "ures": 597,
      "process": 598,
      "riend": 599,
      "irukken": 600,
      "Earth": 601,
      "body": 602,
      "Com": 603,
      "cal": 604,
      "favourite": 605,
      "follow": 606,
      "ok": 607,
      "rit": 608,
      "sk": 609,
      "stru": 610,
      "chu": 611,
      "pannine": 612,
      "old": 613,
      "ety": 614,
      "adition": 615,
      "tri": 616,
      "ract": 617,
      "ack": 618,
      "amily": 619,
      "iyum": 620,
      "build": 621,
      "cuss": 622,
      "pannineengala": 623,
      "Baby": 624,
      "Im": 625,
      "grow": 626,
      "lar": 627,
      "num": 628,
      "night": 629,
      "year": 630,
      "ener": 631,
      "its": 632,
      "start": 633,
      "cept": 634,
      "ations": 635,
      "uture": 636,
      "cont": 637,
      "ennai": 638,
      "ically": 639,
      "things": 640,
      "discuss": 641,
      "Chennai": 642,
      "blem": 643,
      "Con": 644,
      "ase": 645,
      "bi": 646,
      "bal": 647,
      "best": 648,
      "don": 649,
      "ect": 650,
      "fore": 651,
      "grou": 652,
      "main": 653,
      "pres": 654,
      "sp": 655,
      "ening": 656,
      "str": 657,
      "vement": 658,
      "top": 659,
      "impro": 660,
      "ason": 661,
      "ower": 662,
      "prote": 663,
      "problem": 664,
      "new": 665,
      "quest": 666,
      "ctions": 667,
      "morning": 668,
      "No": 669,
      "ces": 670,
      "cent": 671,
      "gla": 672,
      "hum": 673,
      "mind": 674,
      "ove": 675,
      "ogy": 676,
      "pon": 677,
      "wa": 678,
      "inv": 679,
      "rel": 680,
      "alk": 681,
      "ities": 682,
      "velo": 683,
      "omet": 684,
      "cture": 685,
      "set": 686,
      "ology": 687,
      "iruke": 688,
      "ability": 689,
      "cons": 690,
      "full": 691,
      "paath": 692,
      "formation": 693,
      "colle": 694,
      "understand": 695,
      "change": 696,
      "chool": 697,
      "De": 698,
      "Favourite": 699,
      "Not": 700,
      "clo": 701,
      "every": 702,
      "fer": 703,
      "ho": 704,
      "jo": 705,
      "mod": 706,
      "pract": 707,
      "ris": 708,
      "sc": 709,
      "sun": 710,
      "vo": 711,
      "val": 712,
      "information": 713,
      "anum": 714,
      "atch": 715,
      "ery": 716,
      "orm": 717,
      "story": 718,
      "let": 719,
      "pannura": 720,
      "idu": 721,
      "tradition": 722,
      "diffe": 723,
      "pect": 724,
      "mov": 725,
      "develo": 726,
      "support": 727,
      "system": 728,
      "energy": 729,
      ",\"": 730,
      "Wor": 731,
      "bel": 732,
      "call": 733,
      "eat": 734,
      "each": 735,
      "friend": 736,
      "ik": 737,
      "ible": 738,
      "mon": 739,
      "net": 740,
      "yes": 741,
      "ates": 742,
      "thu": 743,
      "ism": 744,
      "ame": 745,
      "leg": 746,
      "illa": 747,
      "els": 748,
      "adu": 749,
      "ular": 750,
      "using": 751,
      "weet": 752,
      "ific": 753,
      "ulture": 754,
      "think": 755,
      "develop": 756,
      "Ex": 757,
      "Pro": 758,
      "Su": 759,
      "Would": 760,
      "ake": 761,
      "bre": 762,
      "ka": 763,
      "lit": 764,
      "made": 765,
      "next": 766,
      "sweet": 767,
      "ting": 768,
      "ward": 769,
      "into": 770,
      "once": 771,
      "leep": 772,
      "chem": 773,
      "imes": 774,
      "irund": 775,
      "adhu": 776,
      "fect": 777,
      "pers": 778,
      "usic": 779,
      "share": 780,
      "phone": 781,
      "ook": 782,
      "ways": 783,
      "thinking": 784,
      "serv": 785,
      "phys": 786,
      "iyumaa": 787,
      "building": 788,
      "wait": 789,
      "ometimes": 790,
      "irukeengala": 791,
      "belie": 792,
      "?\"": 793,
      "ba": 794,
      "co": 795,
      "cla": 796,
      "cation": 797,
      "ever": 798,
      "fast": 799,
      "hist": 800,
      "ject": 801,
      "land": 802,
      "long": 803,
      "ns": 804,
      "nu": 805,
      "ps": 806,
      "pri": 807,
      "tw": 808,
      "was": 809,
      "att": 810,
      "aru": 811,
      "stud": 812,
      "panirukeengala": 813,
      "imple": 814,
      "unity": 815,
      "ulation": 816,
      "trans": 817,
      "concept": 818,
      "produ": 819,
      "mean": 820,
      "poss": 821,
      "week": 822,
      "aste": 823,
      "days": 824,
      "anything": 825,
      "learn": 826,
      "visit": 827,
      "issue": 828,
      "practice": 829,
      "person": 830,
      "AI": 831,
      "Love": 832,
      "Ph": 833,
      "Per": 834,
      "You": 835,
      "city": 836,
      "cell": 837,
      "clear": 838,
      "ev": 839,
      "fo": 840,
      "fall": 841,
      "first": 842,
      "family": 843,
      "future": 844,
      "great": 845,
      "kes": 846,
      "mom": 847,
      "ner": 848,
      "nut": 849,
      "pol": 850,
      "pically": 851,
      "sci": 852,
      "side": 853,
      "tell": 854,
      "ature": 855,
      "orth": 856,
      "ional": 857,
      "still": 858,
      "ick": 859,
      "aay": 860,
      "cean": 861,
      "char": 862,
      "mem": 863,
      "world": 864,
      "which": 865,
      "angu": 866,
      "venum": 867,
      "overn": 868,
      "smile": 869,
      "play": 870,
      "design": 871,
      "typically": 872,
      "better": 873,
      "number": 874,
      "glad": 875,
      "joy": 876,
      "voice": 877,
      "study": 878,
      "Let": 879,
      "So": 880,
      "aur": 881,
      "bir": 882,
      "bility": 883,
      "fla": 884,
      "ga": 885,
      "gest": 886,
      "home": 887,
      "ia": 888,
      "less": 889,
      "mil": 890,
      "miss": 891,
      "par": 892,
      "sign": 893,
      "sleep": 894,
      "tre": 895,
      "treat": 896,
      "writ": 897,
      "iness": 898,
      "ative": 899,
      "onder": 900,
      "ital": 901,
      "led": 902,
      "lebr": 903,
      "them": 904,
      "celebr": 905,
      "uru": 906,
      "uring": 907,
      "ask": 908,
      "own": 909,
      "owing": 910,
      "aren": 911,
      "irukku": 912,
      "pannuren": 913,
      "tech": 914,
      "pecial": 915,
      "come": 916,
      "pos": 917,
      "pot": 918,
      "words": 919,
      "ween": 920,
      "interesting": 921,
      "vening": 922,
      "ivity": 923,
      "speci": 924,
      "ounds": 925,
      "feeling": 926,
      "afety": 927,
      "matter": 928,
      "between": 929,
      "travel": 930,
      "okay": 931,
      "growing": 932,
      "large": 933,
      "present": 934,
      "strong": 935,
      "different": 936,
      "physical": 937,
      "Ar": 938,
      "Co": 939,
      "Gr": 940,
      "Sm": 941,
      "Yes": 942,
      "ban": 943,
      "back": 944,
      "cle": 945,
      "dro": 946,
      "fly": 947,
      "fact": 948,
      "face": 949,
      "hab": 950,
      "ibility": 951,
      "ll": 952,
      "list": 953,
      "pat": 954,
      "vide": 955,
      "watch": 956,
      "ana": 957,
      "ank": 958,
      "reci": 959,
      "ense": 960,
      "onest": 961,
      "alam": 962,
      "though": 963,
      "outh": 964,
      "ari": 965,
      "state": 966,
      "imag": 967,
      "see": 968,
      "adi": 969,
      "off": 970,
      "offe": 971,
      "ational": 972,
      "ute": 973,
      "utu": 974,
      "area": 975,
      "train": 976,
      "estiv": 977,
      "memor": 978,
      "alleng": 979,
      "being": 980,
      "respon": 981,
      "ather": 982,
      "pace": 983,
      "udhu": 984,
      "special": 985,
      "current": 986,
      "assist": 987,
      "place": 988,
      "rights": 989,
      "elect": 990,
      "farming": 991,
      "structure": 992,
      "years": 993,
      "history": 994,
      "meaning": 995,
      "offee": 996,
      "Ab": 997,
      "Col": 998,
      "How": 999,
      "It": 1000,
      "More": 1001,
      "Po": 1002,
      "Some": 1003,
      "bs": 1004,
      "bar": 1005,
      "ball": 1006,
      "dr": 1007,
      "fra": 1008,
      "found": 1009,
      "gu": 1010,
      "gre": 1011,
      "hand": 1012,
      "job": 1013,
      "konjam": 1014,
      "lish": 1015,
      "mer": 1016,
      "mess": 1017,
      "ocean": 1018,
      "pad": 1019,
      "prom": 1020,
      "poll": 1021,
      "sent": 1022,
      "soll": 1023,
      "tur": 1024,
      "ves": 1025,
      "vir": 1026,
      "vid": 1027,
      "zing": 1028,
      "inst": 1029,
      "another": 1030,
      "real": 1031,
      "rect": 1032,
      "then": 1033,
      "today": 1034,
      "there": 1035,
      "challeng": 1036,
      "ential": 1037,
      "ime": 1038,
      "seem": 1039,
      "eter": 1040,
      "Aama": 1041,
      "engaa": 1042,
      "ows": 1043,
      "fort": 1044,
      "heart": 1045,
      "exist": 1046,
      "conne": 1047,
      "concer": 1048,
      "lore": 1049,
      "meas": 1050,
      "dec": 1051,
      "acy": 1052,
      "sub": 1053,
      "fully": 1054,
      "Eng": 1055,
      "paaru": 1056,
      "ooking": 1057,
      "prefer": 1058,
      "sym": 1059,
      "irukka": 1060,
      "solut": 1061,
      "explore": 1062,
      "animals": 1063,
      "contin": 1064,
      "question": 1065,
      "ormal": 1066,
      "two": 1067,
      "moment": 1068,
      "onderful": 1069,
      "habit": 1070,
      "message": 1071,
      "\"\"": 1072,
      "Bi": 1073,
      "Bas": 1074,
      "Le": 1075,
      "Mo": 1076,
      "Of": 1077,
      "School": 1078,
      "Una": 1079,
      "Very": 1080,
      "bon": 1081,
      "bus": 1082,
      "could": 1083,
      "cover": 1084,
      "emo": 1085,
      "eppo": 1086,
      "evening": 1087,
      "fi": 1088,
      "find": 1089,
      "ffic": 1090,
      "gress": 1091,
      "hour": 1092,
      "ivers": 1093,
      "les": 1094,
      "lim": 1095,
      "langu": 1096,
      "mu": 1097,
      "oto": 1098,
      "paa": 1099,
      "past": 1100,
      "sim": 1101,
      "situ": 1102,
      "safety": 1103,
      "tar": 1104,
      "talk": 1105,
      "upp": 1106,
      "va": 1107,
      "ved": 1108,
      "vent": 1109,
      "inen": 1110,
      "ani": 1111,
      "ator": 1112,
      "enjoy": 1113,
      "aling": 1114,
      "always": 1115,
      "especial": 1116,
      "itive": 1117,
      "icy": 1118,
      "ication": 1119,
      "edy": 1120,
      "their": 1121,
      "ctor": 1122,
      "pannanum": 1123,
      "road": 1124,
      "season": 1125,
      "ung": 1126,
      "living": 1127,
      "few": 1128,
      "cond": 1129,
      "convers": 1130,
      "meet": 1131,
      "ants": 1132,
      "raphy": 1133,
      "before": 1134,
      "river": 1135,
      "super": 1136,
      "round": 1137,
      "photo": 1138,
      "period": 1139,
      "importance": 1140,
      "ultural": 1141,
      "gener": 1142,
      "blood": 1143,
      "chann": 1144,
      "happy": 1145,
      "take": 1146,
      "express": 1147,
      "New": 1148,
      "education": 1149,
      "check": 1150,
      "basic": 1151,
      "tribut": 1152,
      "month": 1153,
      "class": 1154,
      "priv": 1155,
      "possible": 1156,
      "events": 1157,
      "nutri": 1158,
      "estival": 1159,
      "solutely": 1160,
      "especially": 1161,
      "..": 1162,
      "20": 1163,
      "Ad": 1164,
      "Air": 1165,
      "App": 1166,
      "Both": 1167,
      "Cur": 1168,
      "Fe": 1169,
      "Great": 1170,
      "Mar": 1171,
      "Se": 1172,
      "Simple": 1173,
      "There": 1174,
      "ail": 1175,
      "aut": 1176,
      "bo": 1177,
      "bor": 1178,
      "bore": 1179,
      "cro": 1180,
      "cas": 1181,
      "cour": 1182,
      "ding": 1183,
      "dig": 1184,
      "dist": 1185,
      "fin": 1186,
      "govern": 1187,
      "har": 1188,
      "hic": 1189,
      "hol": 1190,
      "has": 1191,
      "high": 1192,
      "just": 1193,
      "line": 1194,
      "music": 1195,
      "ox": 1196,
      "pir": 1197,
      "pass": 1198,
      "power": 1199,
      "sal": 1200,
      "saa": 1201,
      "sil": 1202,
      "say": 1203,
      "uth": 1204,
      "vand": 1205,
      "vach": 1206,
      "war": 1207,
      "want": 1208,
      "anch": 1209,
      "ata": 1210,
      "ene": 1211,
      "onment": 1212,
      "ale": 1213,
      "lect": 1214,
      "vehic": 1215,
      "toward": 1216,
      "live": 1217,
      "ider": 1218,
      "trip": 1219,
      "peace": 1220,
      "moving": 1221,
      "movement": 1222,
      "conf": 1223,
      "perfect": 1224,
      "comple": 1225,
      "pop": 1226,
      "point": 1227,
      "weather": 1228,
      "ports": 1229,
      "portant": 1230,
      "romba": 1231,
      "works": 1232,
      "making": 1233,
      "makes": 1234,
      "rust": 1235,
      "appro": 1236,
      "appreci": 1237,
      "speed": 1238,
      "market": 1239,
      "ized": 1240,
      "ization": 1241,
      "partic": 1242,
      "issues": 1243,
      "plants": 1244,
      "Health": 1245,
      "pudi": 1246,
      "animal": 1247,
      "skill": 1248,
      "Important": 1249,
      "human": 1250,
      "close": 1251,
      "movie": 1252,
      "irundha": 1253,
      "Phone": 1254,
      "onesty": 1255,
      "Absolutely": 1256,
      "channels": 1257,
      "nutrients": 1258,
      "Car": 1259,
      "Dig": 1260,
      "Il": 1261,
      "Ind": 1262,
      "Mad": 1263,
      "Nadu": 1264,
      "On": 1265,
      "PM": 1266,
      "Par": 1267,
      "Sh": 1268,
      "Sometimes": 1269,
      "Tem": 1270,
      "Take": 1271,
      "We": 1272,
      "ai": 1273,
      "aking": 1274,
      "big": 1275,
      "both": 1276,
      "cu": 1277,
      "cit": 1278,
      "cra": 1279,
      "ccess": 1280,
      "din": 1281,
      "eas": 1282,
      "fru": 1283,
      "festival": 1284,
      "gi": 1285,
      "gin": 1286,
      "gas": 1287,
      "hi": 1288,
      "iqu": 1289,
      "ience": 1290,
      "kku": 1291,
      "late": 1292,
      "mel": 1293,
      "mag": 1294,
      "ock": 1295,
      "por": 1296,
      "pes": 1297,
      "pur": 1298,
      "path": 1299,
      "press": 1300,
      "rural": 1301,
      "sw": 1302,
      "school": 1303,
      "space": 1304,
      "tle": 1305,
      "ugh": 1306,
      "viru": 1307,
      "walk": 1308,
      "waste": 1309,
      "ange": 1310,
      "anupp": 1311,
      "ately": 1312,
      "rec": 1313,
      "ref": 1314,
      "reform": 1315,
      "redu": 1316,
      "ony": 1317,
      "ones": 1318,
      "only": 1319,
      "already": 1320,
      "ories": 1321,
      "ouse": 1322,
      "esh": 1323,
      "aring": 1324,
      "step": 1325,
      "lead": 1326,
      "level": 1327,
      "ict": 1328,
      "ctive": 1329,
      "pannala": 1330,
      "ury": 1331,
      "uradhu": 1332,
      "ationship": 1333,
      "areas": 1334,
      "ume": 1335,
      "trust": 1336,
      "progress": 1337,
      "lobal": 1338,
      "teriyumaa": 1339,
      "deb": 1340,
      "dev": 1341,
      "ments": 1342,
      "ago": 1343,
      "times": 1344,
      "achie": 1345,
      "dish": 1346,
      "workers": 1347,
      "make": 1348,
      "color": 1349,
      "ulti": 1350,
      "after": 1351,
      "urai": 1352,
      "happen": 1353,
      "happening": 1354,
      "grand": 1355,
      "amazing": 1356,
      "comput": 1357,
      "manage": 1358,
      "temper": 1359,
      "temple": 1360,
      "based": 1361,
      "country": 1362,
      "group": 1363,
      "ground": 1364,
      "protection": 1365,
      "questions": 1366,
      "model": 1367,
      "valu": 1368,
      "friends": 1369,
      "illai": 1370,
      "break": 1371,
      "liter": 1372,
      "believe": 1373,
      "science": 1374,
      "charact": 1375,
      "signific": 1376,
      "training": 1377,
      "vironment": 1378,
      "seems": 1379,
      "course": 1380,
      "Illa": 1381,
      "Madurai": 1382,
      "100": 1383,
      "Am": 1384,
      "Be": 1385,
      "Bl": 1386,
      "Cal": 1387,
      "First": 1388,
      "Family": 1389,
      "Grow": 1390,
      "Is": 1391,
      "Kar": 1392,
      "Med": 1393,
      "Night": 1394,
      "North": 1395,
      "PS": 1396,
      "Pe": 1397,
      "Pl": 1398,
      "Sun": 1399,
      "South": 1400,
      "ave": 1401,
      "aver": 1402,
      "afe": 1403,
      "action": 1404,
      "cul": 1405,
      "culture": 1406,
      "coffee": 1407,
      "del": 1408,
      "down": 1409,
      "equ": 1410,
      "ft": 1411,
      "fre": 1412,
      "flo": 1413,
      "free": 1414,
      "harm": 1415,
      "hard": 1416,
      "ient": 1417,
      "iet": 1418,
      "low": 1419,
      "met": 1420,
      "mill": 1421,
      "ping": 1422,
      "pod": 1423,
      "pend": 1424,
      "sion": 1425,
      "sha": 1426,
      "sight": 1427,
      "squ": 1428,
      "sens": 1429,
      "schem": 1430,
      "sometimes": 1431,
      "tin": 1432,
      "tions": 1433,
      "vol": 1434,
      "wn": 1435,
      "wal": 1436,
      "well": 1437,
      "xt": 1438,
      "ye": 1439,
      "yet": 1440,
      "ygen": 1441,
      "inj": 1442,
      "ink": 1443,
      "ining": 1444,
      "anal": 1445,
      "retur": 1446,
      "ency": 1447,
      "ero": 1448,
      "ert": 1449,
      "ally": 1450,
      "also": 1451,
      "three": 1452,
      "oru": 1453,
      "ision": 1454,
      "arch": 1455,
      "lege": 1456,
      "ctic": 1457,
      "panninen": 1458,
      "pannuradhu": 1459,
      "rock": 1460,
      "secur": 1461,
      "add": 1462,
      "unication": 1463,
      "ummer": 1464,
      "ids": 1465,
      "key": 1466,
      "keep": 1467,
      "ably": 1468,
      "team": 1469,
      "teach": 1470,
      "head": 1471,
      "fection": 1472,
      "ush": 1473,
      "allowing": 1474,
      "cipl": 1475,
      "post": 1476,
      "beat": 1477,
      "beaut": 1478,
      "begin": 1479,
      "riage": 1480,
      "word": 1481,
      "respect": 1482,
      "istic": 1483,
      "accoun": 1484,
      "butter": 1485,
      "aves": 1486,
      "ends": 1487,
      "rence": 1488,
      "theriyumaa": 1489,
      "cold": 1490,
      "rying": 1491,
      "someone": 1492,
      "ountain": 1493,
      "ireengala": 1494,
      "riculture": 1495,
      "learning": 1496,
      "going": 1497,
      "itude": 1498,
      "fiction": 1499,
      "community": 1500,
      "Need": 1501,
      "ually": 1502,
      "mostly": 1503,
      "certain": 1504,
      "correct": 1505,
      "fund": 1506,
      "balance": 1507,
      "maintain": 1508,
      "improve": 1509,
      "invest": 1510,
      "relationship": 1511,
      "consider": 1512,
      "college": 1513,
      "understanding": 1514,
      "everything": 1515,
      "risk": 1516,
      "development": 1517,
      "chemical": 1518,
      "jects": 1519,
      "cellent": 1520,
      "polit": 1521,
      "aayidu": 1522,
      "designed": 1523,
      "techn": 1524,
      "electric": 1525,
      "College": 1526,
      "Pole": 1527,
      "pollution": 1528,
      "senti": 1529,
      "sollu": 1530,
      "challenge": 1531,
      "connect": 1532,
      "saap": 1533,
      "appreciate": 1534,
      "pudikum": 1535,
      "reduce": 1536,
      "significance": 1537,
      "schemes": 1538,
      "security": 1539,
      "Ag": 1540,
      "Bir": 1541,
      "Big": 1542,
      "Dis": 1543,
      "Ena": 1544,
      "Future": 1545,
      "High": 1546,
      "Home": 1547,
      "Long": 1548,
      "Lear": 1549,
      "Mor": 1550,
      "Music": 1551,
      "Ram": 1552,
      "Rural": 1553,
      "Te": 1554,
      "Wind": 1555,
      "actions": 1556,
      "bat": 1557,
      "bit": 1558,
      "bers": 1559,
      "cris": 1560,
      "dance": 1561,
      "ec": 1562,
      "equal": 1563,
      "ease": 1564,
      "fit": 1565,
      "fam": 1566,
      "fil": 1567,
      "five": 1568,
      "fine": 1569,
      "fish": 1570,
      "gs": 1571,
      "got": 1572,
      "global": 1573,
      "hob": 1574,
      "hold": 1575,
      "ior": 1576,
      "iful": 1577,
      "kk": 1578,
      "kiss": 1579,
      "mountain": 1580,
      "nar": 1581,
      "normal": 1582,
      "opp": 1583,
      "pen": 1584,
      "plo": 1585,
      "ron": 1586,
      "ram": 1587,
      "ration": 1588,
      "run": 1589,
      "sor": 1590,
      "song": 1591,
      "sche": 1592,
      "same": 1593,
      "sense": 1594,
      "ula": 1595,
      "uku": 1596,
      "uck": 1597,
      "vest": 1598,
      "vie": 1599,
      "wind": 1600,
      "wonderful": 1601,
      "ya": 1602,
      "yle": 1603,
      "ines": 1604,
      "inct": 1605,
      "ination": 1606,
      "ann": 1607,
      "atom": 1608,
      "atitude": 1609,
      "recre": 1610,
      "reason": 1611,
      "erc": 1612,
      "alent": 1613,
      "this": 1614,
      "thes": 1615,
      "ita": 1616,
      "itch": 1617,
      "stories": 1618,
      "aachu": 1619,
      "edom": 1620,
      "veget": 1621,
      "veengaa": 1622,
      "tool": 1623,
      "ilar": 1624,
      "panren": 1625,
      "they": 1626,
      "chain": 1627,
      "last": 1628,
      "enter": 1629,
      "ention": 1630,
      "pannitu": 1631,
      "pannalam": 1632,
      "rol": 1633,
      "rot": 1634,
      "imm": 1635,
      "impa": 1636,
      "seed": 1637,
      "sect": 1638,
      "unit": 1639,
      "unna": 1640,
      "pannuven": 1641,
      "pannuveengaa": 1642,
      "vert": 1643,
      "text": 1644,
      "excit": 1645,
      "divid": 1646,
      "moon": 1647,
      "uren": 1648,
      "provide": 1649,
      "cient": 1650,
      "comb": 1651,
      "compan": 1652,
      "comfort": 1653,
      "pog": 1654,
      "deep": 1655,
      "depend": 1656,
      "should": 1657,
      "sharing": 1658,
      "oney": 1659,
      "Inter": 1660,
      "Inga": 1661,
      "ages": 1662,
      "agriculture": 1663,
      "helps": 1664,
      "yourself": 1665,
      "cream": 1666,
      "create": 1667,
      "ift": 1668,
      "oog": 1669,
      "active": 1670,
      "appear": 1671,
      "Indian": 1672,
      "genre": 1673,
      "akes": 1674,
      "marriage": 1675,
      "prise": 1676,
      "cling": 1677,
      "clim": 1678,
      "goal": 1679,
      "matt": 1680,
      "whenever": 1681,
      "blic": 1682,
      "000": 1683,
      "cause": 1684,
      "ography": 1685,
      "aagudhu": 1686,
      "selfie": 1687,
      "occur": 1688,
      "surround": 1689,
      "Impro": 1690,
      "topic": 1691,
      "improvement": 1692,
      "paathu": 1693,
      "traditional": 1694,
      "movies": 1695,
      "developing": 1696,
      "servation": 1697,
      "member": 1698,
      "Social": 1699,
      "flav": 1700,
      "trend": 1701,
      "written": 1702,
      "ledge": 1703,
      "memories": 1704,
      "response": 1705,
      "green": 1706,
      "padich": 1707,
      "measures": 1708,
      "English": 1709,
      "Basic": 1710,
      "business": 1711,
      "emotion": 1712,
      "fiel": 1713,
      "language": 1714,
      "situation": 1715,
      "vaang": 1716,
      "conversation": 1717,
      "oxygen": 1718,
      "vehicle": 1719,
      "Temple": 1720,
      "ique": 1721,
      "pressure": 1722,
      "virupu": 1723,
      "debate": 1724,
      "square": 1725,
      "beautiful": 1726,
      "Morning": 1727,
      "famous": 1728,
      "scheme": 1729,
      "25": 1730,
      "Au": 1731,
      "And": 1732,
      "Cooking": 1733,
      "Dh": 1734,
      "Dire": 1735,
      "For": 1736,
      "Friend": 1737,
      "GM": 1738,
      "Goog": 1739,
      "Hist": 1740,
      "Li": 1741,
      "Last": 1742,
      "Met": 1743,
      "Many": 1744,
      "PF": 1745,
      "Pr": 1746,
      "Res": 1747,
      "Right": 1748,
      "Str": 1749,
      "Tiru": 1750,
      "Tra": 1751,
      "Time": 1752,
      "Vis": 1753,
      "Water": 1754,
      "aj": 1755,
      "au": 1756,
      "bol": 1757,
      "boo": 1758,
      "ced": 1759,
      "cap": 1760,
      "cities": 1761,
      "cook": 1762,
      "dh": 1763,
      "dom": 1764,
      "did": 1765,
      "during": 1766,
      "fan": 1767,
      "fas": 1768,
      "fac": 1769,
      "fair": 1770,
      "give": 1771,
      "gift": 1772,
      "hood": 1773,
      "house": 1774,
      "jour": 1775,
      "kind": 1776,
      "later": 1777,
      "nal": 1778,
      "nice": 1779,
      "north": 1780,
      "national": 1781,
      "oda": 1782,
      "pet": 1783,
      "pie": 1784,
      "paren": 1785,
      "ring": 1786,
      "sing": 1787,
      "sport": 1788,
      "sav": 1789,
      "sound": 1790,
      "spr": 1791,
      "sounds": 1792,
      "safe": 1793,
      "uthu": 1794,
      "wr": 1795,
      "ws": 1796,
      "wide": 1797,
      "warm": 1798,
      "wild": 1799,
      "ystem": 1800,
      "yani": 1801,
      "incre": 1802,
      "ators": 1803,
      "atures": 1804,
      "rele": 1805,
      "rece": 1806,
      "requ": 1807,
      "rection": 1808,
      "enough": 1809,
      "environment": 1810,
      "aluku": 1811,
      "tha": 1812,
      "thday": 1813,
      "ority": 1814,
      "orite": 1815,
      "around": 1816,
      "itation": 1817,
      "ambar": 1818,
      "stage": 1819,
      "style": 1820,
      "leaves": 1821,
      "icine": 1822,
      "aagan": 1823,
      "veenga": 1824,
      "iring": 1825,
      "too": 1826,
      "town": 1827,
      "cts": 1828,
      "cha": 1829,
      "urg": 1830,
      "urance": 1831,
      "olog": 1832,
      "etic": 1833,
      "asing": 1834,
      "adv": 1835,
      "ading": 1836,
      "igation": 1837,
      "utaa": 1838,
      "ument": 1839,
      "verb": 1840,
      "ident": 1841,
      "tea": 1842,
      "hear": 1843,
      "hemat": 1844,
      "exam": 1845,
      "expla": 1846,
      "expect": 1847,
      "mot": 1848,
      "mole": 1849,
      "ured": 1850,
      "conservation": 1851,
      "pert": 1852,
      "perform": 1853,
      "antic": 1854,
      "raw": 1855,
      "ney": 1856,
      "near": 1857,
      "ried": 1858,
      "mental": 1859,
      "working": 1860,
      "ists": 1861,
      "aybe": 1862,
      "sug": 1863,
      "supp": 1864,
      "restaur": 1865,
      "oting": 1866,
      "kudu": 1867,
      "why": 1868,
      "avy": 1869,
      "avorite": 1870,
      "roud": 1871,
      "athing": 1872,
      "anger": 1873,
      "angle": 1874,
      "idea": 1875,
      "veness": 1876,
      "creen": 1877,
      "disease": 1878,
      "ooda": 1879,
      "hug": 1880,
      "osity": 1881,
      "osaur": 1882,
      "pred": 1883,
      "activity": 1884,
      "ives": 1885,
      "smell": 1886,
      "tension": 1887,
      "speaking": 1888,
      "Any": 1889,
      "Child": 1890,
      "goods": 1891,
      "soci": 1892,
      "gency": 1893,
      "known": 1894,
      "knowledge": 1895,
      "ount": 1896,
      "ired": 1897,
      "syn": 1898,
      "iya": 1899,
      "nothing": 1900,
      "solution": 1901,
      "Reg": 1902,
      "organs": 1903,
      "organiz": 1904,
      "organism": 1905,
      "gram": 1906,
      "common": 1907,
      "aagutaa": 1908,
      "others": 1909,
      "standing": 1910,
      "dreams": 1911,
      "medical": 1912,
      "media": 1913,
      "regul": 1914,
      "regulation": 1915,
      "calm": 1916,
      "sky": 1917,
      "tried": 1918,
      "forever": 1919,
      "news": 1920,
      "invol": 1921,
      "setup": 1922,
      "hope": 1923,
      "Work": 1924,
      "Working": 1925,
      "eaten": 1926,
      "kada": 1927,
      "little": 1928,
      "waiting": 1929,
      "belief": 1930,
      "attention": 1931,
      "transport": 1932,
      "visited": 1933,
      "forest": 1934,
      "focus": 1935,
      "worldwide": 1936,
      "lesson": 1937,
      "miles": 1938,
      "writing": 1939,
      "celebration": 1940,
      "species": 1941,
      "matters": 1942,
      "Small": 1943,
      "Smart": 1944,
      "listening": 1945,
      "respons": 1946,
      "frastructure": 1947,
      "subst": 1948,
      "symbol": 1949,
      "hours": 1950,
      "iversity": 1951,
      "much": 1952,
      "paaku": 1953,
      "similar": 1954,
      "target": 1955,
      "tribution": 1956,
      "government": 1957,
      "confid": 1958,
      "approach": 1959,
      "particip": 1960,
      "Digital": 1961,
      "mela": 1962,
      "magnet": 1963,
      "happened": 1964,
      "management": 1965,
      "literature": 1966,
      "Growing": 1967,
      "walking": 1968,
      "account": 1969,
      "politics": 1970,
      "aayiduchu": 1971,
      "technology": 1972,
      "electricity": 1973,
      "Learning": 1974,
      "impact": 1975,
      "mattum": 1976,
      "padichen": 1977,
      "Google": 1978,
      "piece": 1979,
      "aaganum": 1980,
      "10": 1981,
      "19": 1982,
      "AR": 1983,
      "Af": 1984,
      "As": 1985,
      "CO": 1986,
      "Coffee": 1987,
      "Dr": 1988,
      "Dream": 1989,
      "ES": 1990,
      "Every": 1991,
      "Edu": 1992,
      "Elect": 1993,
      "Fo": 1994,
      "Fin": 1995,
      "Fun": 1996,
      "Fish": 1997,
      "Govern": 1998,
      "Hu": 1999,
      "Hy": 2000,
      "IS": 2001,
      "Kind": 2002,
      "MS": 2003,
      "My": 2004,
      "Min": 2005,
      "Mil": 2006,
      "NA": 2007,
      "NG": 2008,
      "NR": 2009,
      "Oc": 2010,
      "Old": 2011,
      "Pre": 2012,
      "Pol": 2013,
      "Pass": 2014,
      "RO": 2015,
      "Rain": 2016,
      "SS": 2017,
      "Sw": 2018,
      "Sol": 2019,
      "Sports": 2020,
      "Tr": 2021,
      "Tu": 2022,
      "Tang": 2023,
      "Trust": 2024,
      "Ur": 2025,
      "Wonderful": 2026,
      "Your": 2027,
      "ax": 2028,
      "bing": 2029,
      "bra": 2030,
      "bill": 2031,
      "baby": 2032,
      "book": 2033,
      "cir": 2034,
      "cri": 2035,
      "cast": 2036,
      "card": 2037,
      "cooking": 2038,
      "date": 2039,
      "deter": 2040,
      "data": 2041,
      "effe": 2042,
      "fro": 2043,
      "fur": 2044,
      "fess": 2045,
      "favorite": 2046,
      "hen": 2047,
      "her": 2048,
      "hal": 2049,
      "hion": 2050,
      "honesty": 2051,
      "io": 2052,
      "ix": 2053,
      "ian": 2054,
      "iation": 2055,
      "ium": 2056,
      "ivery": 2057,
      "ials": 2058,
      "iety": 2059,
      "ju": 2060,
      "kar": 2061,
      "kut": 2062,
      "kka": 2063,
      "kuren": 2064,
      "kooda": 2065,
      "ling": 2066,
      "luck": 2067,
      "mal": 2068,
      "mater": 2069,
      "multi": 2070,
      "ny": 2071,
      "non": 2072,
      "opport": 2073,
      "pare": 2074,
      "pain": 2075,
      "proud": 2076,
      "ror": 2077,
      "rul": 2078,
      "rist": 2079,
      "rates": 2080,
      "sure": 2081,
      "slow": 2082,
      "tent": 2083,
      "tly": 2084,
      "tong": 2085,
      "vity": 2086,
      "vious": 2087,
      "villa": 2088,
      "whe": 2089,
      "wood": 2090,
      "will": 2091,
      "winter": 2092,
      "init": 2093,
      "inary": 2094,
      "incl": 2095,
      "insect": 2096,
      "ancial": 2097,
      "anket": 2098,
      "ances": 2099,
      "ats": 2100,
      "atmo": 2101,
      "atha": 2102,
      "atile": 2103,
      "aturing": 2104,
      "rep": 2105,
      "reet": 2106,
      "reli": 2107,
      "represent": 2108,
      "remember": 2109,
      "enn": 2110,
      "enak": 2111,
      "ences": 2112,
      "erve": 2113,
      "alty": 2114,
      "almost": 2115,
      "oring": 2116,
      "order": 2117,
      "oud": 2118,
      "ars": 2119,
      "aran": 2120,
      "aries": 2121,
      "itam": 2122,
      "ited": 2123,
      "amount": 2124,
      "stay": 2125,
      "storm": 2126,
      "leave": 2127,
      "ices": 2128,
      "eday": 2129,
      "omeday": 2130,
      "whatever": 2131,
      "irm": 2132,
      "toge": 2133,
      "ilos": 2134,
      "child": 2135,
      "lax": 2136,
      "lake": 2137,
      "role": 2138,
      "sea": 2139,
      "etect": 2140,
      "adm": 2141,
      "adha": 2142,
      "utes": 2143,
      "alai": 2144,
      "forward": 2145,
      "lives": 2146,
      "verte": 2147,
      "trac": 2148,
      "tract": 2149,
      "exerc": 2150,
      "diffic": 2151,
      "direction": 2152,
      "featuring": 2153,
      "Whats": 2154,
      "loc": 2155,
      "loss": 2156,
      "uses": 2157,
      "term": 2158,
      "rais": 2159,
      "without": 2160,
      "neur": 2161,
      "coming": 2162,
      "comes": 2163,
      "pose": 2164,
      "beach": 2165,
      "because": 2166,
      "ries": 2167,
      "deed": 2168,
      "defin": 2169,
      "quant": 2170,
      "artistic": 2171,
      "istent": 2172,
      "acid": 2173,
      "accur": 2174,
      "access": 2175,
      "shows": 2176,
      "ainable": 2177,
      "success": 2178,
      "Inst": 2179,
      "Interest": 2180,
      "otion": 2181,
      "emer": 2182,
      "emplo": 2183,
      "does": 2184,
      "endar": 2185,
      "rench": 2186,
      "athi": 2187,
      "ineer": 2188,
      "astal": 2189,
      "helpful": 2190,
      "yours": 2191,
      "plex": 2192,
      "pleas": 2193,
      "please": 2194,
      "theriyum": 2195,
      "interests": 2196,
      "illness": 2197,
      "ideas": 2198,
      "created": 2199,
      "ify": 2200,
      "forms": 2201,
      "oss": 2202,
      "osystem": 2203,
      "prepare": 2204,
      "preneur": 2205,
      "udget": 2206,
      "colate": 2207,
      "Anna": 2208,
      "apy": 2209,
      "apart": 2210,
      "social": 2211,
      "planning": 2212,
      "brand": 2213,
      "brid": 2214,
      "brate": 2215,
      "feelings": 2216,
      "iyar": 2217,
      "noon": 2218,
      "objects": 2219,
      "prin": 2220,
      "solar": 2221,
      "descri": 2222,
      "clar": 2223,
      "mathemat": 2224,
      "elfare": 2225,
      "Real": 2226,
      "blue": 2227,
      "blanket": 2228,
      "caused": 2229,
      "series": 2230,
      "serious": 2231,
      "buy": 2232,
      "ogn": 2233,
      "cycling": 2234,
      "Start": 2235,
      "bodhu": 2236,
      "inside": 2237,
      "inspir": 2238,
      "insurance": 2239,
      "communication": 2240,
      "smallest": 2241,
      "varum": 2242,
      "variet": 2243,
      "hydro": 2244,
      "eduthu": 2245,
      "compet": 2246,
      "compass": 2247,
      "healthy": 2248,
      "Always": 2249,
      "public": 2250,
      "region": 2251,
      "occas": 2252,
      "Complex": 2253,
      "skin": 2254,
      "numbers": 2255,
      "Cons": 2256,
      "protein": 2257,
      "related": 2258,
      "sunlight": 2259,
      "monit": 2260,
      "legacy": 2261,
      "ification": 2262,
      "services": 2263,
      "cool": 2264,
      "attend": 2265,
      "personal": 2266,
      "YouTu": 2267,
      "scient": 2268,
      "memory": 2269,
      "position": 2270,
      "specific": 2271,
      "Gratitude": 2272,
      "pati": 2273,
      "thought": 2274,
      "thoughts": 2275,
      "images": 2276,
      "office": 2277,
      "memorial": 2278,
      "currently": 2279,
      "assistance": 2280,
      "drama": 2281,
      "continue": 2282,
      "habitat": 2283,
      "Most": 2284,
      "Off": 2285,
      "Unakku": 2286,
      "limit": 2287,
      "blooded": 2288,
      "...": 2289,
      "Feel": 2290,
      "distance": 2291,
      "powerful": 2292,
      "vachu": 2293,
      "popular": 2294,
      "dinner": 2295,
      "fruit": 2296,
      "anuppu": 2297,
      "recogn": 2298,
      "refers": 2299,
      "device": 2300,
      "computer": 2301,
      "temperature": 2302,
      "valuable": 2303,
      "characters": 2304,
      "Peace": 2305,
      "average": 2306,
      "delivery": 2307,
      "freedom": 2308,
      "senses": 2309,
      "tiny": 2310,
      "Enakum": 2311,
      "crisis": 2312,
      "ecosystem": 2313,
      "hobby": 2314,
      "sorry": 2315,
      "recreation": 2316,
      "vegetable": 2317,
      "exciting": 2318,
      "comfortable": 2319,
      "Direct": 2320,
      "Life": 2321,
      "books": 2322,
      "parents": 2323,
      "spring": 2324,
      "wrong": 2325,
      "osaurs": 2326,
      "Anything": 2327,
      "magnetic": 2328,
      "Financial": 2329,
      "Tanglish": 2330,
      "Urban": 2331,
      "rules": 2332,
      "tongue": 2333,
      "together": 2334,
      "ilosop": 2335,
      "vertebrate": 2336,
      "difficult": 2337,
      "Interesting": 2338,
      "varieties": 2339,
      "YouTube": 2340,
      "12": 2341,
      "14": 2342,
      "24": 2343,
      "30": 2344,
      "60": 2345,
      "90": 2346,
      "Action": 2347,
      "BI": 2348,
      "Bal": 2349,
      "But": 2350,
      "Beach": 2351,
      "Book": 2352,
      "Bhar": 2353,
      "BGM": 2354,
      "CR": 2355,
      "Cy": 2356,
      "Cor": 2357,
      "Cla": 2358,
      "Cultural": 2359,
      "Da": 2360,
      "Dep": 2361,
      "Dif": 2362,
      "Div": 2363,
      "DNA": 2364,
      "Emo": 2365,
      "Fr": 2366,
      "Food": 2367,
      "Fast": 2368,
      "Gre": 2369,
      "Gold": 2370,
      "Ho": 2371,
      "Hel": 2372,
      "II": 2373,
      "IP": 2374,
      "Ice": 2375,
      "Ke": 2376,
      "Kum": 2377,
      "Lit": 2378,
      "Lab": 2379,
      "Langu": 2380,
      "Mic": 2381,
      "Mah": 2382,
      "Miss": 2383,
      "Multi": 2384,
      "Na": 2385,
      "Nat": 2386,
      "Nag": 2387,
      "Or": 2388,
      "Over": 2389,
      "One": 2390,
      "PR": 2391,
      "Pa": 2392,
      "Pan": 2393,
      "Pat": 2394,
      "Part": 2395,
      "Pers": 2396,
      "Qu": 2397,
      "Ro": 2398,
      "Rom": 2399,
      "Ret": 2400,
      "Raj": 2401,
      "Sto": 2402,
      "Sil": 2403,
      "Sur": 2404,
      "Sust": 2405,
      "Self": 2406,
      "Sounds": 2407,
      "Space": 2408,
      "Summer": 2409,
      "TR": 2410,
      "TV": 2411,
      "To": 2412,
      "Tw": 2413,
      "UN": 2414,
      "Va": 2415,
      "Vi": 2416,
      "Valent": 2417,
      "Year": 2418,
      "ada": 2419,
      "bla": 2420,
      "bow": 2421,
      "bak": 2422,
      "brain": 2423,
      "bene": 2424,
      "cr": 2425,
      "cin": 2426,
      "cing": 2427,
      "cam": 2428,
      "cut": 2429,
      "coo": 2430,
      "cular": 2431,
      "cute": 2432,
      "cultural": 2433,
      "cument": 2434,
      "den": 2435,
      "dle": 2436,
      "dri": 2437,
      "done": 2438,
      "dhu": 2439,
      "danger": 2440,
      "detect": 2441,
      "eer": 2442,
      "eth": 2443,
      "fli": 2444,
      "four": 2445,
      "file": 2446,
      "ging": 2447,
      "gam": 2448,
      "gir": 2449,
      "gard": 2450,
      "graphy": 2451,
      "hop": 2452,
      "hot": 2453,
      "hos": 2454,
      "ier": 2455,
      "iday": 2456,
      "iency": 2457,
      "ja": 2458,
      "jay": 2459,
      "kh": 2460,
      "kin": 2461,
      "ken": 2462,
      "kids": 2463,
      "mis": 2464,
      "mit": 2465,
      "mam": 2466,
      "mand": 2467,
      "mus": 2468,
      "math": 2469,
      "mass": 2470,
      "mouth": 2471,
      "maybe": 2472,
      "nen": 2473,
      "nam": 2474,
      "ned": 2475,
      "nation": 2476,
      "oh": 2477,
      "oing": 2478,
      "ped": 2479,
      "push": 2480,
      "ral": 2481,
      "rate": 2482,
      "rice": 2483,
      "rout": 2484,
      "rition": 2485,
      "sir": 2486,
      "sof": 2487,
      "sid": 2488,
      "spo": 2489,
      "summer": 2490,
      "someday": 2491,
      "ton": 2492,
      "tic": 2493,
      "ted": 2494,
      "tom": 2495,
      "tro": 2496,
      "tas": 2497,
      "table": 2498,
      "tough": 2499,
      "takes": 2500,
      "van": 2501,
      "vil": 2502,
      "vac": 2503,
      "vior": 2504,
      "wise": 2505,
      "wings": 2506,
      "welfare": 2507,
      "xim": 2508,
      "xiety": 2509,
      "ys": 2510,
      "yar": 2511,
      "zero": 2512,
      "inking": 2513,
      "ints": 2514,
      "instru": 2515,
      "infrastructure": 2516,
      "anj": 2517,
      "ato": 2518,
      "atform": 2519,
      "atory": 2520,
      "rese": 2521,
      "reach": 2522,
      "remain": 2523,
      "relax": 2524,
      "repreneur": 2525,
      "ond": 2526,
      "era": 2527,
      "ership": 2528,
      "thod": 2529,
      "oration": 2530,
      "orical": 2531,
      "orrow": 2532,
      "orange": 2533,
      "orror": 2534,
      "ingers": 2535,
      "ouch": 2536,
      "amp": 2537,
      "stress": 2538,
      "stric": 2539,
      "stream": 2540,
      "stock": 2541,
      "lex": 2542,
      "andy": 2543,
      "edly": 2544,
      "omen": 2545,
      "tox": 2546,
      "cting": 2547,
      "chance": 2548,
      "chang": 2549,
      "charm": 2550,
      "laugh": 2551,
      "laws": 2552,
      "ental": 2553,
      "entrepreneur": 2554,
      "panni": 2555,
      "pannidu": 2556,
      "pannita": 2557,
      "roid": 2558,
      "root": 2559,
      "ross": 2560,
      "image": 2561,
      "sec": 2562,
      "sem": 2563,
      "sequ": 2564,
      "secre": 2565,
      "second": 2566,
      "olution": 2567,
      "asy": 2568,
      "ody": 2569,
      "odiversity": 2570,
      "igence": 2571,
      "igration": 2572,
      "owe": 2573,
      "unch": 2574,
      "uncertain": 2575,
      "unique": 2576,
      "forget": 2577,
      "liqu": 2578,
      "umn": 2579,
      "umer": 2580,
      "ull": 2581,
      "verse": 2582,
      "kept": 2583,
      "kekka": 2584,
      "truth": 2585,
      "abroad": 2586,
      "tered": 2587,
      "ppe": 2588,
      "pping": 2589,
      "exper": 2590,
      "extra": 2591,
      "exchange": 2592,
      "excellent": 2593,
      "divis": 2594,
      "direct": 2595,
      "ference": 2596,
      "essential": 2597,
      "mob": 2598,
      "hai": 2599,
      "havior": 2600,
      "conom": 2601,
      "propert": 2602,
      "profess": 2603,
      "perspe": 2604,
      "loans": 2605,
      "local": 2606,
      "usion": 2607,
      "estic": 2608,
      "meal": 2609,
      "method": 2610,
      "ters": 2611,
      "raph": 2612,
      "ravity": 2613,
      "within": 2614,
      "cier": 2615,
      "negot": 2616,
      "comedy": 2617,
      "pov": 2618,
      "points": 2619,
      "behavior": 2620,
      "decor": 2621,
      "option": 2622,
      "options": 2623,
      "resour": 2624,
      "ayan": 2625,
      "accept": 2626,
      "across": 2627,
      "sho": 2628,
      "short": 2629,
      "shop": 2630,
      "were": 2631,
      "plit": 2632,
      "Indeed": 2633,
      "outdo": 2634,
      "otic": 2635,
      "kudi": 2636,
      "doing": 2637,
      "doctor": 2638,
      "document": 2639,
      "agram": 2640,
      "avail": 2641,
      "ending": 2642,
      "rency": 2643,
      "plets": 2644,
      "thern": 2645,
      "therapy": 2646,
      "anga": 2647,
      "ills": 2648,
      "venient": 2649,
      "itecture": 2650,
      "ongoing": 2651,
      "elling": 2652,
      "ellam": 2653,
      "creating": 2654,
      "distribution": 2655,
      "forming": 2656,
      "formed": 2657,
      "ption": 2658,
      "foods": 2659,
      "osis": 2660,
      "osite": 2661,
      "prepar": 2662,
      "prevent": 2663,
      "rucial": 2664,
      "early": 2665,
      "actly": 2666,
      "iving": 2667,
      "apps": 2668,
      "Ann": 2669,
      "Antar": 2670,
      "Christ": 2671,
      "curry": 2672,
      "ups": 2673,
      "brary": 2674,
      "branch": 2675,
      "ustom": 2676,
      "ustri": 2677,
      "irement": 2678,
      "mark": 2679,
      "marks": 2680,
      "ishing": 2681,
      "nose": 2682,
      "novel": 2683,
      "pris": 2684,
      "prim": 2685,
      "pride": 2686,
      "underground": 2687,
      "type": 2688,
      "answ": 2689,
      "flu": 2690,
      "flow": 2691,
      "flower": 2692,
      "flesh": 2693,
      "itual": 2694,
      "getting": 2695,
      "organic": 2696,
      "cycle": 2697,
      "parts": 2698,
      "tax": 2699,
      "Early": 2700,
      "Stand": 2701,
      "Street": 2702,
      "smaller": 2703,
      "Neenga": 2704,
      "various": 2705,
      "interpre": 2706,
      "internet": 2707,
      "international": 2708,
      "carrying": 2709,
      "minutes": 2710,
      "ought": 2711,
      "career": 2712,
      "carefully": 2713,
      "Alright": 2714,
      "corn": 2715,
      "funny": 2716,
      "medicine": 2717,
      "regular": 2718,
      "naturally": 2719,
      "ekend": 2720,
      "farmers": 2721,
      "surface": 2722,
      "surprise": 2723,
      "ritical": 2724,
      "aditional": 2725,
      "larg": 2726,
      "largest": 2727,
      "control": 2728,
      "biography": 2729,
      "sphere": 2730,
      "topics": 2731,
      "improving": 2732,
      "humans": 2733,
      "paathutu": 2734,
      "paathale": 2735,
      "collection": 2736,
      "mode": 2737,
      "valle": 2738,
      "value": 2739,
      "legend": 2740,
      "Excellent": 2741,
      "service": 2742,
      "jective": 2743,
      "produce": 2744,
      "possibility": 2745,
      "Perfect": 2746,
      "Periyar": 2747,
      "policy": 2748,
      "birthday": 2749,
      "sleepy": 2750,
      "Arctic": 2751,
      "Grand": 2752,
      "droplets": 2753,
      "imaginary": 2754,
      "electron": 2755,
      "prompt": 2756,
      "inste": 2757,
      "instit": 2758,
      "concern": 2759,
      "concerns": 2760,
      "measured": 2761,
      "decide": 2762,
      "Engineer": 2763,
      "Bike": 2764,
      "Leg": 2765,
      "Lead": 2766,
      "covering": 2767,
      "emotions": 2768,
      "iversary": 2769,
      "limbs": 2770,
      "languages": 2771,
      "situations": 2772,
      "venture": 2773,
      "meeting": 2774,
      "expressing": 2775,
      "months": 2776,
      "private": 2777,
      "Market": 2778,
      "ailure": 2779,
      "crops": 2780,
      "digital": 2781,
      "governance": 2782,
      "harvest": 2783,
      "holiday": 2784,
      "vandh": 2785,
      "complex": 2786,
      "particular": 2787,
      "Should": 2788,
      "Weekend": 2789,
      "biggest": 2790,
      "craft": 2791,
      "easily": 2792,
      "purpose": 2793,
      "pathy": 2794,
      "onym": 2795,
      "achieve": 2796,
      "dishes": 2797,
      "afternoon": 2798,
      "temperatures": 2799,
      "countryside": 2800,
      "character": 2801,
      "shape": 2802,
      "injury": 2803,
      "returns": 2804,
      "ctica": 2805,
      "keeping": 2806,
      "cipline": 2807,
      "relationships": 2808,
      "saapidu": 2809,
      "opposite": 2810,
      "view": 2811,
      "thesis": 2812,
      "imming": 2813,
      "pogireengala": 2814,
      "climate": 2815,
      "flavors": 2816,
      "fields": 2817,
      "Metro": 2818,
      "Travel": 2819,
      "auto": 2820,
      "fashion": 2821,
      "journey": 2822,
      "wildlife": 2823,
      "increasing": 2824,
      "ological": 2825,
      "explain": 2826,
      "sugar": 2827,
      "restaurant": 2828,
      "synthesis": 2829,
      "organisms": 2830,
      "regulator": 2831,
      "involving": 2832,
      "responsibility": 2833,
      "substances": 2834,
      "symbols": 2835,
      "participate": 2836,
      "Education": 2837,
      "Electric": 2838,
      "Government": 2839,
      "ISRO": 2840,
      "Kindness": 2841,
      "Solar": 2842,
      "Traditional": 2843,
      "determin": 2844,
      "further": 2845,
      "kutty": 2846,
      "materials": 2847,
      "slowly": 2848,
      "village": 2849,
      "atmosphere": 2850,
      "reply": 2851,
      "WhatsApp": 2852,
      "accurate": 2853,
      "emergency": 2854,
      "employ": 2855,
      "hydrogen": 2856,
      "Office": 2857,
      "recognition": 2858,
      "Daily": 2859,
      "Depends": 2860,
      "Green": 2861,
      "Language": 2862,
      "Organ": 2863,
      "Sustainable": 2864,
      "Vijay": 2865,
      "Valentine": 2866,
      "benefit": 2867,
      "hosp": 2868,
      "routine": 2869,
      "tasks": 2870,
      "research": 2871,
      "reaching": 2872,
      "strict": 2873,
      "sequence": 2874,
      "liquid": 2875,
      "experim": 2876,
      "properties": 2877,
      "available": 2878,
      "Antarctica": 2879,
      "Engineering": 2880,
      "16": 2881,
      "18": 2882,
      "36": 2883,
      "40": 2884,
      "70": 2885,
      "AS": 2886,
      "Aw": 2887,
      "Ama": 2888,
      "ANG": 2889,
      "Bre": 2890,
      "Bet": 2891,
      "Bad": 2892,
      "Bab": 2893,
      "Bang": 2894,
      "Budget": 2895,
      "CS": 2896,
      "Can": 2897,
      "Cam": 2898,
      "Che": 2899,
      "City": 2900,
      "DA": 2901,
      "DF": 2902,
      "DS": 2903,
      "Di": 2904,
      "Din": 2905,
      "Don": 2906,
      "Dal": 2907,
      "Dar": 2908,
      "Del": 2909,
      "Did": 2910,
      "Dist": 2911,
      "Data": 2912,
      "EE": 2913,
      "EL": 2914,
      "EV": 2915,
      "Em": 2916,
      "Evening": 2917,
      "Einste": 2918,
      "Fre": 2919,
      "Fil": 2920,
      "Fru": 2921,
      "Formal": 2922,
      "French": 2923,
      "GP": 2924,
      "Ge": 2925,
      "Gener": 2926,
      "Hom": 2927,
      "Honesty": 2928,
      "House": 2929,
      "IR": 2930,
      "Id": 2931,
      "Je": 2932,
      "Job": 2933,
      "Ker": 2934,
      "Koda": 2935,
      "Lu": 2936,
      "Less": 2937,
      "Light": 2938,
      "Log": 2939,
      "MG": 2940,
      "MI": 2941,
      "MR": 2942,
      "Mon": 2943,
      "Mom": 2944,
      "Mun": 2945,
      "Mind": 2946,
      "Muru": 2947,
      "Nu": 2948,
      "Non": 2949,
      "Net": 2950,
      "Nut": 2951,
      "Nice": 2952,
      "National": 2953,
      "NPS": 2954,
      "Nayan": 2955,
      "OT": 2956,
      "Ocean": 2957,
      "PC": 2958,
      "PO": 2959,
      "Pu": 2960,
      "Pur": 2961,
      "Port": 2962,
      "Pri": 2963,
      "Pop": 2964,
      "Pos": 2965,
      "Phy": 2966,
      "Pract": 2967,
      "Power": 2968,
      "Pho": 2969,
      "Prec": 2970,
      "Rat": 2971,
      "Ris": 2972,
      "Rel": 2973,
      "Run": 2974,
      "Rest": 2975,
      "Sa": 2976,
      "Sp": 2977,
      "Ser": 2978,
      "Sal": 2979,
      "Spe": 2980,
      "Sha": 2981,
      "Sure": 2982,
      "Sci": 2983,
      "Sri": 2984,
      "Soc": 2985,
      "Sleep": 2986,
      "Special": 2987,
      "Safety": 2988,
      "Sai": 2989,
      "Screen": 2990,
      "Tele": 2991,
      "Tried": 2992,
      "Tax": 2993,
      "Thai": 2994,
      "Up": 2995,
      "Und": 2996,
      "Vin": 2997,
      "Vel": 2998,
      "Vol": 2999,
      "Winter": 3000,
      "Watch": 3001,
      "Yog": 3002,
      "Zero": 3003,
      "aku": 3004,
      "adays": 3005,
      "auth": 3006,
      "bes": 3007,
      "bed": 3008,
      "bro": 3009,
      "bul": 3010,
      "blo": 3011,
      "bay": 3012,
      "base": 3013,
      "bicy": 3014,
      "cat": 3015,
      "cod": 3016,
      "cud": 3017,
      "cult": 3018,
      "catch": 3019,
      "culation": 3020,
      "crust": 3021,
      "cident": 3022,
      "crucial": 3023,
      "custom": 3024,
      "dy": 3025,
      "dal": 3026,
      "dou": 3027,
      "dar": 3028,
      "ded": 3029,
      "dim": 3030,
      "dess": 3031,
      "dra": 3032,
      "dign": 3033,
      "dedu": 3034,
      "ef": 3035,
      "epp": 3036,
      "eyes": 3037,
      "econom": 3038,
      "fr": 3039,
      "far": 3040,
      "fol": 3041,
      "fig": 3042,
      "fically": 3043,
      "ffer": 3044,
      "fume": 3045,
      "firm": 3046,
      "fingers": 3047,
      "gth": 3048,
      "ged": 3049,
      "gery": 3050,
      "galuku": 3051,
      "gravity": 3052,
      "ham": 3053,
      "hur": 3054,
      "hous": 3055,
      "honest": 3056,
      "iate": 3057,
      "iveness": 3058,
      "iosity": 3059,
      "ji": 3060,
      "jum": 3061,
      "jud": 3062,
      "kal": 3063,
      "kkum": 3064,
      "lat": 3065,
      "lon": 3066,
      "mas": 3067,
      "mut": 3068,
      "mid": 3069,
      "mall": 3070,
      "might": 3071,
      "must": 3072,
      "meter": 3073,
      "munication": 3074,
      "money": 3075,
      "migration": 3076,
      "ng": 3077,
      "nel": 3078,
      "nath": 3079,
      "noun": 3080,
      "oid": 3081,
      "oper": 3082,
      "oint": 3083,
      "pic": 3084,
      "pand": 3085,
      "pig": 3086,
      "pun": 3087,
      "pid": 3088,
      "pay": 3089,
      "pical": 3090,
      "page": 3091,
      "pack": 3092,
      "rang": 3093,
      "rise": 3094,
      "radhu": 3095,
      "sli": 3096,
      "sna": 3097,
      "smo": 3098,
      "snow": 3099,
      "sell": 3100,
      "simple": 3101,
      "sports": 3102,
      "screen": 3103,
      "tu": 3104,
      "tal": 3105,
      "tall": 3106,
      "tight": 3107,
      "tip": 3108,
      "taste": 3109,
      "tank": 3110,
      "tissues": 3111,
      "touch": 3112,
      "ues": 3113,
      "uven": 3114,
      "ufact": 3115,
      "vi": 3116,
      "vation": 3117,
      "vap": 3118,
      "varen": 3119,
      "vitam": 3120,
      "wel": 3121,
      "yam": 3122,
      "yalty": 3123,
      "zy": 3124,
      "zz": 3125,
      "zen": 3126,
      "ina": 3127,
      "ined": 3128,
      "indi": 3129,
      "inction": 3130,
      "individ": 3131,
      "ancient": 3132,
      "anxiety": 3133,
      "atter": 3134,
      "attem": 3135,
      "attract": 3136,
      "ret": 3137,
      "reme": 3138,
      "repa": 3139,
      "rept": 3140,
      "recor": 3141,
      "recent": 3142,
      "reels": 3143,
      "reaction": 3144,
      "onal": 3145,
      "online": 3146,
      "ergy": 3147,
      "erry": 3148,
      "alum": 3149,
      "thunder": 3150,
      "orage": 3151,
      "outer": 3152,
      "isi": 3153,
      "istered": 3154,
      "ese": 3155,
      "esome": 3156,
      "eswar": 3157,
      "aram": 3158,
      "arter": 3159,
      "arily": 3160,
      "iting": 3161,
      "itage": 3162,
      "itness": 3163,
      "itely": 3164,
      "itself": 3165,
      "aman": 3166,
      "stat": 3167,
      "stren": 3168,
      "store": 3169,
      "states": 3170,
      "stars": 3171,
      "lete": 3172,
      "ica": 3173,
      "icate": 3174,
      "andi": 3175,
      "edible": 3176,
      "edding": 3177,
      "editing": 3178,
      "veg": 3179,
      "iri": 3180,
      "irs": 3181,
      "iry": 3182,
      "tock": 3183,
      "ilt": 3184,
      "illi": 3185,
      "ilgr": 3186,
      "ilities": 3187,
      "ilience": 3188,
      "theat": 3189,
      "ctu": 3190,
      "ctors": 3191,
      "ctivity": 3192,
      "cere": 3193,
      "ceed": 3194,
      "choo": 3195,
      "chedu": 3196,
      "dairy": 3197,
      "young": 3198,
      "labor": 3199,
      "roof": 3200,
      "roll": 3201,
      "imal": 3202,
      "imbat": 3203,
      "seas": 3204,
      "sever": 3205,
      "secon": 3206,
      "sector": 3207,
      "urn": 3208,
      "uram": 3209,
      "urban": 3210,
      "olly": 3211,
      "etry": 3212,
      ".\"\"\"": 3213,
      "aspect": 3214,
      "adh": 3215,
      "ado": 3216,
      "adphone": 3217,
      "adverb": 3218,
      "adjective": 3219,
      "igious": 3220,
      "utions": 3221,
      "engers": 3222,
      "uni": 3223,
      "unk": 3224,
      "units": 3225,
      "unaku": 3226,
      "lif": 3227,
      "lier": 3228,
      "library": 3229,
      "ulpt": 3230,
      "ulated": 3231,
      "lying": 3232,
      "iding": 3233,
      "kekum": 3234,
      "kelet": 3235,
      "trag": 3236,
      "true": 3237,
      "track": 3238,
      "trading": 3239,
      "tele": 3240,
      "heat": 3241,
      "heating": 3242,
      "heavy": 3243,
      "exactly": 3244,
      "diving": 3245,
      "fear": 3246,
      "feet": 3247,
      "mocra": 3248,
      "confl": 3249,
      "contain": 3250,
      "contribut": 3251,
      "provid": 3252,
      "projects": 3253,
      "program": 3254,
      "proceed": 3255,
      "perative": 3256,
      "lot": 3257,
      "loan": 3258,
      "look": 3259,
      "usually": 3260,
      "ester": 3261,
      "antasy": 3262,
      "terns": 3263,
      "rapid": 3264,
      "cious": 3265,
      "nee": 3266,
      "never": 3267,
      "poda": 3268,
      "pochu": 3269,
      "ateful": 3270,
      "rivers": 3271,
      "degre": 3272,
      "delete": 3273,
      "mentation": 3274,
      "open": 3275,
      "opening": 3276,
      "worth": 3277,
      "worries": 3278,
      "resh": 3279,
      "resolution": 3280,
      "resilience": 3281,
      "aces": 3282,
      "acle": 3283,
      "show": 3284,
      "showing": 3285,
      "web": 3286,
      "weight": 3287,
      "ples": 3288,
      "plication": 3289,
      "suffer": 3290,
      "fulness": 3291,
      "outside": 3292,
      "otta": 3293,
      "kup": 3294,
      "romantic": 3295,
      "white": 3296,
      "dog": 3297,
      "doctors": 3298,
      "aga": 3299,
      "avoid": 3300,
      "ender": 3301,
      "phants": 3302,
      "philosop": 3303,
      "nowadays": 3304,
      "interested": 3305,
      "ango": 3306,
      "angala": 3307,
      "useful": 3308,
      "ongal": 3309,
      "Environment": 3310,
      "paatha": 3311,
      "elligence": 3312,
      "cred": 3313,
      "creative": 3314,
      "display": 3315,
      "needs": 3316,
      "formula": 3317,
      "maj": 3318,
      "maari": 3319,
      "ptom": 3320,
      "oversight": 3321,
      "prec": 3322,
      "preference": 3323,
      "earlier": 3324,
      "uding": 3325,
      "udic": 3326,
      "ipuram": 3327,
      "ivation": 3328,
      "colour": 3329,
      "smart": 3330,
      "gym": 3331,
      "waterfall": 3332,
      "trying": 3333,
      "Anim": 3334,
      "experiences": 3335,
      "curious": 3336,
      "curring": 3337,
      "soil": 3338,
      "planes": 3339,
      "planned": 3340,
      "gene": 3341,
      "genetic": 3342,
      "oundaries": 3343,
      "ustry": 3344,
      "sych": 3345,
      "reading": 3346,
      "feels": 3347,
      "places": 3348,
      "rics": 3349,
      "ricultural": 3350,
      "ishna": 3351,
      "pannuva": 3352,
      "note": 3353,
      "price": 3354,
      "solid": 3355,
      "underwater": 3356,
      "desire": 3357,
      "Ungaluku": 3358,
      "affection": 3359,
      "cloud": 3360,
      "goals": 3361,
      "qualities": 3362,
      "Recent": 3363,
      "Recurring": 3364,
      "lightning": 3365,
      "flat": 3366,
      "flour": 3367,
      "flowing": 3368,
      "airport": 3369,
      "cave": 3370,
      "cape": 3371,
      "serve": 3372,
      "ichutu": 3373,
      "happiness": 3374,
      "built": 3375,
      "nature": 3376,
      "visual": 3377,
      "organized": 3378,
      "versatile": 3379,
      "parties": 3380,
      "taking": 3381,
      "expand": 3382,
      "State": 3383,
      "Still": 3384,
      "Stress": 3385,
      "insp": 3386,
      "extinction": 3387,
      "extreme": 3388,
      "commer": 3389,
      "interact": 3390,
      "aagum": 3391,
      "aaguthu": 3392,
      "cars": 3393,
      "carbon": 3394,
      "hydr": 3395,
      "minis": 3396,
      "minute": 3397,
      "adequ": 3398,
      "compounds": 3399,
      "elements": 3400,
      "manik": 3401,
      "manufact": 3402,
      "choice": 3403,
      "chocolate": 3404,
      "traits": 3405,
      "Three": 3406,
      "Thank": 3407,
      "Thought": 3408,
      "careful": 3409,
      "ension": 3410,
      "ensional": 3411,
      "temples": 3412,
      "All": 3413,
      "Headphone": 3414,
      "basics": 3415,
      "corpor": 3416,
      "function": 3417,
      "notes": 3418,
      "puzz": 3419,
      "intelligence": 3420,
      "registered": 3421,
      "surgery": 3422,
      "Comedy": 3423,
      "Communication": 3424,
      "calendar": 3425,
      "struct": 3426,
      "triangle": 3427,
      "buildings": 3428,
      "growth": 3429,
      "discussing": 3430,
      "Content": 3431,
      "bike": 3432,
      "donation": 3433,
      "groups": 3434,
      "preser": 3435,
      "spaces": 3436,
      "century": 3437,
      "central": 3438,
      "glacier": 3439,
      "overed": 3440,
      "invent": 3441,
      "irukeenga": 3442,
      "clock": 3443,
      "everywhere": 3444,
      "hole": 3445,
      "join": 3446,
      "moder": 3447,
      "practical": 3448,
      "scri": 3449,
      "sculpt": 3450,
      "sunrise": 3451,
      "difference": 3452,
      "supporting": 3453,
      "systems": 3454,
      "friendship": 3455,
      "ikanal": 3456,
      "legs": 3457,
      "Exam": 3458,
      "Produ": 3459,
      "Super": 3460,
      "breath": 3461,
      "breathing": 3462,
      "irundhen": 3463,
      "coastal": 3464,
      "fastest": 3465,
      "priority": 3466,
      "weekly": 3467,
      "weekend": 3468,
      "weekends": 3469,
      "clearly": 3470,
      "foot": 3471,
      "nutrition": 3472,
      "telling": 3473,
      "aayid": 3474,
      "charge": 3475,
      "worlds": 3476,
      "venuma": 3477,
      "players": 3478,
      "designs": 3479,
      "studying": 3480,
      "bird": 3481,
      "biryani": 3482,
      "milk": 3483,
      "mission": 3484,
      "trees": 3485,
      "treating": 3486,
      "celebrate": 3487,
      "celebrated": 3488,
      "uruv": 3489,
      "posit": 3490,
      "positive": 3491,
      "potu": 3492,
      "poture": 3493,
      "potential": 3494,
      "specifically": 3495,
      "Art": 3496,
      "Coimbat": 3497,
      "banana": 3498,
      "drop": 3499,
      "patience": 3500,
      "patterns": 3501,
      "video": 3502,
      "recipe": 3503,
      "adiku": 3504,
      "meaningful": 3505,
      "fraction": 3506,
      "handle": 3507,
      "promise": 3508,
      "promoting": 3509,
      "challenges": 3510,
      "heartbeat": 3511,
      "exists": 3512,
      "connection": 3513,
      "symptom": 3514,
      "irukkaangala": 3515,
      "continu": 3516,
      "Basket": 3517,
      "fiber": 3518,
      "finds": 3519,
      "fficient": 3520,
      "muah": 3521,
      "enjoyed": 3522,
      "roads": 3523,
      "ungs": 3524,
      "unger": 3525,
      "ungaluku": 3526,
      "condition": 3527,
      "photosynthesis": 3528,
      "generate": 3529,
      "News": 3530,
      "privately": 3531,
      "Current": 3532,
      "Season": 3533,
      "Second": 3534,
      "boat": 3535,
      "casional": 3536,
      "digest": 3537,
      "justice": 3538,
      "passengers": 3539,
      "silent": 3540,
      "vandha": 3541,
      "vandhu": 3542,
      "vehicles": 3543,
      "perfectly": 3544,
      "population": 3545,
      "approxim": 3546,
      "Healthy": 3547,
      "Carbon": 3548,
      "Industri": 3549,
      "Once": 3550,
      "Online": 3551,
      "cule": 3552,
      "dinosaurs": 3553,
      "giveness": 3554,
      "magical": 3555,
      "pora": 3556,
      "switch": 3557,
      "ught": 3558,
      "anuppi": 3559,
      "steps": 3560,
      "devotion": 3561,
      "achieving": 3562,
      "colorful": 3563,
      "computers": 3564,
      "Amma": 3565,
      "Being": 3566,
      "Blue": 3567,
      "Blink": 3568,
      "Calcul": 3569,
      "Platform": 3570,
      "Sunday": 3571,
      "floor": 3572,
      "million": 3573,
      "millions": 3574,
      "podcast": 3575,
      "shapes": 3576,
      "return": 3577,
      "rocks": 3578,
      "addition": 3579,
      "teacher": 3580,
      "beginning": 3581,
      "butterfly": 3582,
      "investing": 3583,
      "connected": 3584,
      "pudikumaa": 3585,
      "Agricultural": 3586,
      "Biryani": 3587,
      "Rameswar": 3588,
      "fitness": 3589,
      "globally": 3590,
      "mountains": 3591,
      "songs": 3592,
      "anniversary": 3593,
      "atoms": 3594,
      "itchen": 3595,
      "tools": 3596,
      "entertain": 3597,
      "rotating": 3598,
      "seeds": 3599,
      "combining": 3600,
      "companies": 3601,
      "appears": 3602,
      "occurs": 3603,
      "surrounded": 3604,
      "Improving": 3605,
      "emotional": 3606,
      "Android": 3607,
      "Friendship": 3608,
      "Strong": 3609,
      "Tirupati": 3610,
      "capable": 3611,
      "domestic": 3612,
      "savings": 3613,
      "relev": 3614,
      "receive": 3615,
      "requiring": 3616,
      "ambaram": 3617,
      "expected": 3618,
      "molecule": 3619,
      "society": 3620,
      "grammar": 3621,
      "kadaisi": 3622,
      "transportation": 3623,
      "focused": 3624,
      "paakuveengala": 3625,
      "paakuven": 3626,
      "confidence": 3627,
      "confidential": 3628,
      "accountability": 3629,
      "Drone": 3630,
      "ESCO": 3631,
      "Milk": 3632,
      "NRI": 3633,
      "Occasional": 3634,
      "Polit": 3635,
      "circle": 3636,
      "effect": 3637,
      "frozen": 3638,
      "heritage": 3639,
      "multiple": 3640,
      "opportunity": 3641,
      "viously": 3642,
      "initi": 3643,
      "including": 3644,
      "enakku": 3645,
      "children": 3646,
      "admire": 3647,
      "tracking": 3648,
      "exercise": 3649,
      "definitely": 3650,
      "quantity": 3651,
      "Instagram": 3652,
      "prepared": 3653,
      "apartment": 3654,
      "bridge": 3655,
      "clarify": 3656,
      "inspiring": 3657,
      "competition": 3658,
      "occasions": 3659,
      "monitor": 3660,
      "scientists": 3661,
      "Mostly": 3662,
      "Peaceful": 3663,
      "90s": 3664,
      "Balance": 3665,
      "Emotion": 3666,
      "Hope": 3667,
      "Keep": 3668,
      "Little": 3669,
      "Micro": 3670,
      "Naanum": 3671,
      "Natural": 3672,
      "Nagar": 3673,
      "Personal": 3674,
      "TRAI": 3675,
      "UNESCO": 3676,
      "black": 3677,
      "baked": 3678,
      "girl": 3679,
      "garden": 3680,
      "hoping": 3681,
      "mammal": 3682,
      "mandatory": 3683,
      "nena": 3684,
      "sides": 3685,
      "tropical": 3686,
      "instructions": 3687,
      "remains": 3688,
      "relaxation": 3689,
      "changing": 3690,
      "semma": 3691,
      "truthfully": 3692,
      "divisions": 3693,
      "mobile": 3694,
      "shoes": 3695,
      "outdoor": 3696,
      "kudippe": 3697,
      "primarily": 3698,
      "flowers": 3699,
      "valley": 3700,
      "electrons": 3701,
      "Leadership": 3702,
      "saapiduveenga": 3703,
      "employment": 3704,
      "Organic": 3705,
      "Better": 3706,
      "Dark": 3707,
      "Einstein": 3708,
      "Idli": 3709,
      "Kerala": 3710,
      "Kodaikanal": 3711,
      "Logic": 3712,
      "Munnar": 3713,
      "Murugan": 3714,
      "Nuclear": 3715,
      "OTT": 3716,
      "Popcorn": 3717,
      "Positive": 3718,
      "Photo": 3719,
      "Precision": 3720,
      "Risk": 3721,
      "Running": 3722,
      "Serious": 3723,
      "Science": 3724,
      "Under": 3725,
      "bicycle": 3726,
      "cuddle": 3727,
      "dimensional": 3728,
      "dessert": 3729,
      "dignity": 3730,
      "folio": 3731,
      "latest": 3732,
      "vapor": 3733,
      "attempt": 3734,
      "strength": 3735,
      "ilgrimage": 3736,
      "seconds": 3737,
      "ollywood": 3738,
      "kekumbodhu": 3739,
      "keleton": 3740,
      "tragedy": 3741,
      "mocracy": 3742,
      "rapidly": 3743,
      "degrees": 3744,
      "suffering": 3745,
      "manikku": 3746,
      "manufacturing": 3747,
      "Coimbatore": 3748,
      "approximately": 3749,
      "Industrial": 3750,
      "Rameswaram": 3751,
      "),": 3752,
      ").\"": 3753,
      "13": 3754,
      "15": 3755,
      "17": 3756,
      "1st": 3757,
      "2000": 3758,
      "38": 3759,
      "3D": 3760,
      "45": 3761,
      "400": 3762,
      "55": 3763,
      "500": 3764,
      "63": 3765,
      "Ac": 3766,
      "Ak": 3767,
      "Are": 3768,
      "Ast": 3769,
      "Aut": 3770,
      "Apart": 3771,
      "Astr": 3772,
      "Avo": 3773,
      "Aadi": 3774,
      "Amer": 3775,
      "Access": 3776,
      "Aadha": 3777,
      "Alex": 3778,
      "BS": 3779,
      "BT": 3780,
      "Bu": 3781,
      "Bha": 3782,
      "Best": 3783,
      "Bore": 3784,
      "Brain": 3785,
      "Border": 3786,
      "Body": 3787,
      "Bull": 3788,
      "Batter": 3789,
      "Burn": 3790,
      "Boundaries": 3791,
      "CA": 3792,
      "Cs": 3793,
      "Cer": 3794,
      "Cit": 3795,
      "Chat": 3796,
      "Cir": 3797,
      "Cod": 3798,
      "Care": 3799,
      "Call": 3800,
      "Cour": 3801,
      "Civ": 3802,
      "Cry": 3803,
      "Cap": 3804,
      "Cric": 3805,
      "Cred": 3806,
      "Cake": 3807,
      "Cana": 3808,
      "Clim": 3809,
      "Critical": 3810,
      "DM": 3811,
      "DP": 3812,
      "Do": 3813,
      "Des": 3814,
      "Day": 3815,
      "Dance": 3816,
      "Dog": 3817,
      "Doc": 3818,
      "Draw": 3819,
      "Ele": 3820,
      "Eld": 3821,
      "Ess": 3822,
      "Emer": 3823,
      "ECR": 3824,
      "EMI": 3825,
      "FA": 3826,
      "FX": 3827,
      "Fa": 3828,
      "Fi": 3829,
      "Fli": 3830,
      "Fore": 3831,
      "Farm": 3832,
      "Found": 3833,
      "Flight": 3834,
      "Free": 3835,
      "Fake": 3836,
      "Festival": 3837,
      "Failure": 3838,
      "FDF": 3839,
      "Fitness": 3840,
      "Go": 3841,
      "Gen": 3842,
      "Gam": 3843,
      "Get": 3844,
      "Gut": 3845,
      "Grou": 3846,
      "Global": 3847,
      "Ganga": 3848,
      "Guruv": 3849,
      "Hi": 3850,
      "Har": 3851,
      "Hand": 3852,
      "Hall": 3853,
      "Hot": 3854,
      "Hear": 3855,
      "Happ": 3856,
      "Honey": 3857,
      "Horror": 3858,
      "Hindi": 3859,
      "IL": 3860,
      "If": 3861,
      "Iy": 3862,
      "IMS": 3863,
      "Ja": 3864,
      "Jan": 3865,
      "Jour": 3866,
      "JEE": 3867,
      "Judic": 3868,
      "Kis": 3869,
      "Ked": 3870,
      "Kala": 3871,
      "Kong": 3872,
      "Kany": 3873,
      "Kap": 3874,
      "Kanch": 3875,
      "Kaver": 3876,
      "Kitchen": 3877,
      "Kollywood": 3878,
      "Lan": 3879,
      "List": 3880,
      "Lap": 3881,
      "Liqu": 3882,
      "Lives": 3883,
      "Lunch": 3884,
      "Me": 3885,
      "Man": 3886,
      "Mal": 3887,
      "Mes": 3888,
      "Ment": 3889,
      "Mus": 3890,
      "Mac": 3891,
      "Mag": 3892,
      "Math": 3893,
      "Mach": 3894,
      "Mud": 3895,
      "Make": 3896,
      "Maybe": 3897,
      "MANG": 3898,
      "NC": 3899,
      "Nor": 3900,
      "Now": 3901,
      "Nav": 3902,
      "Near": 3903,
      "Nations": 3904,
      "Nature": 3905,
      "Navy": 3906,
      "NSS": 3907,
      "OO": 3908,
      "Oh": 3909,
      "Ok": 3910,
      "Ola": 3911,
      "Oot": 3912,
      "Oru": 3913,
      "Open": 3914,
      "OMR": 3915,
      "Pi": 3916,
      "Py": 3917,
      "Pal": 3918,
      "Ple": 3919,
      "Pic": 3920,
      "Pure": 3921,
      "Pra": 3922,
      "Pres": 3923,
      "Pain": 3924,
      "Poll": 3925,
      "Paren": 3926,
      "Pula": 3927,
      "Plast": 3928,
      "PPF": 3929,
      "Pond": 3930,
      "PDS": 3931,
      "Pongal": 3932,
      "Pension": 3933,
      "Pilgrimage": 3934,
      "Qual": 3935,
      "RA": 3936,
      "RR": 3937,
      "Red": 3938,
      "Rah": 3939,
      "Rice": 3940,
      "Rich": 3941,
      "Ranj": 3942,
      "SA": 3943,
      "ST": 3944,
      "Sat": 3945,
      "Sen": 3946,
      "Sor": 3947,
      "Sar": 3948,
      "Sim": 3949,
      "Ste": 3950,
      "Smo": 3951,
      "Sho": 3952,
      "Same": 3953,
      "Spir": 3954,
      "Scient": 3955,
      "Sambar": 3956,
      "SIP": 3957,
      "Skin": 3958,
      "Split": 3959,
      "TC": 3960,
      "TI": 3961,
      "TS": 3962,
      "Ter": 3963,
      "Tom": 3964,
      "Try": 3965,
      "Train": 3966,
      "Teach": 3967,
      "Tata": 3968,
      "Taking": 3969,
      "Trying": 3970,
      "US": 3971,
      "Use": 3972,
      "UPS": 3973,
      "UMANG": 3974,
      "VR": 3975,
      "Ve": 3976,
      "Vo": 3977,
      "Ved": 3978,
      "Vast": 3979,
      "Voc": 3980,
      "Vari": 3981,
      "Vitam": 3982,
      "VFX": 3983,
      "Wild": 3984,
      "Writ": 3985,
      "When": 3986,
      "Women": 3987,
      "Yo": 3988,
      "ao": 3989,
      "ais": 3990,
      "aar": 3991,
      "aid": 3992,
      "aph": 3993,
      "aple": 3994,
      "ahead": 3995,
      "aandi": 3996,
      "bt": 3997,
      "bam": 3998,
      "bac": 3999,
      "bag": 4000,
      "bies": 4001,
      "bition": 4002,
      "bread": 4003,
      "brel": 4004,
      "bability": 4005,
      "boss": 4006,
      "budget": 4007,
      "chat": 4008,
      "cid": 4009,
      "cab": 4010,
      "cop": 4011,
      "cine": 4012,
      "cater": 4013,
      "core": 4014,
      "cup": 4015,
      "crow": 4016,
      "caste": 4017,
      "cows": 4018,
      "candy": 4019,
      "critical": 4020,
      "ckup": 4021,
      "covered": 4022,
      "dum": 4023,
      "dress": 4024,
      "dens": 4025,
      "drain": 4026,
      "dense": 4027,
      "eg": 4028,
      "ez": 4029,
      "even": 4030,
      "ego": 4031,
      "eating": 4032,
      "equality": 4033,
      "eology": 4034,
      "eye": 4035,
      "fid": 4036,
      "figh": 4037,
      "fight": 4038,
      "fos": 4039,
      "fable": 4040,
      "fire": 4041,
      "fway": 4042,
      "fense": 4043,
      "flex": 4044,
      "failure": 4045,
      "fantasy": 4046,
      "gat": 4047,
      "gon": 4048,
      "ges": 4049,
      "gic": 4050,
      "gel": 4051,
      "gad": 4052,
      "gri": 4053,
      "gment": 4054,
      "gain": 4055,
      "gap": 4056,
      "game": 4057,
      "gather": 4058,
      "gills": 4059,
      "hr": 4060,
      "hit": 4061,
      "hom": 4062,
      "hun": 4063,
      "hra": 4064,
      "hind": 4065,
      "hollow": 4066,
      "haling": 4067,
      "honey": 4068,
      "horror": 4069,
      "hunger": 4070,
      "ians": 4071,
      "ibi": 4072,
      "je": 4073,
      "jana": 4074,
      "jung": 4075,
      "km": 4076,
      "kit": 4077,
      "kel": 4078,
      "kart": 4079,
      "kireengala": 4080,
      "kaga": 4081,
      "lower": 4082,
      "lately": 4083,
      "loud": 4084,
      "lunch": 4085,
      "lungs": 4086,
      "mc": 4087,
      "mm": 4088,
      "ms": 4089,
      "mist": 4090,
      "mph": 4091,
      "mach": 4092,
      "muse": 4093,
      "mals": 4094,
      "mns": 4095,
      "mango": 4096,
      "nor": 4097,
      "nic": 4098,
      "nur": 4099,
      "nity": 4100,
      "nthu": 4101,
      "name": 4102,
      "naling": 4103,
      "nization": 4104,
      "nado": 4105,
      "oor": 4106,
      "oom": 4107,
      "oil": 4108,
      "ose": 4109,
      "ores": 4110,
      "ocolate": 4111,
      "pH": 4112,
      "pm": 4113,
      "pto": 4114,
      "pum": 4115,
      "pac": 4116,
      "pav": 4117,
      "pill": 4118,
      "ptop": 4119,
      "pick": 4120,
      "pute": 4121,
      "powe": 4122,
      "psych": 4123,
      "pkart": 4124,
      "rin": 4125,
      "rance": 4126,
      "rill": 4127,
      "rass": 4128,
      "rhy": 4129,
      "rative": 4130,
      "range": 4131,
      "rigation": 4132,
      "rishna": 4133,
      "sa": 4134,
      "sin": 4135,
      "san": 4136,
      "sou": 4137,
      "sam": 4138,
      "sad": 4139,
      "sus": 4140,
      "sour": 4141,
      "siz": 4142,
      "scare": 4143,
      "scal": 4144,
      "split": 4145,
      "schedu": 4146,
      "skeleton": 4147,
      "tat": 4148,
      "tor": 4149,
      "tel": 4150,
      "tun": 4151,
      "tast": 4152,
      "tap": 4153,
      "tely": 4154,
      "tree": 4155,
      "task": 4156,
      "tale": 4157,
      "talent": 4158,
      "uins": 4159,
      "uveenga": 4160,
      "vom": 4161,
      "vate": 4162,
      "vast": 4163,
      "viv": 4164,
      "vous": 4165,
      "vigation": 4166,
      "wis": 4167,
      "wall": 4168,
      "wage": 4169,
      "wire": 4170,
      "wins": 4171,
      "wns": 4172,
      "wedding": 4173,
      "xury": 4174,
      "yat": 4175,
      "yell": 4176,
      "yzing": 4177,
      "za": 4178,
      "zh": 4179,
      "zon": 4180,
      "zes": 4181,
      "zart": 4182,
      "zoo": 4183,
      "inal": 4184,
      "inte": 4185,
      "insu": 4186,
      "inner": 4187,
      "inator": 4188,
      "intake": 4189,
      "infection": 4190,
      "incident": 4191,
      "ane": 4192,
      "anan": 4193,
      "anam": 4194,
      "atic": 4195,
      "ativity": 4196,
      "atives": 4197,
      "reve": 4198,
      "redi": 4199,
      "repl": 4200,
      "revis": 4201,
      "recomm": 4202,
      "remed": 4203,
      "recover": 4204,
      "recycling": 4205,
      "reviv": 4206,
      "encla": 4207,
      "enced": 4208,
      "oni": 4209,
      "onies": 4210,
      "onial": 4211,
      "eral": 4212,
      "alg": 4213,
      "ali": 4214,
      "alone": 4215,
      "align": 4216,
      "alright": 4217,
      "thm": 4218,
      "thick": 4219,
      "thrust": 4220,
      "those": 4221,
      "ora": 4222,
      "org": 4223,
      "orit": 4224,
      "oric": 4225,
      "orig": 4226,
      "orph": 4227,
      "ingredi": 4228,
      "oura": 4229,
      "ouds": 4230,
      "oufla": 4231,
      "ison": 4232,
      "ising": 4233,
      "ises": 4234,
      "isure": 4235,
      "isine": 4236,
      "island": 4237,
      "escape": 4238,
      "arath": 4239,
      "arnath": 4240,
      "arrang": 4241,
      "itter": 4242,
      "itary": 4243,
      "itals": 4244,
      "amph": 4245,
      "amps": 4246,
      "amental": 4247,
      "amorph": 4248,
      "ionship": 4249,
      "stu": 4250,
      "stom": 4251,
      "stop": 4252,
      "stery": 4253,
      "stadi": 4254,
      "straw": 4255,
      "storage": 4256,
      "stacle": 4257,
      "staple": 4258,
      "stores": 4259,
      "lement": 4260,
      "leap": 4261,
      "leaf": 4262,
      "leisure": 4263,
      "iche": 4264,
      "icop": 4265,
      "icating": 4266,
      "icism": 4267,
      "anda": 4268,
      "andra": 4269,
      "aakuren": 4270,
      "vech": 4271,
      "ominator": 4272,
      "iram": 4273,
      "iritual": 4274,
      "irrigation": 4275,
      "told": 4276,
      "tocol": 4277,
      "took": 4278,
      "ils": 4279,
      "iles": 4280,
      "ilization": 4281,
      "elm": 4282,
      "elam": 4283,
      "panish": 4284,
      "panels": 4285,
      "pansion": 4286,
      "theme": 4287,
      "theater": 4288,
      "theory": 4289,
      "ctives": 4290,
      "ceiving": 4291,
      "chrom": 4292,
      "chos": 4293,
      "chitecture": 4294,
      "daugh": 4295,
      "laama": 4296,
      "lazy": 4297,
      "laptop": 4298,
      "ently": 4299,
      "entrance": 4300,
      "pannen": 4301,
      "pannireengala": 4302,
      "rote": 4303,
      "rope": 4304,
      "rolo": 4305,
      "rocer": 4306,
      "roles": 4307,
      "rovil": 4308,
      "impress": 4309,
      "seven": 4310,
      "sets": 4311,
      "seek": 4312,
      "select": 4313,
      "ets": 4314,
      "etics": 4315,
      "ettin": 4316,
      "asam": 4317,
      "asive": 4318,
      "asso": 4319,
      "aspora": 4320,
      "irum": 4321,
      "irudh": 4322,
      "irunthu": 4323,
      "adds": 4324,
      "adventure": 4325,
      "igma": 4326,
      "igai": 4327,
      "uten": 4328,
      "utney": 4329,
      "engines": 4330,
      "enguins": 4331,
      "aree": 4332,
      "ares": 4333,
      "unak": 4334,
      "unities": 4335,
      "unadu": 4336,
      "pannuchu": 4337,
      "force": 4338,
      "liber": 4339,
      "lived": 4340,
      "lift": 4341,
      "umari": 4342,
      "umably": 4343,
      "uly": 4344,
      "ulary": 4345,
      "ided": 4346,
      "idity": 4347,
      "idance": 4348,
      "idambaram": 4349,
      "keenga": 4350,
      "kekku": 4351,
      "kekk": 4352,
      "naith": 4353,
      "naanum": 4354,
      "naalai": 4355,
      "navigation": 4356,
      "tries": 4357,
      "trap": 4358,
      "trade": 4359,
      "trict": 4360,
      "abho": 4361,
      "absor": 4362,
      "abulary": 4363,
      "tee": 4364,
      "tein": 4365,
      "teenga": 4366,
      "heard": 4367,
      "exc": 4368,
      "expl": 4369,
      "expansion": 4370,
      "diet": 4371,
      "diag": 4372,
      "dives": 4373,
      "diox": 4374,
      "ferent": 4375,
      "gebra": 4376,
      "essings": 4377,
      "peare": 4378,
      "peyar": 4379,
      "move": 4380,
      "mote": 4381,
      "mother": 4382,
      "hake": 4383,
      "hack": 4384,
      "having": 4385,
      "ighbor": 4386,
      "conut": 4387,
      "concent": 4388,
      "convent": 4389,
      "convert": 4390,
      "convenient": 4391,
      "conserve": 4392,
      "protocol": 4393,
      "perman": 4394,
      "percent": 4395,
      "perfume": 4396,
      "perceiving": 4397,
      "loo": 4398,
      "loom": 4399,
      "lover": 4400,
      "lock": 4401,
      "loved": 4402,
      "loyalty": 4403,
      "usage": 4404,
      "estions": 4405,
      "estates": 4406,
      "ahh": 4407,
      "aham": 4408,
      "meat": 4409,
      "meals": 4410,
      "mechan": 4411,
      "anta": 4412,
      "antonym": 4413,
      "territ": 4414,
      "allow": 4415,
      "ray": 4416,
      "race": 4417,
      "raper": 4418,
      "cip": 4419,
      "cies": 4420,
      "cium": 4421,
      "necess": 4422,
      "neighbor": 4423,
      "compla": 4424,
      "combo": 4425,
      "composition": 4426,
      "pore": 4427,
      "poth": 4428,
      "poor": 4429,
      "pothu": 4430,
      "pogu": 4431,
      "poetry": 4432,
      "polaama": 4433,
      "poirum": 4434,
      "ategy": 4435,
      "bee": 4436,
      "been": 4437,
      "bear": 4438,
      "becoming": 4439,
      "death": 4440,
      "defic": 4441,
      "detox": 4442,
      "deposit": 4443,
      "democracy": 4444,
      "quiet": 4445,
      "quakes": 4446,
      "quarter": 4447,
      "result": 4448,
      "reserve": 4449,
      "arts": 4450,
      "artif": 4451,
      "istics": 4452,
      "istency": 4453,
      "ayur": 4454,
      "acknowledge": 4455,
      "ourism": 4456,
      "shi": 4457,
      "shan": 4458,
      "shall": 4459,
      "shine": 4460,
      "shif": 4461,
      "shown": 4462,
      "shock": 4463,
      "shopp": 4464,
      "wear": 4465,
      "webs": 4466,
      "sust": 4467,
      "such": 4468,
      "Incre": 4469,
      "Insur": 4470,
      "Income": 4471,
      "Invest": 4472,
      "Independ": 4473,
      "Infrastructure": 4474,
      "iceber": 4475,
      "restoration": 4476,
      "outcome": 4477,
      "ema": 4478,
      "emb": 4479,
      "emade": 4480,
      "empathy": 4481,
      "romance": 4482,
      "while": 4483,
      "whelm": 4484,
      "dogs": 4485,
      "dosa": 4486,
      "ager": 4487,
      "aging": 4488,
      "agent": 4489,
      "again": 4490,
      "agree": 4491,
      "agraph": 4492,
      "timing": 4493,
      "ended": 4494,
      "rences": 4495,
      "athu": 4496,
      "helicop": 4497,
      "phony": 4498,
      "aster": 4499,
      "aternity": 4500,
      "hered": 4501,
      "helped": 4502,
      "cano": 4503,
      "index": 4504,
      "industry": 4505,
      "indicating": 4506,
      "angel": 4507,
      "angles": 4508,
      "illama": 4509,
      "ideally": 4510,
      "venue": 4511,
      "paper": 4512,
      "creates": 4513,
      "disapp": 4514,
      "discover": 4515,
      "discipline": 4516,
      "discharge": 4517,
      "dispute": 4518,
      "ifi": 4519,
      "ifies": 4520,
      "ifier": 4521,
      "oose": 4522,
      "worked": 4523,
      "map": 4524,
      "makh": 4525,
      "ptation": 4526,
      "ptions": 4527,
      "ptutu": 4528,
      "bye": 4529,
      "anytime": 4530,
      "cket": 4531,
      "osome": 4532,
      "osedly": 4533,
      "prey": 4534,
      "previously": 4535,
      "ears": 4536,
      "earphone": 4537,
      "udent": 4538,
      "acts": 4539,
      "actually": 4540,
      "iva": 4541,
      "colors": 4542,
      "colonies": 4543,
      "apple": 4544,
      "speak": 4545,
      "watercraft": 4546,
      "Ancient": 4547,
      "Anirudh": 4548,
      "Chocolate": 4549,
      "Chandra": 4550,
      "Chettin": 4551,
      "Chidambaram": 4552,
      "arms": 4553,
      "apdi": 4554,
      "apadh": 4555,
      "away": 4556,
      "awesome": 4557,
      "currency": 4558,
      "soon": 4559,
      "plane": 4560,
      "upon": 4561,
      "ards": 4562,
      "due": 4563,
      "ductor": 4564,
      "sses": 4565,
      "ssical": 4566,
      "akumari": 4567,
      "bring": 4568,
      "brilli": 4569,
      "knows": 4570,
      "mars": 4571,
      "marking": 4572,
      "marine": 4573,
      "irukkaa": 4574,
      "irukkum": 4575,
      "irukkural": 4576,
      "berry": 4577,
      "bernation": 4578,
      "rica": 4579,
      "rich": 4580,
      "ricane": 4581,
      "ignar": 4582,
      "They": 4583,
      "obstacle": 4584,
      "prime": 4585,
      "sold": 4586,
      "solving": 4587,
      "solradhu": 4588,
      "desk": 4589,
      "desert": 4590,
      "desired": 4591,
      "deserve": 4592,
      "izen": 4593,
      "izza": 4594,
      "Unique": 4595,
      "United": 4596,
      "Unforget": 4597,
      "affect": 4598,
      "cles": 4599,
      "clut": 4600,
      "click": 4601,
      "clouds": 4602,
      "goes": 4603,
      "match": 4604,
      "moral": 4605,
      "Reading": 4606,
      "Recycling": 4607,
      "Remote": 4608,
      "blessings": 4609,
      "lightbul": 4610,
      "flows": 4611,
      "aircraft": 4612,
      "airplane": 4613,
      "case": 4614,
      "cake": 4615,
      "cafe": 4616,
      "causing": 4617,
      "caught": 4618,
      "icherry": 4619,
      "gets": 4620,
      "kshake": 4621,
      "natic": 4622,
      "ficult": 4623,
      "grass": 4624,
      "gratitude": 4625,
      "grateful": 4626,
      "ketu": 4627,
      "expens": 4628,
      "Student": 4629,
      "extending": 4630,
      "commute": 4631,
      "varu": 4632,
      "varies": 4633,
      "varudhu": 4634,
      "varai": 4635,
      "internal": 4636,
      "aagud": 4637,
      "aaguven": 4638,
      "carry": 4639,
      "cargo": 4640,
      "carrot": 4641,
      "carries": 4642,
      "hype": 4643,
      "hygi": 4644,
      "hymns": 4645,
      "othie": 4646,
      "edukk": 4647,
      "compares": 4648,
      "eled": 4649,
      "element": 4650,
      "myth": 4651,
      "manip": 4652,
      "cheap": 4653,
      "checkup": 4654,
      "traction": 4655,
      "healthcare": 4656,
      "whole": 4657,
      "Then": 4658,
      "Ther": 4659,
      "Thirukkural": 4660,
      "thank": 4661,
      "thanks": 4662,
      "rainy": 4663,
      "rainfall": 4664,
      "rainbow": 4665,
      "Almost": 4666,
      "Alco": 4667,
      "Healing": 4668,
      "functions": 4669,
      "meditation": 4670,
      "medium": 4671,
      "notice": 4672,
      "count": 4673,
      "countries": 4674,
      "farms": 4675,
      "ially": 4676,
      "surpris": 4677,
      "processing": 4678,
      "processes": 4679,
      "procession": 4680,
      "Comfort": 4681,
      "called": 4682,
      "calculation": 4683,
      "Imm": 4684,
      "grown": 4685,
      "numer": 4686,
      "starting": 4687,
      "startup": 4688,
      "startups": 4689,
      "Constru": 4690,
      "Convenient": 4691,
      "Confid": 4692,
      "biology": 4693,
      "biodiversity": 4694,
      "biotic": 4695,
      "biological": 4696,
      "forehead": 4697,
      "spin": 4698,
      "spider": 4699,
      "spiritual": 4700,
      "strating": 4701,
      "protect": 4702,
      "proteins": 4703,
      "protecting": 4704,
      "problems": 4705,
      "Noise": 4706,
      "center": 4707,
      "centers": 4708,
      "glasses": 4709,
      "minded": 4710,
      "mindset": 4711,
      "pond": 4712,
      "pons": 4713,
      "invasive": 4714,
      "religious": 4715,
      "ometry": 4716,
      "consistent": 4717,
      "conscious": 4718,
      "paathirukken": 4719,
      "colleag": 4720,
      "collections": 4721,
      "understandably": 4722,
      "Dec": 4723,
      "Dev": 4724,
      "Deep": 4725,
      "everyone": 4726,
      "modifies": 4727,
      "rising": 4728,
      "scen": 4729,
      "score": 4730,
      "scary": 4731,
      "scene": 4732,
      "scraper": 4733,
      "sunshine": 4734,
      "letters": 4735,
      "traditions": 4736,
      "differences": 4737,
      "moves": 4738,
      "World": 4739,
      "ikaram": 4740,
      "nets": 4741,
      "network": 4742,
      "legal": 4743,
      "legedly": 4744,
      "Extre": 4745,
      "Exerc": 4746,
      "Pros": 4747,
      "Progress": 4748,
      "Protein": 4749,
      "Sub": 4750,
      "Subs": 4751,
      "Success": 4752,
      "kai": 4753,
      "sweets": 4754,
      "irundhu": 4755,
      "physically": 4756,
      "believing": 4757,
      "claim": 4758,
      "historical": 4759,
      "lands": 4760,
      "nuclear": 4761,
      "tware": 4762,
      "implementation": 4763,
      "transition": 4764,
      "transfer": 4765,
      "translate": 4766,
      "concepts": 4767,
      "product": 4768,
      "production": 4769,
      "products": 4770,
      "AIIMS": 4771,
      "Philosop": 4772,
      "Youth": 4773,
      "cells": 4774,
      "event": 4775,
      "falling": 4776,
      "kespeare": 4777,
      "poly": 4778,
      "ionally": 4779,
      "members": 4780,
      "playground": 4781,
      "Soil": 4782,
      "Soci": 4783,
      "aurant": 4784,
      "birth": 4785,
      "birds": 4786,
      "flags": 4787,
      "gestures": 4788,
      "military": 4789,
      "park": 4790,
      "paration": 4791,
      "parotta": 4792,
      "paragraph": 4793,
      "treatment": 4794,
      "treatments": 4795,
      "uruchu": 4796,
      "urukeenga": 4797,
      "arently": 4798,
      "poses": 4799,
      "potato": 4800,
      "stronger": 4801,
      "Archa": 4802,
      "Architecture": 4803,
      "Covid": 4804,
      "Coastal": 4805,
      "Coorg": 4806,
      "clean": 4807,
      "flying": 4808,
      "factors": 4809,
      "listen": 4810,
      "videos": 4811,
      "watching": 4812,
      "anai": 4813,
      "ankly": 4814,
      "aried": 4815,
      "imagination": 4816,
      "seeking": 4817,
      "estivals": 4818,
      "specialty": 4819,
      "assistant": 4820,
      "Colonial": 4821,
      "bargain": 4822,
      "barrass": 4823,
      "balls": 4824,
      "drink": 4825,
      "drinking": 4826,
      "fractions": 4827,
      "foundation": 4828,
      "guess": 4829,
      "guaran": 4830,
      "guidance": 4831,
      "hands": 4832,
      "jobs": 4833,
      "padam": 4834,
      "padiche": 4835,
      "pollin": 4836,
      "pollut": 4837,
      "sentence": 4838,
      "sentences": 4839,
      "sollura": 4840,
      "virt": 4841,
      "instant": 4842,
      "instinct": 4843,
      "concert": 4844,
      "decade": 4845,
      "decision": 4846,
      "decided": 4847,
      "subject": 4848,
      "subscri": 4849,
      "submarine": 4850,
      "symphony": 4851,
      "continent": 4852,
      "continents": 4853,
      "Biology": 4854,
      "Biodiversity": 4855,
      "Mozart": 4856,
      "Unaku": 4857,
      "Unakaga": 4858,
      "bones": 4859,
      "bonded": 4860,
      "fficiency": 4861,
      "mug": 4862,
      "paakuren": 4863,
      "simile": 4864,
      "enjoyment": 4865,
      "conversion": 4866,
      "conversations": 4867,
      "supernatural": 4868,
      "photos": 4869,
      "photography": 4870,
      "periodic": 4871,
      "generation": 4872,
      "generations": 4873,
      "expression": 4874,
      "expressed": 4875,
      "tribute": 4876,
      "classic": 4877,
      "privacy": 4878,
      "2020": 4879,
      "2025": 4880,
      "Advan": 4881,
      "Adyar": 4882,
      "Adventure": 4883,
      "Airport": 4884,
      "Airtel": 4885,
      "Apple": 4886,
      "Curd": 4887,
      "Currency": 4888,
      "Curiosity": 4889,
      "Marina": 4890,
      "board": 4891,
      "bohydr": 4892,
      "born": 4893,
      "borrow": 4894,
      "crop": 4895,
      "cross": 4896,
      "digits": 4897,
      "distur": 4898,
      "distinct": 4899,
      "finity": 4900,
      "finance": 4901,
      "holds": 4902,
      "higher": 4903,
      "highway": 4904,
      "passed": 4905,
      "passage": 4906,
      "salna": 4907,
      "salary": 4908,
      "salty": 4909,
      "salaried": 4910,
      "saaptutu": 4911,
      "silk": 4912,
      "silver": 4913,
      "saying": 4914,
      "vachirukken": 4915,
      "vachurukeenga": 4916,
      "warar": 4917,
      "aleesh": 4918,
      "towards": 4919,
      "peaceful": 4920,
      "complete": 4921,
      "completely": 4922,
      "populated": 4923,
      "pudikkum": 4924,
      "Carnatic": 4925,
      "Index": 4926,
      "Indoor": 4927,
      "Only": 4928,
      "Paris": 4929,
      "cuit": 4930,
      "cuisine": 4931,
      "easy": 4932,
      "easier": 4933,
      "fruits": 4934,
      "given": 4935,
      "gases": 4936,
      "melody": 4937,
      "ocker": 4938,
      "pesa": 4939,
      "purifier": 4940,
      "pathi": 4941,
      "swallowing": 4942,
      "swimming": 4943,
      "virus": 4944,
      "angered": 4945,
      "leads": 4946,
      "leader": 4947,
      "leading": 4948,
      "levels": 4949,
      "ictably": 4950,
      "ctively": 4951,
      "pannalaama": 4952,
      "achievement": 4953,
      "values": 4954,
      "breakfast": 4955,
      "Ambed": 4956,
      "Blood": 4957,
      "Calendar": 4958,
      "Growth": 4959,
      "Karth": 4960,
      "Medical": 4961,
      "Meditation": 4962,
      "Medicine": 4963,
      "People": 4964,
      "Plants": 4965,
      "cules": 4966,
      "equals": 4967,
      "equator": 4968,
      "freely": 4969,
      "float": 4970,
      "harmful": 4971,
      "harmony": 4972,
      "hardest": 4973,
      "metaph": 4974,
      "millenn": 4975,
      "podu": 4976,
      "sensation": 4977,
      "volution": 4978,
      "volume": 4979,
      "volcano": 4980,
      "yeah": 4981,
      "injured": 4982,
      "analys": 4983,
      "analyzing": 4984,
      "architecture": 4985,
      "rocket": 4986,
      "teams": 4987,
      "teachers": 4988,
      "headphone": 4989,
      "ciples": 4990,
      "posting": 4991,
      "beats": 4992,
      "accounts": 4993,
      "coldest": 4994,
      "fictional": 4995,
      "Needs": 4996,
      "certainly": 4997,
      "investment": 4998,
      "considering": 4999,
      "consideration": 5000,
      "political": 5001,
      "aayiducha": 5002,
      "saapteenga": 5003,
      "Birthday": 5004,
      "BigBasket": 5005,
      "Discipline": 5006,
      "Enaku": 5007,
      "Higher": 5008,
      "Team": 5009,
      "Tech": 5010,
      "Window": 5011,
      "Windows": 5012,
      "batter": 5013,
      "crisp": 5014,
      "ecution": 5015,
      "filter": 5016,
      "hobbies": 5017,
      "narrow": 5018,
      "narrative": 5019,
      "penalty": 5020,
      "peninsu": 5021,
      "plot": 5022,
      "running": 5023,
      "views": 5024,
      "winds": 5025,
      "yaar": 5026,
      "yaaru": 5027,
      "recreational": 5028,
      "reasoning": 5029,
      "reasonable": 5030,
      "these": 5031,
      "panrenga": 5032,
      "enterprise": 5033,
      "immunity": 5034,
      "textures": 5035,
      "excited": 5036,
      "dividing": 5037,
      "combined": 5038,
      "company": 5039,
      "companionship": 5040,
      "dependency": 5041,
      "Internet": 5042,
      "climbing": 5043,
      "surrounding": 5044,
      "surroundings": 5045,
      "Improve": 5046,
      "improvements": 5047,
      "trending": 5048,
      "businesses": 5049,
      "field": 5050,
      "vaanganum": 5051,
      "Auto": 5052,
      "Aurovil": 5053,
      "Andhra": 5054,
      "Dhan": 5055,
      "Dhoni": 5056,
      "Force": 5057,
      "Forgiveness": 5058,
      "Friends": 5059,
      "History": 5060,
      "Historical": 5061,
      "Historic": 5062,
      "Respect": 5063,
      "Respons": 5064,
      "Visited": 5065,
      "audi": 5066,
      "capital": 5067,
      "cooker": 5068,
      "cookie": 5069,
      "fascin": 5070,
      "facing": 5071,
      "facility": 5072,
      "fairy": 5073,
      "journal": 5074,
      "nalla": 5075,
      "single": 5076,
      "warming": 5077,
      "increase": 5078,
      "require": 5079,
      "urger": 5080,
      "advice": 5081,
      "umentary": 5082,
      "identity": 5083,
      "exams": 5084,
      "explaining": 5085,
      "expecting": 5086,
      "motor": 5087,
      "motivation": 5088,
      "molecules": 5089,
      "performance": 5090,
      "anticip": 5091,
      "nearby": 5092,
      "suggest": 5093,
      "supply": 5094,
      "supplement": 5095,
      "restaurants": 5096,
      "kudukk": 5097,
      "kudutha": 5098,
      "predator": 5099,
      "predators": 5100,
      "synonym": 5101,
      "Regional": 5102,
      "organize": 5103,
      "skyscraper": 5104,
      "kadai": 5105,
      "beliefs": 5106,
      "transporting": 5107,
      "forestation": 5108,
      "focusing": 5109,
      "responses": 5110,
      "substance": 5111,
      "After": 5112,
      "Africa": 5113,
      "Asia": 5114,
      "Drama": 5115,
      "Forest": 5116,
      "Focus": 5117,
      "Hub": 5118,
      "Huge": 5119,
      "Hybrid": 5120,
      "Minimal": 5121,
      "NGO": 5122,
      "NRE": 5123,
      "Preparation": 5124,
      "Passport": 5125,
      "Swimming": 5126,
      "brave": 5127,
      "ixed": 5128,
      "juicy": 5129,
      "lucky": 5130,
      "multiplication": 5131,
      "opportunities": 5132,
      "painting": 5133,
      "wheeled": 5134,
      "initially": 5135,
      "inclusion": 5136,
      "reliable": 5137,
      "representing": 5138,
      "adhaan": 5139,
      "livestock": 5140,
      "exercises": 5141,
      "located": 5142,
      "raising": 5143,
      "raised": 5144,
      "definition": 5145,
      "quantities": 5146,
      "acidic": 5147,
      "pleasure": 5148,
      "pleasant": 5149,
      "illnesses": 5150,
      "principles": 5151,
      "describing": 5152,
      "describes": 5153,
      "mathematical": 5154,
      "mathematics": 5155,
      "Startup": 5156,
      "inspiration": 5157,
      "varuma": 5158,
      "competitive": 5159,
      "occasionally": 5160,
      "Consistent": 5161,
      "Consumer": 5162,
      "monitoring": 5163,
      "attended": 5164,
      "scientific": 5165,
      "patients": 5166,
      "difficulties": 5167,
      "Bharat": 5168,
      "Bharathi": 5169,
      "BGMI": 5170,
      "Cycling": 5171,
      "Corpor": 5172,
      "Classical": 5173,
      "Different": 5174,
      "Difficult": 5175,
      "France": 5176,
      "IIM": 5177,
      "IIT": 5178,
      "IPL": 5179,
      "Kumar": 5180,
      "Labour": 5181,
      "Mahal": 5182,
      "Multiple": 5183,
      "Pannu": 5184,
      "Paneer": 5185,
      "Patience": 5186,
      "Questions": 5187,
      "Romance": 5188,
      "Retirement": 5189,
      "Rajg": 5190,
      "Stoicism": 5191,
      "Silapadh": 5192,
      "Today": 5193,
      "Two": 5194,
      "Twitter": 5195,
      "bowling": 5196,
      "crush": 5197,
      "cinema": 5198,
      "camera": 5199,
      "cooperative": 5200,
      "denominator": 5201,
      "drive": 5202,
      "detecting": 5203,
      "ethics": 5204,
      "flix": 5205,
      "flies": 5206,
      "games": 5207,
      "kinetic": 5208,
      "mistry": 5209,
      "muscular": 5210,
      "soft": 5211,
      "ticket": 5212,
      "teddy": 5213,
      "tomorrow": 5214,
      "vaccine": 5215,
      "stocks": 5216,
      "toxic": 5217,
      "entrepreneurs": 5218,
      "secure": 5219,
      "secretly": 5220,
      "oween": 5221,
      "uncertainty": 5222,
      "professor": 5223,
      "professional": 5224,
      "perspective": 5225,
      "perspectives": 5226,
      "negotiate": 5227,
      "povaa": 5228,
      "resource": 5229,
      "resources": 5230,
      "acceptance": 5231,
      "documentary": 5232,
      "documentaries": 5233,
      "thernmost": 5234,
      "preparing": 5235,
      "preparation": 5236,
      "preventing": 5237,
      "Annual": 5238,
      "Christmas": 5239,
      "answer": 5240,
      "answers": 5241,
      "Standard": 5242,
      "interpret": 5243,
      "interpreting": 5244,
      "regularly": 5245,
      "larger": 5246,
      "largely": 5247,
      "institutions": 5248,
      "Legend": 5249,
      "harvesting": 5250,
      "vandhadhu": 5251,
      "vandhuruchu": 5252,
      "autobiography": 5253,
      "determining": 5254,
      "determination": 5255,
      "hospital": 5256,
      "hospitals": 5257,
      "experiment": 5258,
      "Aware": 5259,
      "Amazon": 5260,
      "Breathing": 5261,
      "Baba": 5262,
      "Bangal": 5263,
      "CSK": 5264,
      "Camping": 5265,
      "Chemistry": 5266,
      "Dinosaurs": 5267,
      "Delhi": 5268,
      "Empathy": 5269,
      "Freedom": 5270,
      "Filter": 5271,
      "Generosity": 5272,
      "Homemade": 5273,
      "Luxury": 5274,
      "Mindfulness": 5275,
      "Netflix": 5276,
      "Nutri": 5277,
      "Nayanmars": 5278,
      "Public": 5279,
      "Portfolio": 5280,
      "Private": 5281,
      "Phys": 5282,
      "Powerful": 5283,
      "Restaurant": 5284,
      "Saiva": 5285,
      "Salary": 5286,
      "Shakespeare": 5287,
      "Socrates": 5288,
      "Telecom": 5289,
      "Upskill": 5290,
      "Vinnaith": 5291,
      "Yoga": 5292,
      "authority": 5293,
      "bayama": 5294,
      "cultures": 5295,
      "doubt": 5296,
      "darshan": 5297,
      "draping": 5298,
      "deductions": 5299,
      "effort": 5300,
      "eppadi": 5301,
      "economy": 5302,
      "frankly": 5303,
      "figure": 5304,
      "hurricane": 5305,
      "housing": 5306,
      "honestly": 5307,
      "jump": 5308,
      "mutton": 5309,
      "metering": 5310,
      "operation": 5311,
      "ointed": 5312,
      "puncture": 5313,
      "snack": 5314,
      "talks": 5315,
      "tips": 5316,
      "vitamin": 5317,
      "welry": 5318,
      "individual": 5319,
      "retirement": 5320,
      "reptile": 5321,
      "recording": 5322,
      "recently": 5323,
      "status": 5324,
      "theatre": 5325,
      "ctuation": 5326,
      "choosing": 5327,
      "severance": 5328,
      "universe": 5329,
      "telephone": 5330,
      "conflict": 5331,
      "contributions": 5332,
      "provides": 5333,
      "esterday": 5334,
      "podadha": 5335,
      "openly": 5336,
      "Environmental": 5337,
      "displaying": 5338,
      "major": 5339,
      "Animation": 5340,
      "inspired": 5341,
      "commerce": 5342,
      "ministr": 5343,
      "adequate": 5344,
      "corporate": 5345,
      "functioning": 5346,
      "puzzle": 5347,
      "structures": 5348,
      "preserved": 5349,
      "invented": 5350,
      "modernization": 5351,
      "sculpture": 5352,
      "Productivity": 5353,
      "aayidum": 5354,
      "potureengala": 5355,
      "adikudhu": 5356,
      "continuous": 5357,
      "Seasonal": 5358,
      "digestive": 5359,
      "Blinkit": 5360,
      "podcasts": 5361,
      "entertainment": 5362,
      "Strongly": 5363,
      "domesticated": 5364,
      "relevant": 5365,
      "confidentially": 5366,
      "Political": 5367,
      "effectiveness": 5368,
      "initiative": 5369,
      "Emotional": 5370,
      "Naturally": 5371,
      "kudippeengaa": 5372,
      "Photography": 5373,
      "Understanding": 5374,
      "Astrolo": 5375,
      "Apartment": 5376,
      "Avoid": 5377,
      "America": 5378,
      "Aadhaar": 5379,
      "Borewell": 5380,
      "Battery": 5381,
      "Burnout": 5382,
      "Certain": 5383,
      "Crypto": 5384,
      "Cricket": 5385,
      "Credit": 5386,
      "Canada": 5387,
      "Climate": 5388,
      "DMK": 5389,
      "Doctor": 5390,
      "Documentary": 5391,
      "Drawing": 5392,
      "Elephants": 5393,
      "Emergency": 5394,
      "Flipkart": 5395,
      "Farmer": 5396,
      "Foundation": 5397,
      "FDFS": 5398,
      "Group": 5399,
      "Guruvayur": 5400,
      "Halloween": 5401,
      "Happiness": 5402,
      "Japan": 5403,
      "Journaling": 5404,
      "Kisan": 5405,
      "Kedarnath": 5406,
      "Kalaignar": 5407,
      "Kongunadu": 5408,
      "Kanyakumari": 5409,
      "Kapaleesh": 5410,
      "Kanchipuram": 5411,
      "Kaveri": 5412,
      "Lanka": 5413,
      "Liquid": 5414,
      "Maldives": 5415,
      "MacBook": 5416,
      "Maths": 5417,
      "Okay": 5418,
      "Ooty": 5419,
      "Pyth": 5420,
      "Please": 5421,
      "Picasso": 5422,
      "Pulao": 5423,
      "Plastic": 5424,
      "Pondicherry": 5425,
      "Quality": 5426,
      "Rahman": 5427,
      "Ranjith": 5428,
      "Senior": 5429,
      "Sorry": 5430,
      "Spiritual": 5431,
      "Useful": 5432,
      "UPSC": 5433,
      "Variable": 5434,
      "Yojana": 5435,
      "aisle": 5436,
      "brella": 5437,
      "caterpill": 5438,
      "density": 5439,
      "ezhu": 5440,
      "fighters": 5441,
      "fossil": 5442,
      "flexibility": 5443,
      "gadgets": 5444,
      "gripping": 5445,
      "gathering": 5446,
      "hrs": 5447,
      "homes": 5448,
      "ibian": 5449,
      "jungle": 5450,
      "kitta": 5451,
      "museum": 5452,
      "nurse": 5453,
      "paved": 5454,
      "powered": 5455,
      "riller": 5456,
      "rhythm": 5457,
      "sizes": 5458,
      "scared": 5459,
      "schedule": 5460,
      "tatkal": 5461,
      "tornado": 5462,
      "tunnel": 5463,
      "wisdom": 5464,
      "yatra": 5465,
      "yellow": 5466,
      "integr": 5467,
      "ananuru": 5468,
      "recommend": 5469,
      "remediation": 5470,
      "revival": 5471,
      "enclave": 5472,
      "ingredients": 5473,
      "ourage": 5474,
      "ouflage": 5475,
      "arranged": 5476,
      "amphibian": 5477,
      "amorphosis": 5478,
      "stomach": 5479,
      "stadium": 5480,
      "strawberry": 5481,
      "vechirukken": 5482,
      "chromosome": 5483,
      "daughter": 5484,
      "rocery": 5485,
      "unakku": 5486,
      "naalaiku": 5487,
      "exploration": 5488,
      "dioxide": 5489,
      "concentration": 5490,
      "protocols": 5491,
      "permanent": 5492,
      "percentage": 5493,
      "mechanism": 5494,
      "necessary": 5495,
      "neighborhood": 5496,
      "complaint": 5497,
      "deficiency": 5498,
      "quietly": 5499,
      "results": 5500,
      "artifacts": 5501,
      "shifts": 5502,
      "shopping": 5503,
      "Insurance": 5504,
      "Independent": 5505,
      "iceberg": 5506,
      "helicopter": 5507,
      "disappointed": 5508,
      "makhani": 5509,
      "Chettinad": 5510,
      "brilliant": 5511,
      "Unforgettable": 5512,
      "lightbulb": 5513,
      "expensive": 5514,
      "varaikum": 5515,
      "hygiene": 5516,
      "Alcohol": 5517,
      "surprised": 5518,
      "Confidence": 5519,
      "Extreme": 5520,
      "Exercise": 5521,
      "Subsid": 5522,
      "Philosophy": 5523,
      "bargaining": 5524,
      "barrassing": 5525,
      "padicheenga": 5526,
      "Advanced": 5527,
      "Ambedkar": 5528,
      "metaphor": 5529,
      "millennium": 5530,
      "analysis": 5531,
      "peninsula": 5532,
      "Auroville": 5533,
      "fascinating": 5534,
      "Silapadhikaram": 5535,
      "Vinnaithaandi": 5536,
      "Astrology": 5537,
      "Kapaleeshwarar": 5538,
      "caterpillar": 5539,
      ",*": 5540,
      "01": 5541,
      "0C": 5542,
      "11": 5543,
      "21": 5544,
      "28": 5545,
      "2B": 5546,
      "230": 5547,
      "238": 5548,
      "2FA": 5549,
      "31": 5550,
      "300": 5551,
      "31st": 5552,
      "4K": 5553,
      "4000": 5554,
      "50": 5555,
      "5G": 5556,
      "5K": 5557,
      "65": 5558,
      "6G": 5559,
      "600": 5560,
      "71": 5561,
      "74": 5562,
      "76": 5563,
      "855": 5564,
      "8pm": 5565,
      "80C": 5566,
      "96": 5567,
      "9s": 5568,
      "AP": 5569,
      "AQ": 5570,
      "AT": 5571,
      "AW": 5572,
      "AY": 5573,
      "Ai": 5574,
      "Aj": 5575,
      "Ap": 5576,
      "Az": 5577,
      "Ath": 5578,
      "Act": 5579,
      "Ada": 5580,
      "Aas": 5581,
      "Aure": 5582,
      "Aqu": 5583,
      "Aru": 5584,
      "Ass": 5585,
      "Aust": 5586,
      "Amar": 5587,
      "Apr": 5588,
      "Affe": 5589,
      "Amade": 5590,
      "Awas": 5591,
      "Apol": 5592,
      "Auth": 5593,
      "APM": 5594,
      "Active": 5595,
      "Acts": 5596,
      "Atom": 5597,
      "Austri": 5598,
      "AMR": 5599,
      "ANC": 5600,
      "ADMK": 5601,
      "A2B": 5602,
      "BA": 5603,
      "BD": 5604,
      "BH": 5605,
      "BP": 5606,
      "BY": 5607,
      "Br": 5608,
      "By": 5609,
      "Ban": 5610,
      "Bis": 5611,
      "Bes": 5612,
      "Bit": 5613,
      "Bion": 5614,
      "Band": 5615,
      "Bed": 5616,
      "Bel": 5617,
      "Bla": 5618,
      "Bro": 5619,
      "Bun": 5620,
      "Bul": 5621,
      "Bus": 5622,
      "Bah": 5623,
      "Bone": 5624,
      "Bell": 5625,
      "Bear": 5626,
      "Bud": 5627,
      "Bread": 5628,
      "Brit": 5629,
      "Back": 5630,
      "Base": 5631,
      "Bank": 5632,
      "Bones": 5633,
      "Buck": 5634,
      "BAR": 5635,
      "Boss": 5636,
      "Bhop": 5637,
      "Borrow": 5638,
      "BMI": 5639,
      "Bollywood": 5640,
      "Boom": 5641,
      "Block": 5642,
      "Burger": 5643,
      "CE": 5644,
      "CG": 5645,
      "CU": 5646,
      "CV": 5647,
      "Cr": 5648,
      "Cu": 5649,
      "Cre": 5650,
      "Cle": 5651,
      "Cro": 5652,
      "Cas": 5653,
      "Could": 5654,
      "Coo": 5655,
      "Cover": 5656,
      "Capp": 5657,
      "Card": 5658,
      "Coun": 5659,
      "Creat": 5660,
      "Cream": 5661,
      "Cold": 5662,
      "Culture": 5663,
      "Cook": 5664,
      "Caste": 5665,
      "Cafe": 5666,
      "Cert": 5667,
      "Center": 5668,
      "CSS": 5669,
      "CPR": 5670,
      "Candy": 5671,
      "Crucial": 5672,
      "Custom": 5673,
      "CTC": 5674,
      "Cloud": 5675,
      "Courage": 5676,
      "CBD": 5677,
      "DG": 5678,
      "Dom": 5679,
      "Dad": 5680,
      "Dra": 5681,
      "Dri": 5682,
      "Dind": 5683,
      "Dos": 5684,
      "Dust": 5685,
      "Dish": 5686,
      "Dair": 5687,
      "Dual": 5688,
      "Drain": 5689,
      "Deter": 5690,
      "Diet": 5691,
      "Dining": 5692,
      "Danger": 5693,
      "Diversity": 5694,
      "DCO": 5695,
      "Detect": 5696,
      "DBT": 5697,
      "EF": 5698,
      "EP": 5699,
      "ET": 5700,
      "Ed": 5701,
      "Ef": 5702,
      "Eg": 5703,
      "Ep": 5704,
      "Er": 5705,
      "Eu": 5706,
      "Eve": 5707,
      "Ero": 5708,
      "Era": 5709,
      "End": 5710,
      "East": 5711,
      "Egy": 5712,
      "Effe": 5713,
      "Eyes": 5714,
      "Eco": 5715,
      "Ell": 5716,
      "Eye": 5717,
      "EPF": 5718,
      "Ekada": 5719,
      "EBI": 5720,
      "Easy": 5721,
      "Econom": 5722,
      "EGP": 5723,
      "Elon": 5724,
      "Epic": 5725,
      "Efficient": 5726,
      "Eelam": 5727,
      "Efficiency": 5728,
      "Evolution": 5729,
      "EDCO": 5730,
      "FH": 5731,
      "FI": 5732,
      "FT": 5733,
      "Fic": 5734,
      "Fed": 5735,
      "Fas": 5736,
      "Fort": 5737,
      "Find": 5738,
      "Fif": 5739,
      "Fog": 5740,
      "Follow": 5741,
      "Form": 5742,
      "Favorite": 5743,
      "FAR": 5744,
      "Firm": 5745,
      "Flax": 5746,
      "Fingers": 5747,
      "FIR": 5748,
      "FPO": 5749,
      "Fantasy": 5750,
      "Fresh": 5751,
      "Figma": 5752,
      "Festivals": 5753,
      "Fixed": 5754,
      "FBY": 5755,
      "GA": 5756,
      "GB": 5757,
      "GR": 5758,
      "Gu": 5759,
      "Gy": 5760,
      "Git": 5761,
      "Gand": 5762,
      "Gir": 5763,
      "Gla": 5764,
      "Gig": 5765,
      "Gru": 5766,
      "Gard": 5767,
      "Gree": 5768,
      "Game": 5769,
      "Gene": 5770,
      "GPS": 5771,
      "Gula": 5772,
      "Gita": 5773,
      "Graph": 5774,
      "Gravity": 5775,
      "Gender": 5776,
      "Gango": 5777,
      "GBT": 5778,
      "GST": 5779,
      "Grocery": 5780,
      "HA": 5781,
      "HG": 5782,
      "HT": 5783,
      "Her": 5784,
      "Hal": 5785,
      "Hum": 5786,
      "Hab": 5787,
      "Hus": 5788,
      "Hay": 5789,
      "Hour": 5790,
      "Hous": 5791,
      "Hair": 5792,
      "Have": 5793,
      "Hamp": 5794,
      "Hills": 5795,
      "Hunger": 5796,
      "HRA": 5797,
      "IC": 5798,
      "IQ": 5799,
      "Ir": 5800,
      "Ila": 5801,
      "Ide": 5802,
      "IPS": 5803,
      "Iron": 5804,
      "ITR": 5805,
      "IAS": 5806,
      "IEL": 5807,
      "ITI": 5808,
      "JS": 5809,
      "Jo": 5810,
      "Ju": 5811,
      "Jal": 5812,
      "Jes": 5813,
      "Jig": 5814,
      "Jay": 5815,
      "Jav": 5816,
      "Jade": 5817,
      "Jorth": 5818,
      "Jio": 5819,
      "Joint": 5820,
      "Juven": 5821,
      "Junk": 5822,
      "July": 5823,
      "KV": 5824,
      "Ka": 5825,
      "Kh": 5826,
      "Kan": 5827,
      "Kon": 5828,
      "Kaa": 5829,
      "Kas": 5830,
      "Kad": 5831,
      "Kod": 5832,
      "Kha": 5833,
      "Know": 5834,
      "Kalam": 5835,
      "Kids": 5836,
      "Kooda": 5837,
      "Kambaram": 5838,
      "Krishna": 5839,
      "LR": 5840,
      "Ly": 5841,
      "Lal": 5842,
      "Low": 5843,
      "Lay": 5844,
      "Lep": 5845,
      "Live": 5846,
      "Law": 5847,
      "Lok": 5848,
      "Lower": 5849,
      "Link": 5850,
      "Luck": 5851,
      "Loss": 5852,
      "Lada": 5853,
      "Lungs": 5854,
      "LSA": 5855,
      "Lamps": 5856,
      "Loose": 5857,
      "Locker": 5858,
      "LGBT": 5859,
      "LIC": 5860,
      "MC": 5861,
      "ME": 5862,
      "MF": 5863,
      "ML": 5864,
      "Ma": 5865,
      "Mb": 5866,
      "Mi": 5867,
      "Mat": 5868,
      "Mit": 5869,
      "Mam": 5870,
      "Mand": 5871,
      "Mir": 5872,
      "Mur": 5873,
      "Mod": 5874,
      "Mig": 5875,
      "Mut": 5876,
      "Mid": 5877,
      "Mess": 5878,
      "Main": 5879,
      "Mot": 5880,
      "Mem": 5881,
      "Mult": 5882,
      "Mass": 5883,
      "Must": 5884,
      "Mother": 5885,
      "Manim": 5886,
      "Meat": 5887,
      "Mari": 5888,
      "Mute": 5889,
      "Mupp": 5890,
      "Mani": 5891,
      "Manal": 5892,
      "Mountain": 5893,
      "Mount": 5894,
      "Mental": 5895,
      "Migration": 5896,
      "MOO": 5897,
      "MTC": 5898,
      "Maternity": 5899,
      "MNRE": 5900,
      "Mixed": 5901,
      "MBA": 5902,
      "NL": 5903,
      "NT": 5904,
      "Ner": 5905,
      "Nal": 5906,
      "Nam": 5907,
      "Nif": 5908,
      "Nap": 5909,
      "Nob": 5910,
      "Next": 5911,
      "Nels": 5912,
      "Normal": 5913,
      "Numer": 5914,
      "Nearly": 5915,
      "NDA": 5916,
      "NEE": 5917,
      "NEP": 5918,
      "NFT": 5919,
      "Os": 5920,
      "Ox": 5921,
      "Oil": 5922,
      "Ome": 5923,
      "Opport": 5924,
      "Own": 5925,
      "ODF": 5926,
      "OCs": 5927,
      "Options": 5928,
      "OEF": 5929,
      "PB": 5930,
      "PI": 5931,
      "PN": 5932,
      "Pon": 5933,
      "Pam": 5934,
      "Pion": 5935,
      "Pand": 5936,
      "Pad": 5937,
      "Pod": 5938,
      "Pun": 5939,
      "Pab": 5940,
      "Pus": 5941,
      "Pot": 5942,
      "Prom": 5943,
      "Past": 5944,
      "Pinterest": 5945,
      "Pang": 5946,
      "Pud": 5947,
      "Press": 5948,
      "Pred": 5949,
      "Pack": 5950,
      "Pris": 5951,
      "Patt": 5952,
      "Peter": 5953,
      "Panch": 5954,
      "Pann": 5955,
      "Proud": 5956,
      "PES": 5957,
      "Psych": 5958,
      "PIL": 5959,
      "Pets": 5960,
      "Penguins": 5961,
      "Pizza": 5962,
      "Qutu": 5963,
      "QOO": 5964,
      "Ration": 5965,
      "Rare": 5966,
      "Rus": 5967,
      "Rav": 5968,
      "Rap": 5969,
      "Rish": 5970,
      "Rob": 5971,
      "Redu": 5972,
      "Rank": 5973,
      "Radi": 5974,
      "Rutu": 5975,
      "Rail": 5976,
      "Rene": 5977,
      "Rock": 5978,
      "RBI": 5979,
      "RDA": 5980,
      "Router": 5981,
      "RTI": 5982,
      "SC": 5983,
      "Si": 5984,
      "Sk": 5985,
      "Sr": 5986,
      "Sing": 5987,
      "Sou": 5988,
      "Sam": 5989,
      "Sel": 5990,
      "Sch": 5991,
      "Sad": 5992,
      "Sof": 5993,
      "Sid": 5994,
      "Sna": 5995,
      "Sab": 5996,
      "She": 5997,
      "Sight": 5998,
      "Sne": 5999,
      "Sem": 6000,
      "Snow": 6001,
      "Sang": 6002,
      "Side": 6003,
      "Spre": 6004,
      "Sign": 6005,
      "Show": 6006,
      "Spr": 6007,
      "Saf": 6008,
      "Sens": 6009,
      "Stem": 6010,
      "Scal": 6011,
      "Stop": 6012,
      "Sweet": 6013,
      "Sever": 6014,
      "SAI": 6015,
      "Sense": 6016,
      "Swar": 6017,
      "Sanch": 6018,
      "Scu": 6019,
      "Safe": 6020,
      "Scul": 6021,
      "Slow": 6022,
      "System": 6023,
      "Surg": 6024,
      "Six": 6025,
      "Someday": 6026,
      "SBI": 6027,
      "Saman": 6028,
      "Siri": 6029,
      "Schedu": 6030,
      "Snor": 6031,
      "Spanish": 6032,
      "Saree": 6033,
      "SDG": 6034,
      "SEBI": 6035,
      "SHG": 6036,
      "SPB": 6037,
      "Tre": 6038,
      "Tel": 6039,
      "Tim": 6040,
      "Tol": 6041,
      "Tod": 6042,
      "Tig": 6043,
      "Tid": 6044,
      "Test": 6045,
      "Tri": 6046,
      "Top": 6047,
      "Too": 6048,
      "Tru": 6049,
      "Tap": 6050,
      "Tric": 6051,
      "Tree": 6052,
      "Thy": 6053,
      "Tough": 6054,
      "Taste": 6055,
      "Tox": 6056,
      "Talent": 6057,
      "Takes": 6058,
      "Taj": 6059,
      "Tenn": 6060,
      "Trench": 6061,
      "Tanj": 6062,
      "Touch": 6063,
      "TANG": 6064,
      "TNPS": 6065,
      "Tourism": 6066,
      "TOEF": 6067,
      "UI": 6068,
      "UK": 6069,
      "UT": 6070,
      "UX": 6071,
      "Ul": 6072,
      "Um": 6073,
      "Ude": 6074,
      "Uber": 6075,
      "Upanish": 6076,
      "UPI": 6077,
      "Ven": 6078,
      "Ver": 6079,
      "Val": 6080,
      "Var": 6081,
      "Vic": 6082,
      "Vaa": 6083,
      "Vent": 6084,
      "Vet": 6085,
      "Vas": 6086,
      "Vad": 6087,
      "Vul": 6088,
      "Vac": 6089,
      "Vive": 6090,
      "Vide": 6091,
      "Vell": 6092,
      "Viz": 6093,
      "Vair": 6094,
      "Vik": 6095,
      "Varu": 6096,
      "Veter": 6097,
      "Vert": 6098,
      "Varan": 6099,
      "Veer": 6100,
      "Vatic": 6101,
      "VOCs": 6102,
      "VPN": 6103,
      "Wi": 6104,
      "Wol": 6105,
      "Was": 6106,
      "Ware": 6107,
      "West": 6108,
      "With": 6109,
      "Way": 6110,
      "Where": 6111,
      "Will": 6112,
      "Warm": 6113,
      "Wish": 6114,
      "Why": 6115,
      "Who": 6116,
      "Wik": 6117,
      "Wake": 6118,
      "Whist": 6119,
      "Wonder": 6120,
      "Wrist": 6121,
      "Welfare": 6122,
      "Wedding": 6123,
      "Willi": 6124,
      "WFH": 6125,
      "Yu": 6126,
      "Yat": 6127,
      "Yam": 6128,
      "Yel": 6129,
      "Yet": 6130,
      "Yanam": 6131,
      "Yesterday": 6132,
      "Zom": 6133,
      "Zep": 6134,
      "Zoom": 6135,
      "Z9s": 6136,
      "aes": 6137,
      "aam": 6138,
      "aim": 6139,
      "aith": 6140,
      "aqu": 6141,
      "aart": 6142,
      "aik": 6143,
      "aale": 6144,
      "aaran": 6145,
      "aeology": 6146,
      "bb": 6147,
      "bn": 6148,
      "ben": 6149,
      "bic": 6150,
      "band": 6151,
      "bur": 6152,
      "bala": 6153,
      "bum": 6154,
      "bate": 6155,
      "bist": 6156,
      "bour": 6157,
      "bone": 6158,
      "bance": 6159,
      "bot": 6160,
      "bite": 6161,
      "bru": 6162,
      "bud": 6163,
      "bust": 6164,
      "breat": 6165,
      "bother": 6166,
      "bold": 6167,
      "booking": 6168,
      "broad": 6169,
      "bably": 6170,
      "bines": 6171,
      "bathing": 6172,
      "bloc": 6173,
      "bought": 6174,
      "bilities": 6175,
      "bunk": 6176,
      "boundaries": 6177,
      "burger": 6178,
      "cs": 6179,
      "cto": 6180,
      "cad": 6181,
      "cum": 6182,
      "cac": 6183,
      "cking": 6184,
      "cos": 6185,
      "cable": 6186,
      "cry": 6187,
      "cated": 6188,
      "ccer": 6189,
      "came": 6190,
      "crun": 6191,
      "cats": 6192,
      "clif": 6193,
      "courage": 6194,
      "dic": 6195,
      "dut": 6196,
      "dun": 6197,
      "dul": 6198,
      "dge": 6199,
      "dest": 6200,
      "dant": 6201,
      "ders": 6202,
      "dry": 6203,
      "dup": 6204,
      "dated": 6205,
      "dura": 6206,
      "dates": 6207,
      "driver": 6208,
      "dhi": 6209,
      "drying": 6210,
      "draw": 6211,
      "dden": 6212,
      "damp": 6213,
      "dged": 6214,
      "damental": 6215,
      "eu": 6216,
      "ey": 6217,
      "een": 6218,
      "eor": 6219,
      "eve": 6220,
      "ech": 6221,
      "eur": 6222,
      "eper": 6223,
      "eight": 6224,
      "epo": 6225,
      "ement": 6226,
      "east": 6227,
      "ecol": 6228,
      "eks": 6229,
      "ethan": 6230,
      "evalu": 6231,
      "etha": 6232,
      "eolog": 6233,
      "efficient": 6234,
      "efficiency": 6235,
      "ff": 6236,
      "fg": 6237,
      "fs": 6238,
      "fy": 6239,
      "fon": 6240,
      "fal": 6241,
      "fed": 6242,
      "fto": 6243,
      "fel": 6244,
      "fut": 6245,
      "fest": 6246,
      "fence": 6247,
      "fill": 6248,
      "fry": 6249,
      "fright": 6250,
      "fog": 6251,
      "fins": 6252,
      "fusion": 6253,
      "fresh": 6254,
      "festivals": 6255,
      "faith": 6256,
      "gl": 6257,
      "gal": 6258,
      "gar": 6259,
      "gil": 6260,
      "gol": 6261,
      "god": 6262,
      "gut": 6263,
      "gala": 6264,
      "gab": 6265,
      "gence": 6266,
      "gav": 6267,
      "gover": 6268,
      "gry": 6269,
      "grain": 6270,
      "gold": 6271,
      "gedy": 6272,
      "goog": 6273,
      "goss": 6274,
      "giving": 6275,
      "gender": 6276,
      "goose": 6277,
      "grocery": 6278,
      "ht": 6279,
      "hon": 6280,
      "his": 6281,
      "haa": 6282,
      "him": 6283,
      "hall": 6284,
      "hical": 6285,
      "hang": 6286,
      "hill": 6287,
      "hover": 6288,
      "hback": 6289,
      "hilar": 6290,
      "hills": 6291,
      "hmm": 6292,
      "huten": 6293,
      "ias": 6294,
      "ike": 6295,
      "ius": 6296,
      "iku": 6297,
      "ipt": 6298,
      "iable": 6299,
      "iary": 6300,
      "iations": 6301,
      "iPhone": 6302,
      "ihood": 6303,
      "iLocker": 6304,
      "iPad": 6305,
      "iQOO": 6306,
      "ibilities": 6307,
      "jur": 6308,
      "jun": 6309,
      "jac": 6310,
      "jok": 6311,
      "jji": 6312,
      "ko": 6313,
      "kan": 6314,
      "kor": 6315,
      "kaa": 6316,
      "kil": 6317,
      "kur": 6318,
      "kol": 6319,
      "kad": 6320,
      "kod": 6321,
      "kking": 6322,
      "kany": 6323,
      "kapp": 6324,
      "kura": 6325,
      "kely": 6326,
      "kick": 6327,
      "khar": 6328,
      "kitchen": 6329,
      "kathu": 6330,
      "lu": 6331,
      "lin": 6332,
      "lan": 6333,
      "lor": 6334,
      "lion": 6335,
      "lic": 6336,
      "lation": 6337,
      "leng": 6338,
      "ligh": 6339,
      "lful": 6340,
      "lich": 6341,
      "lining": 6342,
      "lines": 6343,
      "linking": 6344,
      "lamp": 6345,
      "lender": 6346,
      "mes": 6347,
      "maa": 6348,
      "mir": 6349,
      "mol": 6350,
      "mare": 6351,
      "mood": 6352,
      "mant": 6353,
      "may": 6354,
      "mac": 6355,
      "mud": 6356,
      "mber": 6357,
      "mile": 6358,
      "mins": 6359,
      "mology": 6360,
      "muru": 6361,
      "mesh": 6362,
      "mix": 6363,
      "mium": 6364,
      "mudic": 6365,
      "master": 6366,
      "ni": 6367,
      "nis": 6368,
      "nom": 6369,
      "nid": 6370,
      "nate": 6371,
      "nos": 6372,
      "niv": 6373,
      "niy": 6374,
      "ntra": 6375,
      "nadu": 6376,
      "nick": 6377,
      "nina": 6378,
      "oz": 6379,
      "oic": 6380,
      "oce": 6381,
      "ote": 6382,
      "oist": 6383,
      "oku": 6384,
      "otri": 6385,
      "ochar": 6386,
      "okey": 6387,
      "oactive": 6388,
      "oars": 6389,
      "pi": 6390,
      "pom": 6391,
      "pil": 6392,
      "put": 6393,
      "pow": 6394,
      "pli": 6395,
      "pul": 6396,
      "phe": 6397,
      "pha": 6398,
      "pone": 6399,
      "pite": 6400,
      "pud": 6401,
      "pound": 6402,
      "pric": 6403,
      "pels": 6404,
      "padu": 6405,
      "paru": 6406,
      "pounds": 6407,
      "pull": 6408,
      "pongal": 6409,
      "pension": 6410,
      "pilgrimage": 6411,
      "penguins": 6412,
      "pray": 6413,
      "paternity": 6414,
      "pizza": 6415,
      "rat": 6416,
      "rar": 6417,
      "rim": 6418,
      "rid": 6419,
      "rus": 6420,
      "rant": 6421,
      "rical": 6422,
      "rath": 6423,
      "ride": 6424,
      "rated": 6425,
      "rating": 6426,
      "rint": 6427,
      "rush": 6428,
      "riding": 6429,
      "rasam": 6430,
      "si": 6431,
      "sat": 6432,
      "sth": 6433,
      "sit": 6434,
      "sel": 6435,
      "span": 6436,
      "sum": 6437,
      "sess": 6438,
      "sac": 6439,
      "sence": 6440,
      "send": 6441,
      "sph": 6442,
      "site": 6443,
      "scre": 6444,
      "sma": 6445,
      "saw": 6446,
      "saf": 6447,
      "scar": 6448,
      "sures": 6449,
      "sick": 6450,
      "sia": 6451,
      "spot": 6452,
      "salam": 6453,
      "south": 6454,
      "sail": 6455,
      "sambar": 6456,
      "six": 6457,
      "sling": 6458,
      "sandy": 6459,
      "skept": 6460,
      "saree": 6461,
      "slender": 6462,
      "til": 6463,
      "tad": 6464,
      "tut": 6465,
      "test": 6466,
      "tart": 6467,
      "ties": 6468,
      "till": 6469,
      "tie": 6470,
      "tics": 6471,
      "tack": 6472,
      "tific": 6473,
      "tles": 6474,
      "tends": 6475,
      "titude": 6476,
      "trol": 6477,
      "tangle": 6478,
      "tired": 6479,
      "trench": 6480,
      "tourism": 6481,
      "uh": 6482,
      "uch": 6483,
      "ude": 6484,
      "uction": 6485,
      "uition": 6486,
      "uvery": 6487,
      "uary": 6488,
      "vt": 6489,
      "vy": 6490,
      "vin": 6491,
      "vam": 6492,
      "vum": 6493,
      "vice": 6494,
      "vies": 6495,
      "vive": 6496,
      "vine": 6497,
      "vents": 6498,
      "voc": 6499,
      "vidu": 6500,
      "vaay": 6501,
      "vict": 6502,
      "voting": 6503,
      "vathi": 6504,
      "vanga": 6505,
      "win": 6506,
      "won": 6507,
      "wing": 6508,
      "wow": 6509,
      "wala": 6510,
      "wid": 6511,
      "west": 6512,
      "wable": 6513,
      "wish": 6514,
      "wright": 6515,
      "wonder": 6516,
      "wadi": 6517,
      "waves": 6518,
      "witch": 6519,
      "wathi": 6520,
      "women": 6521,
      "wishing": 6522,
      "witness": 6523,
      "wrote": 6524,
      "wifi": 6525,
      "xies": 6526,
      "xious": 6527,
      "yy": 6528,
      "yed": 6529,
      "yep": 6530,
      "yers": 6531,
      "yup": 6532,
      "yog": 6533,
      "yles": 6534,
      "ytechn": 6535,
      "yoda": 6536,
      "yond": 6537,
      "ydiving": 6538,
      "yesterday": 6539,
      "yoku": 6540,
      "zer": 6541,
      "zha": 6542,
      "zone": 6543,
      "zap": 6544,
      "ziness": 6545,
      "zhi": 6546,
      "zhal": 6547,
      "zards": 6548,
      "zement": 6549,
      "²,": 6550,
      "²?,": 6551,
      "inch": 6552,
      "inum": 6553,
      "inance": 6554,
      "inach": 6555,
      "inten": 6556,
      "infl": 6557,
      "incar": 6558,
      "infect": 6559,
      "income": 6560,
      "inants": 6561,
      "inctive": 6562,
      "independ": 6563,
      "indeed": 6564,
      "invertebrate": 6565,
      "influ": 6566,
      "inhaling": 6567,
      "inrin": 6568,
      "incip": 6569,
      "infinity": 6570,
      "iniku": 6571,
      "innate": 6572,
      "anat": 6573,
      "anth": 6574,
      "anid": 6575,
      "anno": 6576,
      "anks": 6577,
      "anthem": 6578,
      "anormal": 6579,
      "anced": 6580,
      "ancing": 6581,
      "ancies": 6582,
      "anxious": 6583,
      "atable": 6584,
      "atization": 6585,
      "atuthu": 6586,
      "atistics": 6587,
      "attraction": 6588,
      "atinum": 6589,
      "reengala": 6590,
      "repe": 6591,
      "reuse": 6592,
      "retain": 6593,
      "recept": 6594,
      "repres": 6595,
      "renew": 6596,
      "rections": 6597,
      "remind": 6598,
      "refer": 6599,
      "recall": 6600,
      "reward": 6601,
      "rebuilding": 6602,
      "reprodu": 6603,
      "revisit": 6604,
      "replace": 6605,
      "removing": 6606,
      "reports": 6607,
      "reconnect": 6608,
      "reactions": 6609,
      "remark": 6610,
      "recycle": 6611,
      "review": 6612,
      "reminis": 6613,
      "regenerate": 6614,
      "reviews": 6615,
      "enth": 6616,
      "enish": 6617,
      "enities": 6618,
      "enclo": 6619,
      "enorm": 6620,
      "enomen": 6621,
      "enzy": 6622,
      "onam": 6623,
      "onic": 6624,
      "onom": 6625,
      "onent": 6626,
      "onics": 6627,
      "onductor": 6628,
      "eric": 6629,
      "eration": 6630,
      "erate": 6631,
      "eros": 6632,
      "erals": 6633,
      "erature": 6634,
      "erves": 6635,
      "error": 6636,
      "ervation": 6637,
      "eraga": 6638,
      "alat": 6639,
      "alal": 6640,
      "alli": 6641,
      "along": 6642,
      "alarm": 6643,
      "alization": 6644,
      "albreak": 6645,
      "alian": 6646,
      "alipuram": 6647,
      "algebra": 6648,
      "allegedly": 6649,
      "altitude": 6650,
      "thi": 6651,
      "ths": 6652,
      "thar": 6653,
      "tham": 6654,
      "thas": 6655,
      "thala": 6656,
      "thly": 6657,
      "thri": 6658,
      "thay": 6659,
      "thread": 6660,
      "thitu": 6661,
      "thirst": 6662,
      "tharen": 6663,
      "thutu": 6664,
      "thiya": 6665,
      "thanda": 6666,
      "thquakes": 6667,
      "thriller": 6668,
      "oro": 6669,
      "orch": 6670,
      "orge": 6671,
      "orith": 6672,
      "orate": 6673,
      "orde": 6674,
      "orang": 6675,
      "orie": 6676,
      "orous": 6677,
      "orings": 6678,
      "orbit": 6679,
      "orials": 6680,
      "ingala": 6681,
      "oum": 6682,
      "ouble": 6683,
      "isma": 6684,
      "istry": 6685,
      "isions": 6686,
      "isely": 6687,
      "iscipl": 6688,
      "isfy": 6689,
      "espan": 6690,
      "estra": 6691,
      "escal": 6692,
      "estri": 6693,
      "esho": 6694,
      "esick": 6695,
      "esurg": 6696,
      "arc": 6697,
      "arim": 6698,
      "ardi": 6699,
      "arach": 6700,
      "arma": 6701,
      "aros": 6702,
      "arship": 6703,
      "argu": 6704,
      "araj": 6705,
      "arison": 6706,
      "aranai": 6707,
      "arthanda": 6708,
      "iten": 6709,
      "itar": 6710,
      "itir": 6711,
      "itution": 6712,
      "itations": 6713,
      "itaay": 6714,
      "itute": 6715,
      "itime": 6716,
      "itization": 6717,
      "itiya": 6718,
      "itted": 6719,
      "itzer": 6720,
      "iteration": 6721,
      "ami": 6722,
      "amel": 6723,
      "ament": 6724,
      "ammar": 6725,
      "amiz": 6726,
      "ameter": 6727,
      "amuthu": 6728,
      "amalai": 6729,
      "amond": 6730,
      "amaaguthu": 6731,
      "ambam": 6732,
      "ambition": 6733,
      "amaham": 6734,
      "amended": 6735,
      "aminants": 6736,
      "amenities": 6737,
      "ionate": 6738,
      "star": 6739,
      "stle": 6740,
      "sted": 6741,
      "stel": 6742,
      "stim": 6743,
      "stum": 6744,
      "stly": 6745,
      "stab": 6746,
      "stant": 6747,
      "stri": 6748,
      "stals": 6749,
      "stics": 6750,
      "strain": 6751,
      "stove": 6752,
      "stability": 6753,
      "stones": 6754,
      "starch": 6755,
      "stination": 6756,
      "street": 6757,
      "stamp": 6758,
      "stalg": 6759,
      "stamps": 6760,
      "styles": 6761,
      "stitution": 6762,
      "lection": 6763,
      "leak": 6764,
      "lets": 6765,
      "lebl": 6766,
      "lecture": 6767,
      "left": 6768,
      "leppe": 6769,
      "lefto": 6770,
      "iced": 6771,
      "icod": 6772,
      "icha": 6773,
      "icist": 6774,
      "ichu": 6775,
      "icip": 6776,
      "icts": 6777,
      "icated": 6778,
      "icians": 6779,
      "iconductor": 6780,
      "ander": 6781,
      "andal": 6782,
      "anders": 6783,
      "andhal": 6784,
      "andian": 6785,
      "andham": 6786,
      "andhuten": 6787,
      "aaja": 6788,
      "eding": 6789,
      "edun": 6790,
      "edIn": 6791,
      "edhu": 6792,
      "edhum": 6793,
      "edia": 6794,
      "edback": 6795,
      "edian": 6796,
      "vey": 6797,
      "veen": 6798,
      "veli": 6799,
      "veill": 6800,
      "veled": 6801,
      "oma": 6802,
      "omi": 6803,
      "omic": 6804,
      "omation": 6805,
      "omass": 6806,
      "omated": 6807,
      "iration": 6808,
      "irdi": 6809,
      "irap": 6810,
      "irts": 6811,
      "irmed": 6812,
      "irloom": 6813,
      "toes": 6814,
      "tober": 6815,
      "tooth": 6816,
      "towns": 6817,
      "toremediation": 6818,
      "ilation": 6819,
      "ilway": 6820,
      "ilized": 6821,
      "ilitation": 6822,
      "ilocker": 6823,
      "ela": 6824,
      "eler": 6825,
      "elve": 6826,
      "ella": 6827,
      "elab": 6828,
      "eless": 6829,
      "elter": 6830,
      "elance": 6831,
      "eloc": 6832,
      "ellect": 6833,
      "elids": 6834,
      "elders": 6835,
      "pany": 6836,
      "paniruk": 6837,
      "panrom": 6838,
      "paninen": 6839,
      "theore": 6840,
      "thetic": 6841,
      "thetics": 6842,
      "ctar": 6843,
      "ctators": 6844,
      "ctonic": 6845,
      "cereal": 6846,
      "cements": 6847,
      "cember": 6848,
      "chy": 6849,
      "chur": 6850,
      "chess": 6851,
      "chest": 6852,
      "chore": 6853,
      "chair": 6854,
      "chick": 6855,
      "chmark": 6856,
      "chutney": 6857,
      "chlor": 6858,
      "chirap": 6859,
      "dare": 6860,
      "dable": 6861,
      "dakal": 6862,
      "dasan": 6863,
      "youth": 6864,
      "law": 6865,
      "lades": 6866,
      "laye": 6867,
      "lawns": 6868,
      "lapore": 6869,
      "layers": 6870,
      "laziness": 6871,
      "entment": 6872,
      "enters": 6873,
      "entire": 6874,
      "pannich": 6875,
      "pannirukken": 6876,
      "pannadhu": 6877,
      "pannitiya": 6878,
      "room": 6879,
      "rover": 6880,
      "robe": 6881,
      "rodu": 6882,
      "rods": 6883,
      "rovert": 6884,
      "rooting": 6885,
      "royalty": 6886,
      "robot": 6887,
      "ims": 6888,
      "imum": 6889,
      "imary": 6890,
      "immed": 6891,
      "impossible": 6892,
      "imally": 6893,
      "imination": 6894,
      "imposition": 6895,
      "impris": 6896,
      "imlich": 6897,
      "seat": 6898,
      "seen": 6899,
      "seating": 6900,
      "seats": 6901,
      "segment": 6902,
      "sekhar": 6903,
      "selection": 6904,
      "uries": 6905,
      "urav": 6906,
      "urday": 6907,
      "uriz": 6908,
      "uristic": 6909,
      "uriya": 6910,
      "urthi": 6911,
      "oling": 6912,
      "oles": 6913,
      "olester": 6914,
      "olently": 6915,
      "olarship": 6916,
      "etc": 6917,
      "etah": 6918,
      "eties": 6919,
      "ash": 6920,
      "asi": 6921,
      "ases": 6922,
      "asha": 6923,
      "asking": 6924,
      "asthan": 6925,
      "asible": 6926,
      "asping": 6927,
      "associ": 6928,
      "assem": 6929,
      "assets": 6930,
      "aswathi": 6931,
      "irupp": 6932,
      "ads": 6933,
      "ady": 6934,
      "adur": 6935,
      "adum": 6936,
      "advis": 6937,
      "adual": 6938,
      "adik": 6939,
      "adows": 6940,
      "adding": 6941,
      "adjust": 6942,
      "adline": 6943,
      "adtrip": 6944,
      "adesh": 6945,
      "adoption": 6946,
      "adichutu": 6947,
      "admission": 6948,
      "administr": 6949,
      "adicha": 6950,
      "odors": 6951,
      "oduthu": 6952,
      "odoro": 6953,
      "offl": 6954,
      "offic": 6955,
      "igion": 6956,
      "igul": 6957,
      "igning": 6958,
      "iggy": 6959,
      "uter": 6960,
      "utility": 6961,
      "utdown": 6962,
      "utron": 6963,
      "utsav": 6964,
      "utilized": 6965,
      "engar": 6966,
      "engage": 6967,
      "engudhu": 6968,
      "engineer": 6969,
      "engalum": 6970,
      "engaging": 6971,
      "union": 6972,
      "unte": 6973,
      "unlike": 6974,
      "unta": 6975,
      "unused": 6976,
      "unclear": 6977,
      "unfort": 6978,
      "univers": 6979,
      "unconf": 6980,
      "unately": 6981,
      "unretur": 6982,
      "unequal": 6983,
      "unicate": 6984,
      "unexpected": 6985,
      "unpleasant": 6986,
      "unpaved": 6987,
      "unnecessary": 6988,
      "undant": 6989,
      "unotri": 6990,
      "until": 6991,
      "unanid": 6992,
      "irukan": 6993,
      "pannuma": 6994,
      "pannudu": 6995,
      "alaam": 6996,
      "alaama": 6997,
      "forts": 6998,
      "forces": 6999,
      "forgot": 7000,
      "forgiveness": 7001,
      "fordable": 7002,
      "lius": 7003,
      "liance": 7004,
      "liding": 7005,
      "likar": 7006,
      "likel": 7007,
      "likely": 7008,
      "lizards": 7009,
      "uma": 7010,
      "umal": 7011,
      "uming": 7012,
      "umoo": 7013,
      "umalai": 7014,
      "umbodhu": 7015,
      "umption": 7016,
      "umbrella": 7017,
      "ulating": 7018,
      "ulations": 7019,
      "ulates": 7020,
      "ulgence": 7021,
      "lyrics": 7022,
      "vera": 7023,
      "verts": 7024,
      "verty": 7025,
      "verify": 7026,
      "ido": 7027,
      "idala": 7028,
      "idli": 7029,
      "idend": 7030,
      "idents": 7031,
      "idudhu": 7032,
      "idwar": 7033,
      "idiscipl": 7034,
      "keku": 7035,
      "kekuren": 7036,
      "nah": 7037,
      "nap": 7038,
      "naan": 7039,
      "naal": 7040,
      "nable": 7041,
      "naalum": 7042,
      "nachos": 7043,
      "nadasan": 7044,
      "traf": 7045,
      "trick": 7046,
      "trunk": 7047,
      "truly": 7048,
      "trouble": 7049,
      "abad": 7050,
      "above": 7051,
      "ables": 7052,
      "absolutely": 7053,
      "abhai": 7054,
      "abilities": 7055,
      "absence": 7056,
      "abalipuram": 7057,
      "abandham": 7058,
      "abundant": 7059,
      "teed": 7060,
      "teens": 7061,
      "teeth": 7062,
      "tectonic": 7063,
      "heater": 7064,
      "healing": 7065,
      "hearing": 7066,
      "heats": 7067,
      "hemis": 7068,
      "pped": 7069,
      "ppak": 7070,
      "ppery": 7071,
      "pposedly": 7072,
      "exha": 7073,
      "exem": 7074,
      "expos": 7075,
      "expert": 7076,
      "exchang": 7077,
      "exchanging": 7078,
      "exhaling": 7079,
      "execution": 7080,
      "dier": 7081,
      "dies": 7082,
      "died": 7083,
      "dipl": 7084,
      "dible": 7085,
      "diob": 7086,
      "divers": 7087,
      "dibility": 7088,
      "divide": 7089,
      "diverse": 7090,
      "diagram": 7091,
      "diaspora": 7092,
      "divine": 7093,
      "directions": 7094,
      "diameter": 7095,
      "fever": 7096,
      "feath": 7097,
      "features": 7098,
      "gee": 7099,
      "geog": 7100,
      "geography": 7101,
      "gevity": 7102,
      "geometry": 7103,
      "ession": 7104,
      "peak": 7105,
      "pebb": 7106,
      "mos": 7107,
      "moist": 7108,
      "motion": 7109,
      "mosam": 7110,
      "hair": 7111,
      "haven": 7112,
      "haps": 7113,
      "hayam": 7114,
      "ighing": 7115,
      "ighbour": 7116,
      "Whatever": 7117,
      "conven": 7118,
      "contem": 7119,
      "constru": 7120,
      "confection": 7121,
      "context": 7122,
      "contribution": 7123,
      "contract": 7124,
      "consolid": 7125,
      "conductor": 7126,
      "convin": 7127,
      "constant": 7128,
      "convey": 7129,
      "converts": 7130,
      "pros": 7131,
      "prose": 7132,
      "proper": 7133,
      "provis": 7134,
      "project": 7135,
      "profile": 7136,
      "proton": 7137,
      "proxim": 7138,
      "probability": 7139,
      "proje": 7140,
      "probably": 7141,
      "propels": 7142,
      "peru": 7143,
      "peration": 7144,
      "perature": 7145,
      "perfection": 7146,
      "perlocal": 7147,
      "perseverance": 7148,
      "perhaps": 7149,
      "log": 7150,
      "loon": 7151,
      "locom": 7152,
      "loving": 7153,
      "location": 7154,
      "logic": 7155,
      "usias": 7156,
      "estion": 7157,
      "estation": 7158,
      "estate": 7159,
      "estone": 7160,
      "estyle": 7161,
      "estines": 7162,
      "aho": 7163,
      "ahmin": 7164,
      "meant": 7165,
      "means": 7166,
      "meadows": 7167,
      "antu": 7168,
      "antages": 7169,
      "ithaa": 7170,
      "tering": 7171,
      "ternat": 7172,
      "termin": 7173,
      "teriyum": 7174,
      "tersc": 7175,
      "terrace": 7176,
      "allergy": 7177,
      "alliteration": 7178,
      "raath": 7179,
      "rays": 7180,
      "racket": 7181,
      "railway": 7182,
      "cia": 7183,
      "cipe": 7184,
      "ciple": 7185,
      "cific": 7186,
      "civil": 7187,
      "neath": 7188,
      "nectar": 7189,
      "neutron": 7190,
      "compo": 7191,
      "comment": 7192,
      "compl": 7193,
      "commemor": 7194,
      "composting": 7195,
      "comedian": 7196,
      "poet": 7197,
      "poem": 7198,
      "poten": 7199,
      "pota": 7200,
      "poga": 7201,
      "pokku": 7202,
      "pooling": 7203,
      "poverty": 7204,
      "ategic": 7205,
      "bees": 7206,
      "beak": 7207,
      "beans": 7208,
      "behave": 7209,
      "become": 7210,
      "bearing": 7211,
      "becomes": 7212,
      "behind": 7213,
      "rier": 7214,
      "riot": 7215,
      "rival": 7216,
      "rift": 7217,
      "deo": 7218,
      "deple": 7219,
      "devo": 7220,
      "demon": 7221,
      "dealing": 7222,
      "demand": 7223,
      "defense": 7224,
      "declut": 7225,
      "deforestation": 7226,
      "deeper": 7227,
      "deadline": 7228,
      "demos": 7229,
      "mention": 7230,
      "ophy": 7231,
      "optic": 7232,
      "oprint": 7233,
      "quent": 7234,
      "quick": 7235,
      "quiring": 7236,
      "queen": 7237,
      "quote": 7238,
      "worse": 7239,
      "worrying": 7240,
      "worried": 7241,
      "resort": 7242,
      "resist": 7243,
      "respir": 7244,
      "resume": 7245,
      "resentment": 7246,
      "residents": 7247,
      "artwork": 7248,
      "artific": 7249,
      "artists": 7250,
      "ayed": 7251,
      "ayum": 7252,
      "ayag": 7253,
      "ayana": 7254,
      "ndrom": 7255,
      "acity": 7256,
      "acks": 7257,
      "acids": 7258,
      "accident": 7259,
      "accid": 7260,
      "accompl": 7261,
      "acquiring": 7262,
      "shore": 7263,
      "shoc": 7264,
      "shame": 7265,
      "shift": 7266,
      "shabho": 7267,
      "shirts": 7268,
      "shelter": 7269,
      "shutdown": 7270,
      "weak": 7271,
      "weeks": 7272,
      "weighing": 7273,
      "pler": 7274,
      "plates": 7275,
      "platform": 7276,
      "platinum": 7277,
      "ainability": 7278,
      "sues": 7279,
      "suppo": 7280,
      "sufficient": 7281,
      "sudden": 7282,
      "suthitu": 7283,
      "Information": 7284,
      "Inner": 7285,
      "Intell": 7286,
      "Insect": 7287,
      "Invaluable": 7288,
      "Intro": 7289,
      "Infinity": 7290,
      "ancement": 7291,
      "portal": 7292,
      "portation": 7293,
      "portable": 7294,
      "portfolio": 7295,
      "restric": 7296,
      "restoring": 7297,
      "outing": 7298,
      "ota": 7299,
      "oti": 7300,
      "otch": 7301,
      "otive": 7302,
      "otional": 7303,
      "otball": 7304,
      "emy": 7305,
      "emed": 7306,
      "empt": 7307,
      "emiss": 7308,
      "embarrassing": 7309,
      "kuthu": 7310,
      "kudup": 7311,
      "romise": 7312,
      "whale": 7313,
      "door": 7314,
      "dose": 7315,
      "ags": 7316,
      "agore": 7317,
      "agious": 7318,
      "aganum": 7319,
      "agave": 7320,
      "agination": 7321,
      "agiri": 7322,
      "agliding": 7323,
      "timate": 7324,
      "aven": 7325,
      "avur": 7326,
      "avating": 7327,
      "aviation": 7328,
      "route": 7329,
      "endure": 7330,
      "endangered": 7331,
      "ersive": 7332,
      "iveenga": 7333,
      "ivelu": 7334,
      "athik": 7335,
      "athula": 7336,
      "athlon": 7337,
      "hello": 7338,
      "phenomen": 7339,
      "Tamils": 7340,
      "Tamilians": 7341,
      "Tamilnadu": 7342,
      "astero": 7343,
      "helping": 7344,
      "canal": 7345,
      "cancell": 7346,
      "canteens": 7347,
      "pleasing": 7348,
      "plementation": 7349,
      "pledged": 7350,
      "theriy": 7351,
      "thermal": 7352,
      "achh": 7353,
      "achment": 7354,
      "achutu": 7355,
      "indly": 7356,
      "indulgence": 7357,
      "angry": 7358,
      "illana": 7359,
      "illusion": 7360,
      "idered": 7361,
      "ideology": 7362,
      "venam": 7363,
      "itement": 7364,
      "Entre": 7365,
      "Energy": 7366,
      "Enforce": 7367,
      "Envy": 7368,
      "paid": 7369,
      "pause": 7370,
      "pakk": 7371,
      "pairs": 7372,
      "pahayam": 7373,
      "ellite": 7374,
      "ellish": 7375,
      "cret": 7376,
      "creation": 7377,
      "creator": 7378,
      "creators": 7379,
      "creatures": 7380,
      "creativity": 7381,
      "credibility": 7382,
      "disru": 7383,
      "dissol": 7384,
      "diseas": 7385,
      "discipl": 7386,
      "disrespect": 7387,
      "discr": 7388,
      "district": 7389,
      "disaster": 7390,
      "distraction": 7391,
      "distribute": 7392,
      "ieve": 7393,
      "iff": 7394,
      "ifestation": 7395,
      "dering": 7396,
      "deriv": 7397,
      "derabad": 7398,
      "needle": 7399,
      "worker": 7400,
      "workout": 7401,
      "workplace": 7402,
      "hub": 7403,
      "huh": 7404,
      "hups": 7405,
      "hustle": 7406,
      "formance": 7407,
      "pting": 7408,
      "pted": 7409,
      "pture": 7410,
      "ptain": 7411,
      "ptian": 7412,
      "anywhere": 7413,
      "uralink": 7414,
      "ckers": 7415,
      "ckbust": 7416,
      "oskeleton": 7417,
      "overnight": 7418,
      "overcome": 7419,
      "overcoming": 7420,
      "overcomes": 7421,
      "overwhelm": 7422,
      "preme": 7423,
      "preca": 7424,
      "precious": 7425,
      "precip": 7426,
      "premium": 7427,
      "prevents": 7428,
      "prepaid": 7429,
      "ruins": 7430,
      "ruption": 7431,
      "earthquakes": 7432,
      "ipment": 7433,
      "ipedia": 7434,
      "actor": 7435,
      "activ": 7436,
      "actress": 7437,
      "ived": 7438,
      "ivating": 7439,
      "colony": 7440,
      "column": 7441,
      "tennis": 7442,
      "ousness": 7443,
      "apples": 7444,
      "apparam": 7445,
      "applying": 7446,
      "apparently": 7447,
      "applic": 7448,
      "speculation": 7449,
      "speech": 7450,
      "spectators": 7451,
      "ultation": 7452,
      "Angan": 7453,
      "Anxiety": 7454,
      "Angry": 7455,
      "Anamalai": 7456,
      "Char": 7457,
      "Chess": 7458,
      "Chard": 7459,
      "Chick": 7460,
      "Challeng": 7461,
      "Change": 7462,
      "Chines": 7463,
      "Chutney": 7464,
      "Chitir": 7465,
      "Cholester": 7466,
      "Goodbye": 7467,
      "ryo": 7468,
      "arming": 7469,
      "armEasy": 7470,
      "appan": 7471,
      "apram": 7472,
      "apolog": 7473,
      "aponics": 7474,
      "apandian": 7475,
      "experienced": 7476,
      "curd": 7477,
      "curved": 7478,
      "curiosity": 7479,
      "goodbye": 7480,
      "soccer": 7481,
      "planks": 7482,
      "planets": 7483,
      "upgr": 7484,
      "update": 7485,
      "updated": 7486,
      "ardhu": 7487,
      "genes": 7488,
      "genetics": 7489,
      "genius": 7490,
      "assurance": 7491,
      "roughly": 7492,
      "aka": 7493,
      "aker": 7494,
      "akers": 7495,
      "akkum": 7496,
      "akfast": 7497,
      "akrishna": 7498,
      "akshi": 7499,
      "akanth": 7500,
      "bright": 7501,
      "braman": 7502,
      "knowing": 7503,
      "usters": 7504,
      "throughout": 7505,
      "ouncements": 7506,
      "ireengaa": 7507,
      "jamun": 7508,
      "marsh": 7509,
      "marrow": 7510,
      "marvel": 7511,
      "married": 7512,
      "maritime": 7513,
      "marandhuten": 7514,
      "syndrom": 7515,
      "readers": 7516,
      "rowave": 7517,
      "bert": 7518,
      "berman": 7519,
      "bersecurity": 7520,
      "plasma": 7521,
      "plastics": 7522,
      "ishno": 7523,
      "ignore": 7524,
      "pannuvenga": 7525,
      "pannuviya": 7526,
      "rightfully": 7527,
      "iyer": 7528,
      "iyam": 7529,
      "nope": 7530,
      "noise": 7531,
      "observ": 7532,
      "object": 7533,
      "obvious": 7534,
      "observe": 7535,
      "obviously": 7536,
      "obsess": 7537,
      "print": 7538,
      "solo": 7539,
      "solve": 7540,
      "solra": 7541,
      "solreengala": 7542,
      "soldier": 7543,
      "reaming": 7544,
      "underpriv": 7545,
      "underlying": 7546,
      "undergrowth": 7547,
      "underneath": 7548,
      "despite": 7549,
      "deserves": 7550,
      "designing": 7551,
      "ize": 7552,
      "izens": 7553,
      "ileged": 7554,
      "Union": 7555,
      "Unna": 7556,
      "University": 7557,
      "Unorganized": 7558,
      "Unmatch": 7559,
      "Unicod": 7560,
      "affair": 7561,
      "affirm": 7562,
      "affordable": 7563,
      "clusters": 7564,
      "govt": 7565,
      "mates": 7566,
      "mature": 7567,
      "ansportation": 7568,
      "rental": 7569,
      "Read": 7570,
      "Rebal": 7571,
      "Reels": 7572,
      "Rehab": 7573,
      "Regre": 7574,
      "Reverse": 7575,
      "Reheating": 7576,
      "Revenue": 7577,
      "Revolution": 7578,
      "Revathi": 7579,
      "Reincar": 7580,
      "Recipe": 7581,
      "bling": 7582,
      "blend": 7583,
      "blings": 7584,
      "blindly": 7585,
      "flood": 7586,
      "flict": 7587,
      "dhaana": 7588,
      "00s": 7589,
      "airplanes": 7590,
      "caution": 7591,
      "causes": 7592,
      "cauvery": 7593,
      "captain": 7594,
      "sera": 7595,
      "servers": 7596,
      "ichadhu": 7597,
      "ichuten": 7598,
      "happens": 7599,
      "bucket": 7600,
      "getari": 7601,
      "nataka": 7602,
      "ogas": 7603,
      "ogical": 7604,
      "vision": 7605,
      "vishu": 7606,
      "visits": 7607,
      "visible": 7608,
      "visibility": 7609,
      "organization": 7610,
      "version": 7611,
      "grid": 7612,
      "grant": 7613,
      "grasping": 7614,
      "gradual": 7615,
      "kets": 7616,
      "ketball": 7617,
      "party": 7618,
      "partner": 7619,
      "taic": 7620,
      "taught": 7621,
      "tadakal": 7622,
      "expire": 7623,
      "expense": 7624,
      "expelling": 7625,
      "Ears": 7626,
      "Earphone": 7627,
      "Stability": 7628,
      "Stars": 7629,
      "Storage": 7630,
      "Stigma": 7631,
      "Statistics": 7632,
      "Streaming": 7633,
      "bodies": 7634,
      "extend": 7635,
      "extinct": 7636,
      "extended": 7637,
      "extrovert": 7638,
      "commas": 7639,
      "commiss": 7640,
      "committed": 7641,
      "communicate": 7642,
      "Nee": 7643,
      "Never": 7644,
      "Neelam": 7645,
      "Neengalum": 7646,
      "Neighbour": 7647,
      "Neuralink": 7648,
      "vara": 7649,
      "varam": 7650,
      "varala": 7651,
      "variation": 7652,
      "variety": 7653,
      "variations": 7654,
      "interface": 7655,
      "intervent": 7656,
      "interactions": 7657,
      "reement": 7658,
      "reefs": 7659,
      "aaga": 7660,
      "aagala": 7661,
      "aagidu": 7662,
      "aagadu": 7663,
      "aaguveenga": 7664,
      "aagidudhu": 7665,
      "carving": 7666,
      "carried": 7667,
      "carbohydr": 7668,
      "carniv": 7669,
      "caramel": 7670,
      "hyank": 7671,
      "hypoten": 7672,
      "minor": 7673,
      "mination": 7674,
      "minton": 7675,
      "minimal": 7676,
      "minerals": 7677,
      "minimally": 7678,
      "amai": 7679,
      "amazement": 7680,
      "standards": 7681,
      "stems": 7682,
      "edukum": 7683,
      "edutha": 7684,
      "eduthutu": 7685,
      "compound": 7686,
      "comparison": 7687,
      "compliance": 7688,
      "compromise": 7689,
      "dreaming": 7690,
      "election": 7691,
      "elections": 7692,
      "elevation": 7693,
      "elephants": 7694,
      "mystery": 7695,
      "mani": 7696,
      "manual": 7697,
      "manager": 7698,
      "maneu": 7699,
      "ualization": 7700,
      "chew": 7701,
      "cheer": 7702,
      "cheese": 7703,
      "cheetah": 7704,
      "chores": 7705,
      "trails": 7706,
      "traveled": 7707,
      "This": 7708,
      "Thunder": 7709,
      "Things": 7710,
      "Thirst": 7711,
      "Think": 7712,
      "Thinking": 7713,
      "Thanj": 7714,
      "Thriller": 7715,
      "Thanks": 7716,
      "Thamiz": 7717,
      "Thrift": 7718,
      "certific": 7719,
      "cares": 7720,
      "enses": 7721,
      "planting": 7722,
      "planted": 7723,
      "Alwar": 7724,
      "Alliter": 7725,
      "Alumn": 7726,
      "Algebra": 7727,
      "Allegedly": 7728,
      "Alleppe": 7729,
      "Alternat": 7730,
      "Alarming": 7731,
      "Albert": 7732,
      "Here": 7733,
      "Heart": 7734,
      "Heavy": 7735,
      "Heada": 7736,
      "Heyy": 7737,
      "Heirloom": 7738,
      "Heimlich": 7739,
      "Heaven": 7740,
      "basis": 7741,
      "basketball": 7742,
      "coral": 7743,
      "corner": 7744,
      "correction": 7745,
      "funds": 7746,
      "funding": 7747,
      "intention": 7748,
      "intuition": 7749,
      "intellect": 7750,
      "introdu": 7751,
      "intestines": 7752,
      "regime": 7753,
      "counter": 7754,
      "counts": 7755,
      "counting": 7756,
      "ekalai": 7757,
      "ekshabho": 7758,
      "farmer": 7759,
      "octop": 7760,
      "ocacy": 7761,
      "surfac": 7762,
      "survive": 7763,
      "animation": 7764,
      "processions": 7765,
      "Earthquakes": 7766,
      "Commod": 7767,
      "Compar": 7768,
      "Compass": 7769,
      "Compet": 7770,
      "Commit": 7771,
      "Compromise": 7772,
      "Comali": 7773,
      "Composting": 7774,
      "Compound": 7775,
      "Company": 7776,
      "calcul": 7777,
      "calcium": 7778,
      "following": 7779,
      "followers": 7780,
      "oky": 7781,
      "skip": 7782,
      "skull": 7783,
      "racted": 7784,
      "Impost": 7785,
      "Imagination": 7786,
      "Implementation": 7787,
      "nights": 7788,
      "yearly": 7789,
      "ceptance": 7790,
      "content": 7791,
      "contact": 7792,
      "controll": 7793,
      "contaminants": 7794,
      "controver": 7795,
      "contagious": 7796,
      "discussion": 7797,
      "discussed": 7798,
      "Consci": 7799,
      "Conservation": 7800,
      "Contract": 7801,
      "Contribute": 7802,
      "Control": 7803,
      "Constitution": 7804,
      "Conflict": 7805,
      "bikes": 7806,
      "bivert": 7807,
      "biochar": 7808,
      "balloon": 7809,
      "foreign": 7810,
      "forecast": 7811,
      "mainly": 7812,
      "mainland": 7813,
      "preserve": 7814,
      "presumably": 7815,
      "presumption": 7816,
      "spice": 7817,
      "spill": 7818,
      "spins": 7819,
      "spicy": 7820,
      "spelling": 7821,
      "spray": 7822,
      "spike": 7823,
      "spiced": 7824,
      "strated": 7825,
      "strations": 7826,
      "strategy": 7827,
      "improves": 7828,
      "improved": 7829,
      "protective": 7830,
      "Nostalg": 7831,
      "humor": 7832,
      "humble": 7833,
      "humidity": 7834,
      "mindfully": 7835,
      "mindfulness": 7836,
      "pona": 7837,
      "ponics": 7838,
      "pondering": 7839,
      "wave": 7840,
      "waking": 7841,
      "invite": 7842,
      "relativity": 7843,
      "relatable": 7844,
      "religion": 7845,
      "veloping": 7846,
      "ometers": 7847,
      "setbac": 7848,
      "consume": 7849,
      "consumer": 7850,
      "consistency": 7851,
      "consuming": 7852,
      "considered": 7853,
      "consultation": 7854,
      "paathen": 7855,
      "paathadu": 7856,
      "paathingala": 7857,
      "collect": 7858,
      "collects": 7859,
      "collecting": 7860,
      "colleges": 7861,
      "Death": 7862,
      "Devi": 7863,
      "Democracy": 7864,
      "Defense": 7865,
      "Declut": 7866,
      "Deforestation": 7867,
      "Debate": 7868,
      "Defence": 7869,
      "Dealbreak": 7870,
      "December": 7871,
      "Deemed": 7872,
      "Deekshabho": 7873,
      "Developing": 7874,
      "Notion": 7875,
      "Notice": 7876,
      "cloth": 7877,
      "clothing": 7878,
      "clothes": 7879,
      "closing": 7880,
      "closure": 7881,
      "hoop": 7882,
      "joke": 7883,
      "rises": 7884,
      "scatter": 7885,
      "scroll": 7886,
      "sunset": 7887,
      "sundown": 7888,
      "sundal": 7889,
      "sunscreen": 7890,
      "voter": 7891,
      "valid": 7892,
      "letes": 7893,
      "letter": 7894,
      "developers": 7895,
      "supports": 7896,
      ",\"\"": 7897,
      "Worst": 7898,
      "Worry": 7899,
      "Words": 7900,
      "Works": 7901,
      "below": 7902,
      "calls": 7903,
      "eats": 7904,
      "friendly": 7905,
      "ikesh": 7906,
      "ikken": 7907,
      "ikunta": 7908,
      "ikireengaa": 7909,
      "mony": 7910,
      "networks": 7911,
      "amework": 7912,
      "legged": 7913,
      "legues": 7914,
      "aduveengala": 7915,
      "aduven": 7916,
      "developed": 7917,
      "Extin": 7918,
      "Expert": 7919,
      "Exactly": 7920,
      "Expand": 7921,
      "Execution": 7922,
      "Exoskeleton": 7923,
      "Process": 7924,
      "Problem": 7925,
      "Procra": 7926,
      "Profess": 7927,
      "Propose": 7928,
      "Profile": 7929,
      "Probability": 7930,
      "Probiotic": 7931,
      "Suba": 7932,
      "Sukh": 7933,
      "Sugar": 7934,
      "Sukany": 7935,
      "Suzhal": 7936,
      "Supposedly": 7937,
      "Supreme": 7938,
      "Subraman": 7939,
      "breaking": 7940,
      "breeding": 7941,
      "kaatuthu": 7942,
      "litres": 7943,
      "litigation": 7944,
      "sweetest": 7945,
      "wardrobe": 7946,
      "chemistry": 7947,
      "irunden": 7948,
      "irundhum": 7949,
      "shared": 7950,
      "shares": 7951,
      "physicist": 7952,
      "baju": 7953,
      "bajji": 7954,
      "coating": 7955,
      "coexist": 7956,
      "coconut": 7957,
      "costum": 7958,
      "clay": 7959,
      "faster": 7960,
      "fasting": 7961,
      "longer": 7962,
      "longest": 7963,
      "prizes": 7964,
      "priorit": 7965,
      "twice": 7966,
      "twelve": 7967,
      "atti": 7968,
      "attack": 7969,
      "attacks": 7970,
      "attachment": 7971,
      "students": 7972,
      "implement": 7973,
      "transports": 7974,
      "transparen": 7975,
      "transforms": 7976,
      "translation": 7977,
      "producer": 7978,
      "produces": 7979,
      "produced": 7980,
      "producing": 7981,
      "productivity": 7982,
      "possibilities": 7983,
      "learned": 7984,
      "personally": 7985,
      "AIADMK": 7986,
      "Phishing": 7987,
      "Pharma": 7988,
      "PharmEasy": 7989,
      "Perfection": 7990,
      "Periya": 7991,
      "Perfume": 7992,
      "Perseverance": 7993,
      "Permac": 7994,
      "Perumal": 7995,
      "Performance": 7996,
      "clearing": 7997,
      "evan": 7998,
      "evolution": 7999,
      "moments": 8000,
      "nerability": 8001,
      "nerves": 8002,
      "nervous": 8003,
      "nuts": 8004,
      "aayita": 8005,
      "aayitaay": 8006,
      "charging": 8007,
      "charisma": 8008,
      "memes": 8009,
      "plays": 8010,
      "playing": 8011,
      "played": 8012,
      "playwright": 8013,
      "Soon": 8014,
      "flash": 8015,
      "flakes": 8016,
      "flapping": 8017,
      "gazh": 8018,
      "gesture": 8019,
      "milkshake": 8020,
      "millets": 8021,
      "milestone": 8022,
      "missing": 8023,
      "paratha": 8024,
      "signs": 8025,
      "signal": 8026,
      "signaling": 8027,
      "sleeping": 8028,
      "treks": 8029,
      "writer": 8030,
      "themes": 8031,
      "themsel": 8032,
      "celebrating": 8033,
      "celebrations": 8034,
      "traveling": 8035,
      "presenting": 8036,
      "presented": 8037,
      "strongest": 8038,
      "Army": 8039,
      "Arms": 8040,
      "Coast": 8041,
      "Coconut": 8042,
      "Cooum": 8043,
      "Costly": 8044,
      "Grass": 8045,
      "Grateful": 8046,
      "Graham": 8047,
      "Grammar": 8048,
      "Smell": 8049,
      "banks": 8050,
      "backbone": 8051,
      "backlog": 8052,
      "droponics": 8053,
      "facts": 8054,
      "factual": 8055,
      "listing": 8056,
      "patha": 8057,
      "patriot": 8058,
      "watched": 8059,
      "ankann": 8060,
      "imagine": 8061,
      "imagery": 8062,
      "seeing": 8063,
      "offers": 8064,
      "offspring": 8065,
      "trained": 8066,
      "specialness": 8067,
      "assists": 8068,
      "placement": 8069,
      "placehol": 8070,
      "electrical": 8071,
      "Abdul": 8072,
      "Abhyank": 8073,
      "Collect": 8074,
      "Collabor": 8075,
      "Italian": 8076,
      "Poor": 8077,
      "Post": 8078,
      "Poet": 8079,
      "Poetry": 8080,
      "bsite": 8081,
      "barrier": 8082,
      "fragrant": 8083,
      "founder": 8084,
      "guard": 8085,
      "guiding": 8086,
      "guardi": 8087,
      "greater": 8088,
      "handi": 8089,
      "handsome": 8090,
      "handwriting": 8091,
      "padikken": 8092,
      "promotion": 8093,
      "promising": 8094,
      "sollala": 8095,
      "sollumbodhu": 8096,
      "turns": 8097,
      "turned": 8098,
      "turbines": 8099,
      "turtles": 8100,
      "viral": 8101,
      "realm": 8102,
      "realistic": 8103,
      "challenging": 8104,
      "seemed": 8105,
      "hearts": 8106,
      "heartfel": 8107,
      "existing": 8108,
      "existence": 8109,
      "connections": 8110,
      "concerning": 8111,
      "concerts": 8112,
      "measure": 8113,
      "deciding": 8114,
      "decisions": 8115,
      "Engaging": 8116,
      "preferred": 8117,
      "symbiotic": 8118,
      "irukkaanga": 8119,
      "solutions": 8120,
      "questioning": 8121,
      "Biomass": 8122,
      "Bioprint": 8123,
      "Biogas": 8124,
      "Basics": 8125,
      "Leh": 8126,
      "Leaves": 8127,
      "Legs": 8128,
      "Moon": 8129,
      "Mock": 8130,
      "Movie": 8131,
      "Movies": 8132,
      "Unakum": 8133,
      "Unacad": 8134,
      "bonds": 8135,
      "busy": 8136,
      "covers": 8137,
      "coverage": 8138,
      "fied": 8139,
      "paakireengala": 8140,
      "paadura": 8141,
      "paakura": 8142,
      "pasta": 8143,
      "pastry": 8144,
      "simulation": 8145,
      "simpler": 8146,
      "tariff": 8147,
      "upper": 8148,
      "vazhi": 8149,
      "inena": 8150,
      "seasonal": 8151,
      "condenses": 8152,
      "photovol": 8153,
      "periods": 8154,
      "generous": 8155,
      "generated": 8156,
      "generally": 8157,
      "generosity": 8158,
      "channel": 8159,
      "expressions": 8160,
      "monthly": 8161,
      "classes": 8162,
      "classical": 8163,
      "privatization": 8164,
      "nutrient": 8165,
      "20th": 8166,
      "2019": 8167,
      "2070": 8168,
      "2013": 8169,
      "Adjust": 8170,
      "Administr": 8171,
      "Advice": 8172,
      "Adalat": 8173,
      "Airplanes": 8174,
      "Airbn": 8175,
      "Apprais": 8176,
      "Apparently": 8177,
      "Curious": 8178,
      "Few": 8179,
      "Feet": 8180,
      "Febru": 8181,
      "Feedback": 8182,
      "Feasible": 8183,
      "Mars": 8184,
      "Marie": 8185,
      "Marcus": 8186,
      "Marriage": 8187,
      "See": 8188,
      "Seed": 8189,
      "Seeraga": 8190,
      "Secret": 8191,
      "autumn": 8192,
      "automated": 8193,
      "boy": 8194,
      "boring": 8195,
      "bored": 8196,
      "crocod": 8197,
      "cases": 8198,
      "cashback": 8199,
      "courts": 8200,
      "digitization": 8201,
      "distant": 8202,
      "finishing": 8203,
      "harathi": 8204,
      "holistic": 8205,
      "hasn": 8206,
      "hasht": 8207,
      "pirandhal": 8208,
      "pirakkum": 8209,
      "passing": 8210,
      "passwords": 8211,
      "salon": 8212,
      "salts": 8213,
      "silence": 8214,
      "utha": 8215,
      "uthiram": 8216,
      "vachuruv": 8217,
      "wanting": 8218,
      "wanted": 8219,
      "anchor": 8220,
      "anchors": 8221,
      "lecting": 8222,
      "movements": 8223,
      "confused": 8224,
      "confirm": 8225,
      "confession": 8226,
      "completion": 8227,
      "completing": 8228,
      "approved": 8229,
      "appreciation": 8230,
      "appreciative": 8231,
      "speeds": 8232,
      "Healthcare": 8233,
      "skills": 8234,
      "PhonePe": 8235,
      "Carbohydr": 8236,
      "Carpooling": 8237,
      "DigiLocker": 8238,
      "Digilocker": 8239,
      "Digestion": 8240,
      "Industry": 8241,
      "Induction": 8242,
      "Onion": 8243,
      "PMAY": 8244,
      "PMEGP": 8245,
      "PMFBY": 8246,
      "PMKV": 8247,
      "Park": 8248,
      "Parle": 8249,
      "Paratha": 8250,
      "Parotta": 8251,
      "Paranormal": 8252,
      "Parthas": 8253,
      "Paragliding": 8254,
      "Share": 8255,
      "Short": 8256,
      "Shore": 8257,
      "Shinrin": 8258,
      "Shirdi": 8259,
      "Temperature": 8260,
      "Tempting": 8261,
      "Weigh": 8262,
      "Weight": 8263,
      "Weather": 8264,
      "Website": 8265,
      "aiilla": 8266,
      "cubic": 8267,
      "citizen": 8268,
      "citrus": 8269,
      "crackers": 8270,
      "dinosaur": 8271,
      "frustrating": 8272,
      "frustrated": 8273,
      "giant": 8274,
      "giants": 8275,
      "ginning": 8276,
      "hiking": 8277,
      "hibernation": 8278,
      "melt": 8279,
      "porary": 8280,
      "pesala": 8281,
      "pesuradhu": 8282,
      "pesuveenga": 8283,
      "pesardhu": 8284,
      "purposes": 8285,
      "pathu": 8286,
      "pathalum": 8287,
      "pathumoo": 8288,
      "swings": 8289,
      "swimm": 8290,
      "schools": 8291,
      "anuppalaam": 8292,
      "recovered": 8293,
      "refram": 8294,
      "refresh": 8295,
      "refracted": 8296,
      "reflecting": 8297,
      "reformer": 8298,
      "reduction": 8299,
      "oneself": 8300,
      "leaders": 8301,
      "leadership": 8302,
      "pannalai": 8303,
      "pannalaam": 8304,
      "trusted": 8305,
      "trustworth": 8306,
      "debt": 8307,
      "debated": 8308,
      "dishonesty": 8309,
      "coloring": 8310,
      "grandmother": 8311,
      "grandeur": 8312,
      "computing": 8313,
      "manageable": 8314,
      "modeling": 8315,
      "valued": 8316,
      "breaks": 8317,
      "literary": 8318,
      "literacy": 8319,
      "significant": 8320,
      "Illai": 8321,
      "1000": 8322,
      "10000": 8323,
      "Ambit": 8324,
      "Ambition": 8325,
      "Ambivert": 8326,
      "Because": 8327,
      "Behind": 8328,
      "Beyond": 8329,
      "Beginning": 8330,
      "Calm": 8331,
      "Calcium": 8332,
      "Calorie": 8333,
      "Issues": 8334,
      "Karma": 8335,
      "Karao": 8336,
      "Karaik": 8337,
      "Kargil": 8338,
      "Karunanid": 8339,
      "Karnataka": 8340,
      "Media": 8341,
      "Meditations": 8342,
      "Nightmare": 8343,
      "PSU": 8344,
      "Plan": 8345,
      "Plant": 8346,
      "Plann": 8347,
      "Sunflower": 8348,
      "Sundar": 8349,
      "Sunglasses": 8350,
      "averse": 8351,
      "culating": 8352,
      "delight": 8353,
      "delta": 8354,
      "delayed": 8355,
      "equation": 8356,
      "equity": 8357,
      "equations": 8358,
      "equipment": 8359,
      "frequent": 8360,
      "floating": 8361,
      "floors": 8362,
      "floats": 8363,
      "freezes": 8364,
      "metal": 8365,
      "meters": 8366,
      "metrics": 8367,
      "metamorphosis": 8368,
      "meteor": 8369,
      "podura": 8370,
      "podhum": 8371,
      "podalam": 8372,
      "pended": 8373,
      "shaped": 8374,
      "sights": 8375,
      "squats": 8376,
      "sensitive": 8377,
      "volatile": 8378,
      "wali": 8379,
      "walks": 8380,
      "wellbeing": 8381,
      "xture": 8382,
      "yee": 8383,
      "yeast": 8384,
      "injathu": 8385,
      "injuries": 8386,
      "ertiveness": 8387,
      "archaeology": 8388,
      "rocky": 8389,
      "keychain": 8390,
      "keyboard": 8391,
      "keeps": 8392,
      "teamwork": 8393,
      "beauty": 8394,
      "butterflies": 8395,
      "correctly": 8396,
      "fundamental": 8397,
      "maintaining": 8398,
      "maintained": 8399,
      "investments": 8400,
      "considerate": 8401,
      "chemicals": 8402,
      "technique": 8403,
      "solluvanga": 8404,
      "connects": 8405,
      "connecting": 8406,
      "connectivity": 8407,
      "saapiten": 8408,
      "saapidala": 8409,
      "Ages": 8410,
      "Agriculture": 8411,
      "Agni": 8412,
      "Agreement": 8413,
      "Bird": 8414,
      "Birds": 8415,
      "Bigg": 8416,
      "Biggest": 8417,
      "Discuss": 8418,
      "Disrespect": 8419,
      "Distribution": 8420,
      "District": 8421,
      "Disclosure": 8422,
      "Hometown": 8423,
      "Learn": 8424,
      "Raman": 8425,
      "Ramasam": 8426,
      "Ramayana": 8427,
      "Ramakrishna": 8428,
      "Tea": 8429,
      "Teeth": 8430,
      "Tevaram": 8431,
      "batting": 8432,
      "film": 8433,
      "filing": 8434,
      "filled": 8435,
      "films": 8436,
      "filament": 8437,
      "fishing": 8438,
      "normalized": 8439,
      "opponent": 8440,
      "ronics": 8441,
      "runs": 8442,
      "ukuveengala": 8443,
      "window": 8444,
      "yaan": 8445,
      "announcements": 8446,
      "atomic": 8447,
      "vegetation": 8448,
      "vegetables": 8449,
      "pannalamaa": 8450,
      "rolled": 8451,
      "roti": 8452,
      "rotation": 8453,
      "impairs": 8454,
      "seeding": 8455,
      "sectors": 8456,
      "united": 8457,
      "vertical": 8458,
      "vertically": 8459,
      "textile": 8460,
      "divides": 8461,
      "divided": 8462,
      "moonlight": 8463,
      "combine": 8464,
      "combines": 8465,
      "pogom": 8466,
      "poginen": 8467,
      "poguren": 8468,
      "deepam": 8469,
      "deepest": 8470,
      "shoulders": 8471,
      "International": 8472,
      "Intermit": 8473,
      "Interview": 8474,
      "actively": 8475,
      "appearing": 8476,
      "appearance": 8477,
      "climb": 8478,
      "mattengudhu": 8479,
      "occurred": 8480,
      "occurrence": 8481,
      "occurring": 8482,
      "Improvement": 8483,
      "Improved": 8484,
      "membership": 8485,
      "flavour": 8486,
      "flavoring": 8487,
      "flavorings": 8488,
      "trends": 8489,
      "greenhouse": 8490,
      "padichadu": 8491,
      "fielding": 8492,
      "vaangitu": 8493,
      "vaangidu": 8494,
      "vaangirukeengala": 8495,
      "vaangiveenga": 8496,
      "vaanginena": 8497,
      "squared": 8498,
      "25k": 8499,
      "25th": 8500,
      "Audiob": 8501,
      "Andaman": 8502,
      "Dham": 8503,
      "Dhoti": 8504,
      "Forgive": 8505,
      "GMO": 8506,
      "GMAT": 8507,
      "Library": 8508,
      "Metamorphosis": 8509,
      "Metaverse": 8510,
      "PFAS": 8511,
      "PFRDA": 8512,
      "Price": 8513,
      "Pride": 8514,
      "Princip": 8515,
      "Primary": 8516,
      "Pradesh": 8517,
      "Prabandham": 8518,
      "Resume": 8519,
      "Reservation": 8520,
      "Strict": 8521,
      "Strategy": 8522,
      "Strategic": 8523,
      "Tirupur": 8524,
      "Tirunel": 8525,
      "Tiruchirap": 8526,
      "Traffic": 8527,
      "Tragedy": 8528,
      "Visa": 8529,
      "Visible": 8530,
      "Visaranai": 8531,
      "Visualization": 8532,
      "capacity": 8533,
      "cooked": 8534,
      "dhism": 8535,
      "dhani": 8536,
      "dhita": 8537,
      "dhambam": 8538,
      "dominance": 8539,
      "didn": 8540,
      "facilities": 8541,
      "fairies": 8542,
      "households": 8543,
      "kindness": 8544,
      "nationalism": 8545,
      "petrol": 8546,
      "singer": 8547,
      "saved": 8548,
      "savage": 8549,
      "springs": 8550,
      "write": 8551,
      "warmest": 8552,
      "release": 8553,
      "releasing": 8554,
      "releases": 8555,
      "receiving": 8556,
      "receipt": 8557,
      "received": 8558,
      "required": 8559,
      "environments": 8560,
      "thaandi": 8561,
      "chaotic": 8562,
      "urgent": 8563,
      "urgently": 8564,
      "advanced": 8565,
      "advantages": 8566,
      "advancement": 8567,
      "advocacy": 8568,
      "identical": 8569,
      "hematics": 8570,
      "examining": 8571,
      "expectation": 8572,
      "motta": 8573,
      "motors": 8574,
      "molecular": 8575,
      "performs": 8576,
      "performances": 8577,
      "nearly": 8578,
      "supplying": 8579,
      "supposedly": 8580,
      "kudukka": 8581,
      "kudukkum": 8582,
      "predicate": 8583,
      "predictably": 8584,
      "smelling": 8585,
      "Children": 8586,
      "Childhood": 8587,
      "sociology": 8588,
      "societies": 8589,
      "knowledgeable": 8590,
      "Regular": 8591,
      "Regulation": 8592,
      "Regulated": 8593,
      "Regulations": 8594,
      "organizer": 8595,
      "organizing": 8596,
      "organizes": 8597,
      "organizations": 8598,
      "regulated": 8599,
      "regulating": 8600,
      "calmly": 8601,
      "newspaper": 8602,
      "involve": 8603,
      "involvement": 8604,
      "Worker": 8605,
      "forests": 8606,
      "similarly": 8607,
      "targets": 8608,
      "approaching": 8609,
      "participated": 8610,
      "participating": 8611,
      "magnets": 8612,
      "accountable": 8613,
      "10th": 8614,
      "195": 8615,
      "1990s": 8616,
      "1901": 8617,
      "1971": 8618,
      "Affirm": 8619,
      "COPR": 8620,
      "Dreams": 8621,
      "ESG": 8622,
      "Everyone": 8623,
      "Everything": 8624,
      "Educated": 8625,
      "Electronics": 8626,
      "Football": 8627,
      "Funny": 8628,
      "Fundamental": 8629,
      "Fishing": 8630,
      "Governance": 8631,
      "Huberman": 8632,
      "Hyperlocal": 8633,
      "Hyderabad": 8634,
      "Hydroponics": 8635,
      "ISPR": 8636,
      "Kindle": 8637,
      "MSP": 8638,
      "MSME": 8639,
      "MyGo": 8640,
      "Mystery": 8641,
      "Myntra": 8642,
      "Mylapore": 8643,
      "Minar": 8644,
      "Mineral": 8645,
      "Minimum": 8646,
      "Millet": 8647,
      "Milkshake": 8648,
      "NALSA": 8649,
      "Occup": 8650,
      "October": 8651,
      "Oldest": 8652,
      "Prey": 8653,
      "Prefer": 8654,
      "Previous": 8655,
      "Police": 8656,
      "Polytechn": 8657,
      "Passive": 8658,
      "Password": 8659,
      "Passionate": 8660,
      "Rainy": 8661,
      "Rainwater": 8662,
      "SSC": 8663,
      "Switzer": 8664,
      "Swiggy": 8665,
      "Swachh": 8666,
      "Solid": 8667,
      "Sportsperson": 8668,
      "Transportation": 8669,
      "axis": 8670,
      "axation": 8671,
      "binge": 8672,
      "bravery": 8673,
      "billion": 8674,
      "circum": 8675,
      "circulating": 8676,
      "cardinal": 8677,
      "deterrent": 8678,
      "effects": 8679,
      "effectively": 8680,
      "frogs": 8681,
      "frosted": 8682,
      "herb": 8683,
      "halwa": 8684,
      "halfway": 8685,
      "juice": 8686,
      "karma": 8687,
      "kuttu": 8688,
      "linga": 8689,
      "material": 8690,
      "painter": 8691,
      "surely": 8692,
      "villages": 8693,
      "wheat": 8694,
      "whether": 8695,
      "wheeler": 8696,
      "woods": 8697,
      "wooden": 8698,
      "atmosph": 8699,
      "repelling": 8700,
      "reliability": 8701,
      "relief": 8702,
      "relieve": 8703,
      "representation": 8704,
      "remembering": 8705,
      "ennadhu": 8706,
      "ennellam": 8707,
      "enakum": 8708,
      "enakshi": 8709,
      "staying": 8710,
      "storms": 8711,
      "childhood": 8712,
      "seafood": 8713,
      "admiring": 8714,
      "admiration": 8715,
      "forwards": 8716,
      "traces": 8717,
      "tracks": 8718,
      "Whatsapp": 8719,
      "locals": 8720,
      "locations": 8721,
      "accuracy": 8722,
      "accessories": 8723,
      "successful": 8724,
      "Instinct": 8725,
      "Institute": 8726,
      "emerging": 8727,
      "employee": 8728,
      "pleasures": 8729,
      "Annapoor": 8730,
      "iyaraaja": 8731,
      "prince": 8732,
      "princess": 8733,
      "principle": 8734,
      "describe": 8735,
      "clarity": 8736,
      "clarification": 8737,
      "mathematicians": 8738,
      "Reality": 8739,
      "Realme": 8740,
      "Starting": 8741,
      "Startups": 8742,
      "varumaa": 8743,
      "varumnu": 8744,
      "hydroelectric": 8745,
      "eduthuken": 8746,
      "compassion": 8747,
      "Consistency": 8748,
      "cooling": 8749,
      "attendance": 8750,
      "positions": 8751,
      "thoughtful": 8752,
      "limitations": 8753,
      "Feelings": 8754,
      "recognized": 8755,
      "ecosystems": 8756,
      "wronged": 8757,
      "Financially": 8758,
      "difficulty": 8759,
      "1200": 8760,
      "1415": 8761,
      "24th": 8762,
      "60th": 8763,
      "Bali": 8764,
      "Buttersc": 8765,
      "Bookmarks": 8766,
      "CRPF": 8767,
      "CRISPR": 8768,
      "Cycle": 8769,
      "Cybersecurity": 8770,
      "Coral": 8771,
      "Corruption": 8772,
      "Claude": 8773,
      "Claims": 8774,
      "Divine": 8775,
      "Division": 8776,
      "Divya": 8777,
      "Dividend": 8778,
      "Emoji": 8779,
      "Frank": 8780,
      "Framework": 8781,
      "Faster": 8782,
      "Hostel": 8783,
      "Help": 8784,
      "Hello": 8785,
      "Helmet": 8786,
      "Helped": 8787,
      "Keto": 8788,
      "Kumaran": 8789,
      "Kumbak": 8790,
      "Literature": 8791,
      "Microwave": 8792,
      "Mahamaham": 8793,
      "Mahabalipuram": 8794,
      "Mission": 8795,
      "Multiplication": 8796,
      "Naan": 8797,
      "Nataraj": 8798,
      "Nagpur": 8799,
      "Overthinking": 8800,
      "Overcrow": 8801,
      "Overwhelm": 8802,
      "Overrated": 8803,
      "Paused": 8804,
      "Pacific": 8805,
      "Patient": 8806,
      "Pattadakal": 8807,
      "Party": 8808,
      "Partner": 8809,
      "Particip": 8810,
      "Persistent": 8811,
      "Quick": 8812,
      "Quarter": 8813,
      "Role": 8814,
      "Room": 8815,
      "Roja": 8816,
      "Roadtrip": 8817,
      "Romba": 8818,
      "Romantic": 8819,
      "Retire": 8820,
      "Return": 8821,
      "Rajasthan": 8822,
      "Rajdhani": 8823,
      "Stock": 8824,
      "Stopped": 8825,
      "Silk": 8826,
      "Silica": 8827,
      "Surface": 8828,
      "Surprise": 8829,
      "Surpris": 8830,
      "Surveill": 8831,
      "Toes": 8832,
      "Vaishna": 8833,
      "Vaigai": 8834,
      "Vaishno": 8835,
      "Vaikunta": 8836,
      "Years": 8837,
      "adapt": 8838,
      "adaptation": 8839,
      "blades": 8840,
      "crime": 8841,
      "camping": 8842,
      "camouflage": 8843,
      "cuts": 8844,
      "cooks": 8845,
      "cooperation": 8846,
      "driven": 8847,
      "drivers": 8848,
      "ginger": 8849,
      "gaming": 8850,
      "giri": 8851,
      "gardening": 8852,
      "hotel": 8853,
      "jaan": 8854,
      "misunderstanding": 8855,
      "mitosis": 8856,
      "mammals": 8857,
      "musical": 8858,
      "muscles": 8859,
      "massive": 8860,
      "nenachutu": 8861,
      "names": 8862,
      "namma": 8863,
      "namics": 8864,
      "ohan": 8865,
      "pedaling": 8866,
      "pedestri": 8867,
      "pushing": 8868,
      "pushed": 8869,
      "ralia": 8870,
      "sirichutu": 8871,
      "softly": 8872,
      "software": 8873,
      "sided": 8874,
      "spots": 8875,
      "spoken": 8876,
      "spoils": 8877,
      "spooky": 8878,
      "tombs": 8879,
      "vanthiya": 8880,
      "viladuveengala": 8881,
      "vacation": 8882,
      "vacancies": 8883,
      "instruction": 8884,
      "remaining": 8885,
      "stressful": 8886,
      "charming": 8887,
      "laughter": 8888,
      "panniduveengala": 8889,
      "panniduven": 8890,
      "pannitaen": 8891,
      "roots": 8892,
      "secret": 8893,
      "secrets": 8894,
      "division": 8895,
      "director": 8896,
      "directing": 8897,
      "directly": 8898,
      "mobilization": 8899,
      "localities": 8900,
      "methods": 8901,
      "raphical": 8902,
      "negotiation": 8903,
      "negotiable": 8904,
      "povven": 8905,
      "povudhu": 8906,
      "decoration": 8907,
      "decorated": 8908,
      "optional": 8909,
      "ayanam": 8910,
      "accepts": 8911,
      "acceptable": 8912,
      "shooting": 8913,
      "shops": 8914,
      "outdoors": 8915,
      "kudikireengala": 8916,
      "prevention": 8917,
      "Annually": 8918,
      "Anniversary": 8919,
      "Christian": 8920,
      "branches": 8921,
      "novels": 8922,
      "primary": 8923,
      "fluent": 8924,
      "fluid": 8925,
      "fluids": 8926,
      "flowering": 8927,
      "valleys": 8928,
      "Grandma": 8929,
      "Grandparents": 8930,
      "electronic": 8931,
      "instead": 8932,
      "institution": 8933,
      "institutes": 8934,
      "Legal": 8935,
      "Legacy": 8936,
      "Leaders": 8937,
      "particularly": 8938,
      "characterized": 8939,
      "saapiduvom": 8940,
      "Metrowater": 8941,
      "journeys": 8942,
      "journeying": 8943,
      "Electricity": 8944,
      "employer": 8945,
      "Vijayakanth": 8946,
      "experiments": 8947,
      "experimental": 8948,
      "1600s": 8949,
      "180": 8950,
      "186": 8951,
      "1876": 8952,
      "365": 8953,
      "366": 8954,
      "ASHA": 8955,
      "Awesome": 8956,
      "Amazing": 8957,
      "Breakfast": 8958,
      "Badrin": 8959,
      "Badami": 8960,
      "Badminton": 8961,
      "Babu": 8962,
      "Banglades": 8963,
      "CSO": 8964,
      "Canva": 8965,
      "Camouflage": 8966,
      "Cheese": 8967,
      "DSLR": 8968,
      "Diaspora": 8969,
      "Diamond": 8970,
      "Diwali": 8971,
      "Dinner": 8972,
      "Donate": 8973,
      "Dalit": 8974,
      "Delta": 8975,
      "Distance": 8976,
      "Distinct": 8977,
      "Distinctive": 8978,
      "ELSS": 8979,
      "Embarrassing": 8980,
      "Freelance": 8981,
      "Filing": 8982,
      "Fruit": 8983,
      "Frustrating": 8984,
      "Frugal": 8985,
      "GPT": 8986,
      "GPay": 8987,
      "Geography": 8988,
      "Geometry": 8989,
      "George": 8990,
      "Generally": 8991,
      "Homesick": 8992,
      "Household": 8993,
      "IRDA": 8994,
      "IRCTC": 8995,
      "Jeyam": 8996,
      "Jewelry": 8997,
      "Jeevan": 8998,
      "Lucid": 8999,
      "Lighting": 9000,
      "Lightning": 9001,
      "MGR": 9002,
      "MGNRE": 9003,
      "Monday": 9004,
      "Monsoon": 9005,
      "Monthly": 9006,
      "Mindset": 9007,
      "Nutrition": 9008,
      "Nayanthar": 9009,
      "POCSO": 9010,
      "Pugazh": 9011,
      "Puranam": 9012,
      "Purifi": 9013,
      "Purananuru": 9014,
      "Priya": 9015,
      "Phytoremediation": 9016,
      "Practice": 9017,
      "Practical": 9018,
      "Practically": 9019,
      "Ratan": 9020,
      "Ratification": 9021,
      "Ratnam": 9022,
      "Relationship": 9023,
      "Religious": 9024,
      "Relaxation": 9025,
      "Saamai": 9026,
      "Spicy": 9027,
      "Spelling": 9028,
      "Spinach": 9029,
      "Salem": 9030,
      "Speed": 9031,
      "Specs": 9032,
      "Speaker": 9033,
      "Shastri": 9034,
      "Soccer": 9035,
      "Telemedicine": 9036,
      "Taxed": 9037,
      "Vinayag": 9038,
      "Velcro": 9039,
      "Velankann": 9040,
      "Velaiilla": 9041,
      "Volume": 9042,
      "Volatile": 9043,
      "Volunte": 9044,
      "Watching": 9045,
      "Yogi": 9046,
      "author": 9047,
      "beside": 9048,
      "broken": 9049,
      "bulbs": 9050,
      "blog": 9051,
      "bloom": 9052,
      "blockbust": 9053,
      "bayam": 9054,
      "baseball": 9055,
      "code": 9056,
      "codes": 9057,
      "cultivating": 9058,
      "catching": 9059,
      "catches": 9060,
      "customs": 9061,
      "customers": 9062,
      "dynamics": 9063,
      "dalcha": 9064,
      "double": 9065,
      "dedicated": 9066,
      "drawn": 9067,
      "deduction": 9068,
      "eppadum": 9069,
      "economics": 9070,
      "frame": 9071,
      "figures": 9072,
      "firmness": 9073,
      "hurt": 9074,
      "houses": 9075,
      "jumping": 9076,
      "judge": 9077,
      "judging": 9078,
      "judgment": 9079,
      "longevity": 9080,
      "masala": 9081,
      "mutual": 9082,
      "midday": 9083,
      "midnight": 9084,
      "middle": 9085,
      "operate": 9086,
      "picious": 9087,
      "picnic": 9088,
      "pandas": 9089,
      "pandradhu": 9090,
      "pigs": 9091,
      "pigment": 9092,
      "pigments": 9093,
      "punctuation": 9094,
      "pays": 9095,
      "paying": 9096,
      "package": 9097,
      "packages": 9098,
      "ranging": 9099,
      "slide": 9100,
      "slides": 9101,
      "slippery": 9102,
      "snakes": 9103,
      "smog": 9104,
      "smoke": 9105,
      "smoothie": 9106,
      "sellor": 9107,
      "tuition": 9108,
      "tuber": 9109,
      "talking": 9110,
      "touching": 9111,
      "touched": 9112,
      "vida": 9113,
      "violently": 9114,
      "vitamins": 9115,
      "welcome": 9116,
      "individu": 9117,
      "individually": 9118,
      "attracts": 9119,
      "attracting": 9120,
      "retire": 9121,
      "repair": 9122,
      "repairing": 9123,
      "repairs": 9124,
      "reptiles": 9125,
      "record": 9126,
      "thunderstorm": 9127,
      "statistics": 9128,
      "theaters": 9129,
      "ctuary": 9130,
      "cereals": 9131,
      "ceremony": 9132,
      "choose": 9133,
      "younger": 9134,
      "rooftop": 9135,
      "rollout": 9136,
      "several": 9137,
      "aspects": 9138,
      "adhari": 9139,
      "adocia": 9140,
      "lifespan": 9141,
      "lifestyle": 9142,
      "tracker": 9143,
      "telecom": 9144,
      "conflicts": 9145,
      "contains": 9146,
      "containing": 9147,
      "contained": 9148,
      "contribute": 9149,
      "providing": 9150,
      "programmed": 9151,
      "showed": 9152,
      "philosophy": 9153,
      "philosopher": 9154,
      "philosophical": 9155,
      "credit": 9156,
      "credits": 9157,
      "credited": 9158,
      "displays": 9159,
      "formulas": 9160,
      "majority": 9161,
      "precise": 9162,
      "precision": 9163,
      "precisely": 9164,
      "waterfalls": 9165,
      "Animals": 9166,
      "expanding": 9167,
      "inspire": 9168,
      "commercial": 9169,
      "interacting": 9170,
      "hydration": 9171,
      "adequacy": 9172,
      "Allergy": 9173,
      "corporates": 9174,
      "functional": 9175,
      "puzzling": 9176,
      "structural": 9177,
      "Contentment": 9178,
      "preservation": 9179,
      "centralized": 9180,
      "inventing": 9181,
      "moderate": 9182,
      "scribe": 9183,
      "sculptor": 9184,
      "Product": 9185,
      "football": 9186,
      "aayidudhu": 9187,
      "positivity": 9188,
      "potureengaa": 9189,
      "Artist": 9190,
      "dropout": 9191,
      "adikudha": 9192,
      "symptoms": 9193,
      "continuing": 9194,
      "Basketball": 9195,
      "conditions": 9196,
      "Newspaper": 9197,
      "digestion": 9198,
      "vandhuchu": 9199,
      "switching": 9200,
      "Bluetooth": 9201,
      "Blinki": 9202,
      "Calculus": 9203,
      "Calculate": 9204,
      "Calculated": 9205,
      "additional": 9206,
      "entertaining": 9207,
      "relevance": 9208,
      "Politics": 9209,
      "initiatives": 9210,
      "Hopeful": 9211,
      "Microfinance": 9212,
      "Microplastics": 9213,
      "girls": 9214,
      "girlfriend": 9215,
      "nenaichutu": 9216,
      "nenaichu": 9217,
      "nenaichuten": 9218,
      "kudippeengala": 9219,
      "Photosynthesis": 9220,
      "Risky": 9221,
      "Underutilized": 9222,
      "strengths": 9223,
      "2000s": 9224,
      "384": 9225,
      "Account": 9226,
      "Acceptance": 9227,
      "Akananuru": 9228,
      "Akasha": 9229,
      "Area": 9230,
      "Autumn": 9231,
      "Automation": 9232,
      "Astral": 9233,
      "Astronom": 9234,
      "Accessibility": 9235,
      "Alexa": 9236,
      "Alexander": 9237,
      "BSF": 9238,
      "BSNL": 9239,
      "Buy": 9240,
      "Bucking": 9241,
      "Bhagat": 9242,
      "Bhagav": 9243,
      "Borderline": 9244,
      "Citizen": 9245,
      "Citizens": 9246,
      "Chaturthi": 9247,
      "ChatGPT": 9248,
      "Circular": 9249,
      "Circuit": 9250,
      "Code": 9251,
      "Coding": 9252,
      "Career": 9253,
      "Careful": 9254,
      "Court": 9255,
      "Coursera": 9256,
      "Civic": 9257,
      "Civil": 9258,
      "Capcut": 9259,
      "DPDP": 9260,
      "Design": 9261,
[...]
