{
  "version": "1.0",
  "truncation": null,
  "padding": null,
  "added_tokens": [
    {
      "id": 0,
      "content": "[PAD]",
      "single_word": false,
      "lstrip": false,
      "rstrip": false,
      "normalized": false,
      "special": true
    },
    {
      "id": 1,
      "content": "[END]",
      "single_word": false,
      "lstrip": false,
      "rstrip": false,
      "normalized": false,
      "special": true
    },
    {
      "id": 2,
      "content": "[PROMPT]",
      "single_word": false,
      "lstrip": false,
      "rstrip": false,
      "normalized": false,
      "special": true
    },
    {
      "id": 3,
      "content": "[AI]",
      "single_word": false,
      "lstrip": false,
      "rstrip": false,
      "normalized": false,
      "special": true
    },
    {
      "id": 4,
      "content": "[SEP]",
      "single_word": false,
      "lstrip": false,
      "rstrip": false,
      "normalized": false,
      "special": true
    },
    {
      "id": 5,
      "content": "[START]",
      "single_word": false,
      "lstrip": false,
      "rstrip": false,
      "normalized": false,
      "special": true
    },
    {
      "id": 6,
      "content": "[UNK]",
      "single_word": false,
      "lstrip": false,
      "rstrip": false,
      "normalized": false,
      "special": true
    }
  ],
  "normalizer": null,
  "pre_tokenizer": {
    "type": "Whitespace"
  },
  "post_processor": null,
  "decoder": null,
  "model": {
    "type": "BPE",
    "dropout": null,
    "unk_token": "[UNK]",
    "continuing_subword_prefix": null,
    "end_of_word_suffix": null,
    "fuse_unk": false,
    "byte_fallback": false,
    "ignore_merges": false,
    "vocab": {
      "[PAD]": 0,
      "[END]": 1,
      "[PROMPT]": 2,
      "[AI]": 3,
      "[SEP]": 4,
      "[START]": 5,
      "[UNK]": 6,
      "!": 7,
      "\"": 8,
      "#": 9,
      "$": 10,
      "%": 11,
      "&": 12,
      "'": 13,
      "(": 14,
      ")": 15,
      "*": 16,
      "+": 17,
      ",": 18,
      "-": 19,
      ".": 20,
      "/": 21,
      "0": 22,
      "1": 23,
      "2": 24,
      "3": 25,
      "4": 26,
      "5": 27,
      "6": 28,
      "7": 29,
      "8": 30,
      "9": 31,
      ":": 32,
      ";": 33,
      "<": 34,
      "=": 35,
      ">": 36,
      "?": 37,
      "@": 38,
      "A": 39,
      "B": 40,
      "C": 41,
      "D": 42,
      "E": 43,
      "F": 44,
      "G": 45,
      "H": 46,
      "I": 47,
      "J": 48,
      "K": 49,
      "L": 50,
      "M": 51,
      "N": 52,
      "O": 53,
      "P": 54,
      "Q": 55,
      "R": 56,
      "S": 57,
      "T": 58,
      "U": 59,
      "V": 60,
      "W": 61,
      "X": 62,
      "Y": 63,
      "Z": 64,
      "[": 65,
      "\\": 66,
      "]": 67,
      "^": 68,
      "_": 69,
      "`": 70,
      "a": 71,
      "b": 72,
      "c": 73,
      "d": 74,
      "e": 75,
      "f": 76,
      "g": 77,
      "h": 78,
      "i": 79,
      "j": 80,
      "k": 81,
      "l": 82,
      "m": 83,
      "n": 84,
      "o": 85,
      "p": 86,
      "q": 87,
      "r": 88,
      "s": 89,
      "t": 90,
      "u": 91,
      "v": 92,
      "w": 93,
      "x": 94,
      "y": 95,
      "z": 96,
      "{": 97,
      "|": 98,
      "}": 99,
      "~": 100,
      "¡": 101,
      "£": 102,
      "¥": 103,
      "§": 104,
      "©": 105,
      "«": 106,
      "®": 107,
      "°": 108,
      "²": 109,
      "³": 110,
      "´": 111,
      "¶": 112,
      "·": 113,
      "º": 114,
      "»": 115,
      "½": 116,
      "¾": 117,
      "¿": 118,
      "Á": 119,
      "Ä": 120,
      "Å": 121,
      "Æ": 122,
      "É": 123,
      "Í": 124,
      "Ó": 125,
      "Ö": 126,
      "×": 127,
      "Ø": 128,
      "ß": 129,
      "à": 130,
      "á": 131,
      "â": 132,
      "ã": 133,
      "ä": 134,
      "å": 135,
      "æ": 136,
      "ç": 137,
      "è": 138,
      "é": 139,
      "ê": 140,
      "ë": 141,
      "ì": 142,
      "í": 143,
      "î": 144,
      "ï": 145,
      "ð": 146,
      "ñ": 147,
      "ó": 148,
      "ô": 149,
      "õ": 150,
      "ö": 151,
      "÷": 152,
      "ø": 153,
      "ù": 154,
      "ú": 155,
      "û": 156,
      "ü": 157,
      "ý": 158,
      "ā": 159,
      "ă": 160,
      "ć": 161,
      "č": 162,
      "đ": 163,
      "Ē": 164,
      "ē": 165,
      "ė": 166,
      "ę": 167,
      "ě": 168,
      "ğ": 169,
      "ī": 170,
      "İ": 171,
      "ı": 172,
      "Ł": 173,
      "ł": 174,
      "ń": 175,
      "ŋ": 176,
      "Ō": 177,
      "ō": 178,
      "ř": 179,
      "Ś": 180,
      "ś": 181,
      "Š": 182,
      "š": 183,
      "ū": 184,
      "ź": 185,
      "ż": 186,
      "ž": 187,
      "ǒ": 188,
      "Ș": 189,
      "ș": 190,
      "ț": 191,
      "ɑ": 192,
      "ɔ": 193,
      "ɕ": 194,
      "ə": 195,
      "ɛ": 196,
      "ɜ": 197,
      "ɡ": 198,
      "ɣ": 199,
      "ɪ": 200,
      "ɲ": 201,
      "ɾ": 202,
      "ʁ": 203,
      "ʃ": 204,
      "ʊ": 205,
      "ʌ": 206,
      "ʒ": 207,
      "ʝ": 208,
      "ʻ": 209,
      "ʼ": 210,
      "ʿ": 211,
      "ˈ": 212,
      "ˌ": 213,
      "ː": 214,
      "̂": 215,
      "̃": 216,
      "͡": 217,
      "Α": 218,
      "Η": 219,
      "Ρ": 220,
      "Ω": 221,
      "ή": 222,
      "α": 223,
      "β": 224,
      "γ": 225,
      "ε": 226,
      "θ": 227,
      "ι": 228,
      "κ": 229,
      "λ": 230,
      "μ": 231,
      "ν": 232,
      "π": 233,
      "ς": 234,
      "σ": 235,
      "φ": 236,
      "ύ": 237,
      "И": 238,
      "М": 239,
      "Я": 240,
      "а": 241,
      "в": 242,
      "д": 243,
      "и": 244,
      "к": 245,
      "л": 246,
      "н": 247,
      "о": 248,
      "ы": 249,
      "ћ": 250,
      "أ": 251,
      "ا": 252,
      "ب": 253,
      "ة": 254,
      "ت": 255,
      "ح": 256,
      "خ": 257,
      "د": 258,
      "ر": 259,
      "ز": 260,
      "س": 261,
      "ص": 262,
      "ض": 263,
      "ع": 264,
      "ف": 265,
      "ق": 266,
      "ل": 267,
      "م": 268,
      "ن": 269,
      "و": 270,
      "ى": 271,
      "ي": 272,
      "अ": 273,
      "ड": 274,
      "द": 275,
      "न": 276,
      "म": 277,
      "र": 278,
      "ल": 279,
      "व": 280,
      "श": 281,
      "ह": 282,
      "ा": 283,
      "ु": 284,
      "े": 285,
      "ो": 286,
      "्": 287,
      "দ": 288,
      "প": 289,
      "ম": 290,
      "র": 291,
      "স": 292,
      "হ": 293,
      "ু": 294,
      "ে": 295,
      "ਈ": 296,
      "ਕ": 297,
      "ਭ": 298,
      "ਵ": 299,
      "ਸ": 300,
      "਼": 301,
      "ਾ": 302,
      "ੀ": 303,
      "ੋ": 304,
      "ம": 305,
      "ழ": 306,
      "ி": 307,
      "ொ": 308,
      "ለ": 309,
      "ላ": 310,
      "ማ": 311,
      "ሥ": 312,
      "ሴ": 313,
      "ቀ": 314,
      "ኀ": 315,
      "ዊ": 316,
      "ይ": 317,
      "ዳ": 318,
      "ḍ": 319,
      "ḥ": 320,
      "Ḩ": 321,
      "ṃ": 322,
      "ṇ": 323,
      "ṣ": 324,
      "ṭ": 325,
      "ạ": 326,
      "ắ": 327,
      "ễ": 328,
      "ệ": 329,
      "ỳ": 330,
      "ῶ": 331,
      "​": 332,
      "‌": 333,
      "‎": 334,
      "‑": 335,
      "–": 336,
      "—": 337,
      "‘": 338,
      "’": 339,
      "‚": 340,
      "“": 341,
      "”": 342,
      "•": 343,
      "…": 344,
      "′": 345,
      "″": 346,
      "⁠": 347,
      "€": 348,
      "₹": 349,
      "⅓": 350,
      "−": 351,
      "√": 352,
      "≤": 353,
      "♭": 354,
      "♯": 355,
      "び": 356,
      "わ": 357,
      "ジ": 358,
      "ズ": 359,
      "フ": 360,
      "ム": 361,
      "レ": 362,
      "・": 363,
      "ー": 364,
      "不": 365,
      "二": 366,
      "五": 367,
      "任": 368,
      "何": 369,
      "化": 370,
      "叫": 371,
      "嗨": 372,
      "場": 373,
      "始": 374,
      "山": 375,
      "岳": 376,
      "帝": 377,
      "归": 378,
      "愛": 379,
      "戀": 380,
      "日": 381,
      "昌": 382,
      "本": 383,
      "来": 384,
      "杷": 385,
      "枇": 386,
      "柴": 387,
      "梯": 388,
      "橋": 389,
      "機": 390,
      "犬": 391,
      "王": 392,
      "現": 393,
      "男": 394,
      "皇": 395,
      "盲": 396,
      "看": 397,
      "神": 398,
      "秦": 399,
      "闘": 400,
      "電": 401,
      "鸡": 402,
      "령": 403,
      "부": 404,
      "산": 405,
      "황": 406,
      "ﬁ": 407,
      "ﬂ": 408,
      "﻿": 409,
      "，": 410,
      "�": 411,
      "th": 412,
      "in": 413,
      "ou": 414,
      "er": 415,
      "an": 416,
      "at": 417,
      "on": 418,
      "the": 419,
      "re": 420,
      ".\"": 421,
      ",\"": 422,
      "to": 423,
      "you": 424,
      "is": 425,
      "ll": 426,
      "en": 427,
      "ing": 428,
      "it": 429,
      "es": 430,
      "or": 431,
      "me": 432,
      "as": 433,
      "ar": 434,
      "ow": 435,
      "ed": 436,
      "he": 437,
      ".\",\"": 438,
      "ve": 439,
      "of": 440,
      "st": 441,
      "..": 442,
      "and": 443,
      "?\"": 444,
      "le": 445,
      "be": 446,
      "se": 447,
      "that": 448,
      "al": 449,
      "ot": 450,
      "ha": 451,
      "ay": 452,
      "hat": 453,
      "id": 454,
      "ic": 455,
      "ke": 456,
      "all": 457,
      "ld": 458,
      "ere": 459,
      "ac": 460,
      "li": 461,
      "gh": 462,
      "so": 463,
      "do": 464,
      "oo": 465,
      "now": 466,
      "ver": 467,
      "ut": 468,
      "for": 469,
      "et": 470,
      "ch": 471,
      "ad": 472,
      "?\",\"": 473,
      "out": 474,
      "ro": 475,
      "ent": 476,
      "are": 477,
      "wi": 478,
      "wh": 479,
      "You": 480,
      "was": 481,
      "ion": 482,
      "know": 483,
      "ri": 484,
      "we": 485,
      "ab": 486,
      "ght": 487,
      "ly": 488,
      "co": 489,
      "have": 490,
      "am": 491,
      "one": 492,
      "ould": 493,
      "un": 494,
      "...": 495,
      "im": 496,
      "ir": 497,
      "ter": 498,
      "ne": 499,
      "us": 500,
      "mo": 501,
      "go": 502,
      "with": 503,
      "The": 504,
      "ust": 505,
      "lo": 506,
      "not": 507,
      "like": 508,
      "thing": 509,
      "--": 510,
      "nd": 511,
      "can": 512,
      "sh": 513,
      "su": 514,
      "don": 515,
      "It": 516,
      "ant": 517,
      "my": 518,
      "they": 519,
      "ce": 520,
      "pe": 521,
      "if": 522,
      "ink": 523,
      "What": 524,
      "your": 525,
      "tr": 526,
      "!\"": 527,
      "ag": 528,
      "ther": 529,
      "ell": 530,
      "est": 531,
      "pl": 532,
      "what": 533,
      "here": 534,
      "about": 535,
      "some": 536,
      "this": 537,
      "up": 538,
      "get": 539,
      "think": 540,
      "de": 541,
      "ill": 542,
      "did": 543,
      "any": 544,
      "ur": 545,
      "ally": 546,
      "but": 547,
      "ti": 548,
      "That": 549,
      "ea": 550,
      "po": 551,
      "ood": 552,
      "fe": 553,
      "his": 554,
      "He": 555,
      "ta": 556,
      "ess": 557,
      "no": 558,
      "ck": 559,
      "wor": 560,
      "there": 561,
      "would": 562,
      "way": 563,
      "ma": 564,
      "ers": 565,
      "just": 566,
      "ho": 567,
      "gu": 568,
      "ack": 569,
      "ook": 570,
      "ame": 571,
      "con": 572,
      "No": 573,
      "ra": 574,
      "ard": 575,
      "\"\"": 576,
      "ple": 577,
      "want": 578,
      "our": 579,
      "ind": 580,
      "art": 581,
      "rom": 582,
      "il": 583,
      "got": 584,
      "ever": 585,
      "him": 586,
      "res": 587,
      "com": 588,
      "man": 589,
      "pp": 590,
      "see": 591,
      "ight": 592,
      "au": 593,
      "bo": 594,
      "der": 595,
      "eah": 596,
      "ry": 597,
      "ation": 598,
      "ct": 599,
      "ex": 600,
      "el": 601,
      "ven": 602,
      "ie": 603,
      "from": 604,
      "ist": 605,
      "ate": 606,
      "her": 607,
      "ul": 608,
      "right": 609,
      "ice": 610,
      "ound": 611,
      "end": 612,
      "too": 613,
      "ig": 614,
      "We": 615,
      "um": 616,
      "ong": 617,
      "Yeah": 618,
      "ive": 619,
      "te": 620,
      "ine": 621,
      "act": 622,
      "ge": 623,
      "how": 624,
      "And": 625,
      "good": 626,
      "fo": 627,
      "ough": 628,
      "them": 629,
      "qu": 630,
      "Yes": 631,
      "who": 632,
      "ast": 633,
      "pro": 634,
      "Do": 635,
      "time": 636,
      "own": 637,
      "ear": 638,
      "has": 639,
      "by": 640,
      "more": 641,
      "ep": 642,
      "Wh": 643,
      "day": 644,
      "sa": 645,
      "per": 646,
      "king": 647,
      "had": 648,
      "!\",\"": 649,
      "been": 650,
      "could": 651,
      "So": 652,
      "ain": 653,
      "going": 654,
      "\",\"": 655,
      "won": 656,
      "were": 657,
      "ty": 658,
      "play": 659,
      "ment": 660,
      "ite": 661,
      "They": 662,
      "when": 663,
      "will": 664,
      "But": 665,
      "back": 666,
      "say": 667,
      "dy": 668,
      "she": 669,
      "...\"": 670,
      "reat": 671,
      "Oh": 672,
      "ople": 673,
      "ace": 674,
      "other": 675,
      "ous": 676,
      "How": 677,
      "ies": 678,
      "Well": 679,
      "...\",\"": 680,
      "uck": 681,
      "ap": 682,
      "sp": 683,
      "wo": 684,
      "didn": 685,
      "really": 686,
      "ick": 687,
      "off": 688,
      "than": 689,
      "bl": 690,
      "Th": 691,
      "wat": 692,
      "people": 693,
      "red": 694,
      "mu": 695,
      "cau": 696,
      "ort": 697,
      "ree": 698,
      "come": 699,
      "very": 700,
      "look": 701,
      "ide": 702,
      "ity": 703,
      "ber": 704,
      "ave": 705,
      "tal": 706,
      "cause": 707,
      "much": 708,
      "year": 709,
      "inter": 710,
      "only": 711,
      "Did": 712,
      "ass": 713,
      "their": 714,
      "over": 715,
      "never": 716,
      "af": 717,
      "tell": 718,
      "read": 719,
      "bet": 720,
      "00": 721,
      "sure": 722,
      "pr": 723,
      "ph": 724,
      "itt": 725,
      "na": 726,
      "ble": 727,
      "make": 728,
      "ase": 729,
      "pre": 730,
      "ci": 731,
      "ish": 732,
      "nt": 733,
      "call": 734,
      "em": 735,
      "mean": 736,
      "lot": 737,
      "where": 738,
      "ue": 739,
      "car": 740,
      "every": 741,
      "need": 742,
      "lf": 743,
      "ich": 744,
      "does": 745,
      "ball": 746,
      "ought": 747,
      "ure": 748,
      "new": 749,
      "gr": 750,
      "ool": 751,
      "age": 752,
      "ks": 753,
      "something": 754,
      "ach": 755,
      "take": 756,
      "even": 757,
      "sto": 758,
      "In": 759,
      "di": 760,
      "aybe": 761,
      "should": 762,
      "watch": 763,
      "br": 764,
      "down": 765,
      "pres": 766,
      "try": 767,
      "love": 768,
      "ting": 769,
      "ny": 770,
      "She": 771,
      "av": 772,
      "lie": 773,
      "wonder": 774,
      "irst": 775,
      "There": 776,
      "bu": 777,
      "Why": 778,
      "well": 779,
      "great": 780,
      "happ": 781,
      "cl": 782,
      "then": 783,
      "If": 784,
      "fore": 785,
      "oney": 786,
      "ade": 787,
      "work": 788,
      "int": 789,
      "ms": 790,
      "long": 791,
      "ps": 792,
      "jo": 793,
      "mov": 794,
      "tor": 795,
      "use": 796,
      "cou": 797,
      "ident": 798,
      "because": 799,
      "ittle": 800,
      "why": 801,
      "Co": 802,
      "fer": 803,
      "guess": 804,
      "let": 805,
      "This": 806,
      "self": 807,
      "si": 808,
      "ran": 809,
      "aw": 810,
      "od": 811,
      "first": 812,
      "able": 813,
      "most": 814,
      "hi": 815,
      "kes": 816,
      "put": 817,
      "old": 818,
      "ans": 819,
      "little": 820,
      "Don": 821,
      "into": 822,
      "pos": 823,
      "body": 824,
      "years": 825,
      "ning": 826,
      "guy": 827,
      "its": 828,
      "also": 829,
      "ways": 830,
      "min": 831,
      "ose": 832,
      "show": 833,
      "bab": 834,
      "fun": 835,
      "name": 836,
      ".,": 837,
      "hel": 838,
      "though": 839,
      "thought": 840,
      "ence": 841,
      "used": 842,
      "ary": 843,
      "wr": 844,
      "heard": 845,
      "thr": 846,
      "under": 847,
      "mer": 848,
      "many": 849,
      "kay": 850,
      "still": 851,
      "Mr": 852,
      "St": 853,
      "belie": 854,
      "money": 855,
      "Ch": 856,
      "cer": 857,
      "ser": 858,
      "interest": 859,
      "ang": 860,
      "spe": 861,
      "two": 862,
      "mem": 863,
      "fuck": 864,
      "part": 865,
      "stand": 866,
      "ually": 867,
      "ouse": 868,
      "said": 869,
      "kill": 870,
      "mon": 871,
      "happen": 872,
      "ated": 873,
      "Is": 874,
      "dis": 875,
      "ance": 876,
      "gon": 877,
      "ak": 878,
      "must": 879,
      "ile": 880,
      "find": 881,
      "Who": 882,
      "19": 883,
      "iz": 884,
      ".,\"": 885,
      "ff": 886,
      "sc": 887,
      "dr": 888,
      "riend": 889,
      "around": 890,
      "iss": 891,
      "ving": 892,
      "Not": 893,
      "tain": 894,
      "ions": 895,
      "after": 896,
      "op": 897,
      "list": 898,
      "hu": 899,
      "gonna": 900,
      "those": 901,
      "before": 902,
      "pret": 903,
      "feel": 904,
      "ves": 905,
      "things": 906,
      "My": 907,
      "ord": 908,
      "io": 909,
      "made": 910,
      "ton": 911,
      "book": 912,
      "night": 913,
      ".\",": 914,
      "big": 915,
      "believe": 916,
      "talk": 917,
      "life": 918,
      "help": 919,
      "kind": 920,
      "ned": 921,
      "ved": 922,
      "kid": 923,
      "Re": 924,
      "doing": 925,
      "which": 926,
      "again": 927,
      "tim": 928,
      "fi": 929,
      "Be": 930,
      "cra": 931,
      "better": 932,
      "land": 933,
      "friend": 934,
      "always": 935,
      "start": 936,
      "ia": 937,
      "mar": 938,
      "fin": 939,
      "hear": 940,
      "</": 941,
      "Are": 942,
      "ins": 943,
      "pretty": 944,
      "Now": 945,
      "mat": 946,
      "world": 947,
      "fa": 948,
      "real": 949,
      "ru": 950,
      "ild": 951,
      "--\"": 952,
      "--\",\"": 953,
      "Just": 954,
      "dif": 955,
      "anything": 956,
      "Where": 957,
      "run": 958,
      "member": 959,
      "?,": 960,
      "zy": 961,
      "ket": 962,
      "give": 963,
      "om": 964,
      "cour": 965,
      "these": 966,
      "ull": 967,
      "Can": 968,
      "last": 969,
      "?,\"": 970,
      "clo": 971,
      "cent": 972,
      "ol": 973,
      "Maybe": 974,
      "ise": 975,
      "ince": 976,
      "place": 977,
      "yes": 978,
      "ten": 979,
      "che": 980,
      "stu": 981,
      "pt": 982,
      "care": 983,
      "orry": 984,
      "ait": 985,
      "fl": 986,
      "erson": 987,
      "ama": 988,
      "als": 989,
      "bad": 990,
      "ful": 991,
      "son": 992,
      "rad": 993,
      "interesting": 994,
      "sur": 995,
      "comp": 996,
      "men": 997,
      "Some": 998,
      "tur": 999,
      "high": 1000,
      "mus": 1001,
      "keep": 1002,
      "ng": 1003,
      "All": 1004,
      "ask": 1005,
      "ian": 1006,
      "house": 1007,
      "times": 1008,
      "ip": 1009,
      "best": 1010,
      "lol": 1011,
      "sho": 1012,
      "ars": 1013,
      "ft": 1014,
      "went": 1015,
      "bably": 1016,
      "game": 1017,
      "mor": 1018,
      "hand": 1019,
      "20": 1020,
      "ical": 1021,
      "differ": 1022,
      "cre": 1023,
      "head": 1024,
      "Good": 1025,
      "Al": 1026,
      "pa": 1027,
      "crazy": 1028,
      "being": 1029,
      "Jo": 1030,
      "lear": 1031,
      "ark": 1032,
      "might": 1033,
      "ames": 1034,
      "Ne": 1035,
      "nice": 1036,
      "team": 1037,
      "gir": 1038,
      "president": 1039,
      "remember": 1040,
      "came": 1041,
      "through": 1042,
      "seen": 1043,
      "ious": 1044,
      "ried": 1045,
      "actually": 1046,
      "away": 1047,
      "ons": 1048,
      "fam": 1049,
      "sch": 1050,
      "ner": 1051,
      "sound": 1052,
      "cont": 1053,
      "ake": 1054,
      "bus": 1055,
      "For": 1056,
      "plan": 1057,
      "Hey": 1058,
      "Let": 1059,
      "doesn": 1060,
      "app": 1061,
      "home": 1062,
      "vent": 1063,
      "net": 1064,
      "understand": 1065,
      "music": 1066,
      "called": 1067,
      "bit": 1068,
      "ank": 1069,
      "gen": 1070,
      "des": 1071,
      "ect": 1072,
      "maybe": 1073,
      "dog": 1074,
      "listen": 1075,
      "les": 1076,
      "illion": 1077,
      "port": 1078,
      "oom": 1079,
      "Have": 1080,
      "Look": 1081,
      "God": 1082,
      "sm": 1083,
      "Ro": 1084,
      "point": 1085,
      "since": 1086,
      "told": 1087,
      "When": 1088,
      "ute": 1089,
      "less": 1090,
      "ike": 1091,
      "ens": 1092,
      "vis": 1093,
      "du": 1094,
      "bas": 1095,
      "person": 1096,
      "Se": 1097,
      "same": 1098,
      "ger": 1099,
      "str": 1100,
      "\",": 1101,
      "ict": 1102,
      "ily": 1103,
      "set": 1104,
      "girl": 1105,
      "cool": 1106,
      "movie": 1107,
      "ors": 1108,
      "mind": 1109,
      "att": 1110,
      "cr": 1111,
      "hard": 1112,
      "ash": 1113,
      "makes": 1114,
      "ird": 1115,
      "found": 1116,
      "while": 1117,
      "shit": 1118,
      "sy": 1119,
      "ud": 1120,
      "pop": 1121,
      "ower": 1122,
      "ele": 1123,
      "Then": 1124,
      "three": 1125,
      "sorry": 1126,
      "ither": 1127,
      "boy": 1128,
      "ones": 1129,
      "bre": 1130,
      "dri": 1131,
      "ss": 1132,
      "ign": 1133,
      "enough": 1134,
      "wee": 1135,
      "probably": 1136,
      "dam": 1137,
      "ating": 1138,
      "ire": 1139,
      "idea": 1140,
      "live": 1141,
      "Okay": 1142,
      "isn": 1143,
      "ress": 1144,
      "bro": 1145,
      "nothing": 1146,
      "form": 1147,
      "Un": 1148,
      "different": 1149,
      "ates": 1150,
      "Hi": 1151,
      "wouldn": 1152,
      "school": 1153,
      "foot": 1154,
      "pol": 1155,
      "such": 1156,
      "ready": 1157,
      "saw": 1158,
      "Le": 1159,
      "funny": 1160,
      "ts": 1161,
      "agree": 1162,
      "Hell": 1163,
      "ense": 1164,
      "phone": 1165,
      "cess": 1166,
      "talking": 1167,
      "med": 1168,
      "mm": 1169,
      "llow": 1170,
      "sir": 1171,
      "job": 1172,
      "ason": 1173,
      "stay": 1174,
      "la": 1175,
      "course": 1176,
      "hun": 1177,
      "done": 1178,
      "ob": 1179,
      "arent": 1180,
      "par": 1181,
      "word": 1182,
      "radio": 1183,
      "ump": 1184,
      "lar": 1185,
      "getting": 1186,
      "another": 1187,
      "top": 1188,
      "coun": 1189,
      "meric": 1190,
      "ren": 1191,
      "Americ": 1192,
      "light": 1193,
      "true": 1194,
      "wanted": 1195,
      "wait": 1196,
      "else": 1197,
      "ition": 1198,
      "few": 1199,
      "everything": 1200,
      "hell": 1201,
      "knew": 1202,
      "rest": 1203,
      "ular": 1204,
      "ago": 1205,
      "may": 1206,
      "rec": 1207,
      "pay": 1208,
      "ations": 1209,
      "De": 1210,
      "yeah": 1211,
      "okay": 1212,
      "sing": 1213,
      "days": 1214,
      "cond": 1215,
      "side": 1216,
      "Mo": 1217,
      "iness": 1218,
      "To": 1219,
      "ya": 1220,
      "ction": 1221,
      "?\",": 1222,
      "Your": 1223,
      "ces": 1224,
      "ics": 1225,
      "wal": 1226,
      "til": 1227,
      "fav": 1228,
      "someone": 1229,
      "happened": 1230,
      "room": 1231,
      "fact": 1232,
      "Sh": 1233,
      "water": 1234,
      "Tr": 1235,
      "row": 1236,
      "ings": 1237,
      "gi": 1238,
      "cur": 1239,
      "wrong": 1240,
      "An": 1241,
      "Come": 1242,
      "dead": 1243,
      "cons": 1244,
      "sup": 1245,
      "follow": 1246,
      "sha": 1247,
      "quest": 1248,
      "ater": 1249,
      "ath": 1250,
      "gy": 1251,
      "vers": 1252,
      "pect": 1253,
      "cha": 1254,
      "chan": 1255,
      "ste": 1256,
      "ith": 1257,
      "ial": 1258,
      "On": 1259,
      "gl": 1260,
      "left": 1261,
      "fr": 1262,
      "air": 1263,
      "fil": 1264,
      "fan": 1265,
      "Mar": 1266,
      "wasn": 1267,
      "seems": 1268,
      "miss": 1269,
      "ubl": 1270,
      "once": 1271,
      "yourself": 1272,
      "haha": 1273,
      "bor": 1274,
      "hour": 1275,
      "ship": 1276,
      "favor": 1277,
      "either": 1278,
      "Wow": 1279,
      "war": 1280,
      "cat": 1281,
      "lt": 1282,
      "count": 1283,
      "pris": 1284,
      "col": 1285,
      "key": 1286,
      "pri": 1287,
      "hn": 1288,
      "coll": 1289,
      "line": 1290,
      "char": 1291,
      "each": 1292,
      "haven": 1293,
      "ider": 1294,
      "Ex": 1295,
      "football": 1296,
      "cle": 1297,
      "comm": 1298,
      "hor": 1299,
      "coming": 1300,
      "trying": 1301,
      "whole": 1302,
      "Hello": 1303,
      "father": 1304,
      "cial": 1305,
      "child": 1306,
      "New": 1307,
      "Go": 1308,
      "stuff": 1309,
      "million": 1310,
      "leave": 1311,
      "chat": 1312,
      "US": 1313,
      "mp": 1314,
      "today": 1315,
      "John": 1316,
      "As": 1317,
      "country": 1318,
      "wer": 1319,
      "hope": 1320,
      "fli": 1321,
      "Ha": 1322,
      "epis": 1323,
      "bur": 1324,
      "gg": 1325,
      "business": 1326,
      "ards": 1327,
      "face": 1328,
      "Me": 1329,
      "!!": 1330,
      "without": 1331,
      "law": 1332,
      "sport": 1333,
      "joy": 1334,
      "full": 1335,
      "proble": 1336,
      "anim": 1337,
      "inv": 1338,
      "vide": 1339,
      "wear": 1340,
      "bum": 1341,
      "turn": 1342,
      "ctor": 1343,
      "buy": 1344,
      "win": 1345,
      "cus": 1346,
      "ote": 1347,
      "ited": 1348,
      "ries": 1349,
      "outh": 1350,
      "uh": 1351,
      "amaz": 1352,
      "os": 1353,
      "until": 1354,
      "ters": 1355,
      "Any": 1356,
      "eas": 1357,
      "both": 1358,
      "meet": 1359,
      "anks": 1360,
      "Ma": 1361,
      "gotta": 1362,
      "band": 1363,
      "human": 1364,
      "num": 1365,
      "cy": 1366,
      "far": 1367,
      "200": 1368,
      "Right": 1369,
      "looking": 1370,
      "kids": 1371,
      "deal": 1372,
      "add": 1373,
      "late": 1374,
      "mother": 1375,
      "ual": 1376,
      "week": 1377,
      "Br": 1378,
      "vice": 1379,
      "five": 1380,
      "Fran": 1381,
      "gether": 1382,
      "tow": 1383,
      "Like": 1384,
      "One": 1385,
      "\"...": 1386,
      "movies": 1387,
      "pass": 1388,
      "least": 1389,
      "xt": 1390,
      "stop": 1391,
      "power": 1392,
      "took": 1393,
      "ked": 1394,
      "leep": 1395,
      "together": 1396,
      "Or": 1397,
      "sl": 1398,
      "ese": 1399,
      "ye": 1400,
      "dec": 1401,
      "ities": 1402,
      "Get": 1403,
      "ream": 1404,
      "Ho": 1405,
      "concer": 1406,
      "fucking": 1407,
      "gre": 1408,
      "ced": 1409,
      "stem": 1410,
      "record": 1411,
      "ail": 1412,
      "ween": 1413,
      "free": 1414,
      "lease": 1415,
      "fine": 1416,
      "imag": 1417,
      "vo": 1418,
      "tory": 1419,
      "class": 1420,
      "guys": 1421,
      "myself": 1422,
      "posed": 1423,
      "wish": 1424,
      "ublic": 1425,
      "second": 1426,
      "die": 1427,
      "enjoy": 1428,
      "Will": 1429,
      "next": 1430,
      "played": 1431,
      "Ar": 1432,
      "flix": 1433,
      "album": 1434,
      "check": 1435,
      "possi": 1436,
      "yet": 1437,
      "hold": 1438,
      "Ge": 1439,
      "ness": 1440,
      "lock": 1441,
      "woman": 1442,
      "ically": 1443,
      "sim": 1444,
      "move": 1445,
      "doll": 1446,
      "bed": 1447,
      "vel": 1448,
      "matter": 1449,
      "Tell": 1450,
      "Every": 1451,
      "Bo": 1452,
      "alf": 1453,
      "four": 1454,
      "10": 1455,
      "case": 1456,
      "popular": 1457,
      "cut": 1458,
      "18": 1459,
      "between": 1460,
      "sk": 1461,
      "family": 1462,
      "Of": 1463,
      "aut": 1464,
      "tive": 1465,
      "sounds": 1466,
      "ery": 1467,
      "ister": 1468,
      "ared": 1469,
      "avel": 1470,
      "games": 1471,
      "ize": 1472,
      "Sure": 1473,
      "hur": 1474,
      "wife": 1475,
      "sit": 1476,
      "base": 1477,
      "cor": 1478,
      "Car": 1479,
      "arently": 1480,
      "Chr": 1481,
      "morning": 1482,
      "Je": 1483,
      "already": 1484,
      "bar": 1485,
      "import": 1486,
      "cept": 1487,
      "itch": 1488,
      "huh": 1489,
      "tri": 1490,
      "uni": 1491,
      "couldn": 1492,
      "At": 1493,
      "ub": 1494,
      "press": 1495,
      "started": 1496,
      "favorite": 1497,
      "sense": 1498,
      "players": 1499,
      "000": 1500,
      "fect": 1501,
      "friends": 1502,
      "system": 1503,
      "pick": 1504,
      "killed": 1505,
      "open": 1506,
      "dred": 1507,
      "creat": 1508,
      "pose": 1509,
      "consider": 1510,
      "Thank": 1511,
      "Jack": 1512,
      "Ind": 1513,
      "says": 1514,
      "change": 1515,
      "sol": 1516,
      "Har": 1517,
      "ents": 1518,
      "making": 1519,
      "story": 1520,
      "ext": 1521,
      "actly": 1522,
      "ze": 1523,
      "travel": 1524,
      "damn": 1525,
      "eng": 1526,
      "ef": 1527,
      "young": 1528,
      "minute": 1529,
      "sun": 1530,
      "gover": 1531,
      "ken": 1532,
      "please": 1533,
      "pped": 1534,
      "worth": 1535,
      "ah": 1536,
      "cho": 1537,
      "Cl": 1538,
      "ketball": 1539,
      "hundred": 1540,
      "white": 1541,
      "sub": 1542,
      "amazing": 1543,
      "produ": 1544,
      "Sp": 1545,
      "lead": 1546,
      "utes": 1547,
      "Bl": 1548,
      "fast": 1549,
      "ational": 1550,
      "Because": 1551,
      "important": 1552,
      "half": 1553,
      "eat": 1554,
      "internet": 1555,
      "Pres": 1556,
      "iv": 1557,
      "build": 1558,
      "leg": 1559,
      "Thanks": 1560,
      "ev": 1561,
      "having": 1562,
      "ross": 1563,
      "surpris": 1564,
      "aking": 1565,
      "drink": 1566,
      "lin": 1567,
      "mil": 1568,
      "ix": 1569,
      "ube": 1570,
      "cal": 1571,
      "oun": 1572,
      "Net": 1573,
      "comput": 1574,
      "quite": 1575,
      "hot": 1576,
      "figu": 1577,
      "ject": 1578,
      "nment": 1579,
      "dogs": 1580,
      "gra": 1581,
      "shot": 1582,
      "!,": 1583,
      "reason": 1584,
      "town": 1585,
      "tonight": 1586,
      "ory": 1587,
      "lan": 1588,
      "tru": 1589,
      "mas": 1590,
      "minutes": 1591,
      "problem": 1592,
      "prom": 1593,
      "Nor": 1594,
      "gets": 1595,
      "number": 1596,
      "saying": 1597,
      "six": 1598,
      "allow": 1599,
      "known": 1600,
      "sell": 1601,
      "Please": 1602,
      "ys": 1603,
      "lost": 1604,
      "uring": 1605,
      "ca": 1606,
      "defin": 1607,
      "cars": 1608,
      "thinking": 1609,
      "ling": 1610,
      "news": 1611,
      "enter": 1612,
      "ants": 1613,
      "ield": 1614,
      "knows": 1615,
      "basketball": 1616,
      "imagine": 1617,
      "sleep": 1618,
      "using": 1619,
      "Netflix": 1620,
      "rel": 1621,
      "month": 1622,
      "question": 1623,
      "LO": 1624,
      "50": 1625,
      "az": 1626,
      "sign": 1627,
      "rain": 1628,
      "President": 1629,
      "Po": 1630,
      "reading": 1631,
      "comes": 1632,
      "rid": 1633,
      "Here": 1634,
      "player": 1635,
      "break": 1636,
      "unch": 1637,
      "Bill": 1638,
      "fish": 1639,
      "anyone": 1640,
      "cri": 1641,
      "mis": 1642,
      "itely": 1643,
      "gun": 1644,
      "ont": 1645,
      "Mic": 1646,
      "mine": 1647,
      "Ste": 1648,
      "Pro": 1649,
      "gone": 1650,
      "fic": 1651,
      "ili": 1652,
      "nat": 1653,
      "ousand": 1654,
      "bring": 1655,
      "arch": 1656,
      "ban": 1657,
      "fort": 1658,
      "hours": 1659,
      "Dr": 1660,
      "alone": 1661,
      "ug": 1662,
      "song": 1663,
      "super": 1664,
      "led": 1665,
      "exp": 1666,
      "office": 1667,
      "TV": 1668,
      "paid": 1669,
      "alth": 1670,
      "state": 1671,
      "wants": 1672,
      "baby": 1673,
      "actor": 1674,
      "thousand": 1675,
      "chang": 1676,
      "working": 1677,
      "company": 1678,
      "colle": 1679,
      "against": 1680,
      "beaut": 1681,
      "aren": 1682,
      "ouble": 1683,
      "ney": 1684,
      "tract": 1685,
      "raid": 1686,
      "blood": 1687,
      "det": 1688,
      "ush": 1689,
      "government": 1690,
      "gle": 1691,
      "cell": 1692,
      "Nice": 1693,
      "iter": 1694,
      "watching": 1695,
      "Geor": 1696,
      "gan": 1697,
      "nor": 1698,
      "range": 1699,
      "small": 1700,
      "supposed": 1701,
      "fight": 1702,
      "walk": 1703,
      "appe": 1704,
      "ats": 1705,
      "playing": 1706,
      "hon": 1707,
      "later": 1708,
      "vie": 1709,
      "hit": 1710,
      "certain": 1711,
      "food": 1712,
      "ane": 1713,
      "Jes": 1714,
      "ier": 1715,
      "worry": 1716,
      "possible": 1717,
      "Really": 1718,
      "incl": 1719,
      "ased": 1720,
      "Uh": 1721,
      "public": 1722,
      "drive": 1723,
      "Tom": 1724,
      "pat": 1725,
      "American": 1726,
      "Inter": 1727,
      "seem": 1728,
      "cap": 1729,
      "ots": 1730,
      "fre": 1731,
      "chatting": 1732,
      "happy": 1733,
      "eral": 1734,
      "soon": 1735,
      "shows": 1736,
      "chance": 1737,
      "almost": 1738,
      "Gr": 1739,
      "brother": 1740,
      "anymore": 1741,
      "unk": 1742,
      "anna": 1743,
      "ices": 1744,
      "baseball": 1745,
      "ists": 1746,
      "ond": 1747,
      "ments": 1748,
      "Pe": 1749,
      "List": 1750,
      "books": 1751,
      "cover": 1752,
      "close": 1753,
      "rent": 1754,
      "!\",": 1755,
      "dollars": 1756,
      "comple": 1757,
      "ets": 1758,
      "history": 1759,
      "Christ": 1760,
      "Dad": 1761,
      "stre": 1762,
      "tw": 1763,
      "ific": 1764,
      "iful": 1765,
      "dont": 1766,
      "black": 1767,
      "exper": 1768,
      "Would": 1769,
      "ult": 1770,
      "ify": 1771,
      "12": 1772,
      "His": 1773,
      "orig": 1774,
      "ork": 1775,
      "looks": 1776,
      "afraid": 1777,
      "Lo": 1778,
      "main": 1779,
      "ding": 1780,
      "Nothing": 1781,
      "ome": 1782,
      "Man": 1783,
      "door": 1784,
      "heart": 1785,
      "tech": 1786,
      "video": 1787,
      "met": 1788,
      "ility": 1789,
      "gave": 1790,
      "wenty": 1791,
      "Ab": 1792,
      "luck": 1793,
      "ures": 1794,
      "star": 1795,
      "god": 1796,
      "ury": 1797,
      "plain": 1798,
      "morrow": 1799,
      "rect": 1800,
      "women": 1801,
      "ror": 1802,
      "!,\"": 1803,
      "prof": 1804,
      "space": 1805,
      "animals": 1806,
      "learn": 1807,
      "Eng": 1808,
      "tomorrow": 1809,
      "origin": 1810,
      "ude": 1811,
      "shoot": 1812,
      "gin": 1813,
      "----": 1814,
      "view": 1815,
      "order": 1816,
      "uc": 1817,
      "Jesus": 1818,
      "Tho": 1819,
      "LOL": 1820,
      "easy": 1821,
      "ages": 1822,
      "college": 1823,
      "With": 1824,
      "val": 1825,
      "dro": 1826,
      "sometimes": 1827,
      "BA": 1828,
      "ode": 1829,
      "qui": 1830,
      "definitely": 1831,
      "named": 1832,
      "couple": 1833,
      "tried": 1834,
      "fire": 1835,
      "Gu": 1836,
      "expect": 1837,
      "log": 1838,
      "cially": 1839,
      "hate": 1840,
      "oogle": 1841,
      "Which": 1842,
      "ital": 1843,
      "flo": 1844,
      "ional": 1845,
      "ouch": 1846,
      "sel": 1847,
      "terri": 1848,
      "ctive": 1849,
      "pur": 1850,
      "gram": 1851,
      "everyone": 1852,
      "field": 1853,
      "ris": 1854,
      "means": 1855,
      "exactly": 1856,
      "anyway": 1857,
      "Listen": 1858,
      "Fo": 1859,
      "Miss": 1860,
      ".\"\"": 1861,
      "party": 1862,
      "....": 1863,
      "during": 1864,
      "mb": 1865,
      "George": 1866,
      "emp": 1867,
      "ward": 1868,
      "goes": 1869,
      "lad": 1870,
      "ides": 1871,
      "contro": 1872,
      "taking": 1873,
      "iting": 1874,
      "Sim": 1875,
      "Take": 1876,
      "film": 1877,
      "city": 1878,
      "See": 1879,
      "polit": 1880,
      "pict": 1881,
      "pie": 1882,
      "train": 1883,
      "apan": 1884,
      "ather": 1885,
      "beautiful": 1886,
      "hurt": 1887,
      "den": 1888,
      "married": 1889,
      "serious": 1890,
      "sal": 1891,
      "spec": 1892,
      "ata": 1893,
      "weird": 1894,
      "Im": 1895,
      "Very": 1896,
      "ica": 1897,
      "children": 1898,
      "bull": 1899,
      ".\"\"\"": 1900,
      "cop": 1901,
      "Wor": 1902,
      "sci": 1903,
      "become": 1904,
      "House": 1905,
      "ai": 1906,
      "Ed": 1907,
      "ring": 1908,
      "grow": 1909,
      "pen": 1910,
      "rap": 1911,
      "Canad": 1912,
      "Spe": 1913,
      "ls": 1914,
      "episode": 1915,
      "mess": 1916,
      "along": 1917,
      "fif": 1918,
      "ator": 1919,
      "ounds": 1920,
      "wood": 1921,
      "often": 1922,
      "Ear": 1923,
      "Mrs": 1924,
      "sent": 1925,
      "Jim": 1926,
      "jor": 1927,
      "amp": 1928,
      "hind": 1929,
      "sold": 1930,
      "died": 1931,
      "Give": 1932,
      "ative": 1933,
      "ster": 1934,
      "pain": 1935,
      "esting": 1936,
      "running": 1937,
      "din": 1938,
      "acc": 1939,
      "ished": 1940,
      "surprised": 1941,
      "beat": 1942,
      "smart": 1943,
      "sad": 1944,
      "ches": 1945,
      "liked": 1946,
      "Cap": 1947,
      "gest": 1948,
      "lay": 1949,
      "inst": 1950,
      "wind": 1951,
      "hael": 1952,
      "King": 1953,
      "low": 1954,
      "reg": 1955,
      "medi": 1956,
      "TH": 1957,
      "service": 1958,
      "send": 1959,
      "touch": 1960,
      "dance": 1961,
      "search": 1962,
      "odes": 1963,
      "supp": 1964,
      "cred": 1965,
      "Char": 1966,
      "asked": 1967,
      "cu": 1968,
      "prot": 1969,
      "Trump": 1970,
      "recent": 1971,
      "Con": 1972,
      "police": 1973,
      "trouble": 1974,
      "App": 1975,
      "offer": 1976,
      "Mc": 1977,
      "cret": 1978,
      "Ama": 1979,
      "dan": 1980,
      "typ": 1981,
      "somebody": 1982,
      "wanna": 1983,
      "velo": 1984,
      "loved": 1985,
      "Face": 1986,
      "zon": 1987,
      "Does": 1988,
      "ted": 1989,
      "ali": 1990,
      "bow": 1991,
      "ccer": 1992,
      "Japan": 1993,
      "episodes": 1994,
      "Wait": 1995,
      "trans": 1996,
      "16": 1997,
      "esome": 1998,
      "earth": 1999,
      "dream": 2000,
      "comedy": 2001,
      "anger": 2002,
      "stra": 2003,
      "trust": 2004,
      "pull": 2005,
      "tele": 2006,
      "words": 2007,
      "Pr": 2008,
      "stead": 2009,
      "mit": 2010,
      "FL": 2011,
      "ana": 2012,
      "IN": 2013,
      "Michael": 2014,
      "figure": 2015,
      "charac": 2016,
      "oose": 2017,
      "fee": 2018,
      "cost": 2019,
      "Per": 2020,
      "bs": 2021,
      "dest": 2022,
      "thank": 2023,
      "sum": 2024,
      "Sorry": 2025,
      "throw": 2026,
      "Ph": 2027,
      "lose": 2028,
      "inform": 2029,
      "lebr": 2030,
      "fair": 2031,
      "199": 2032,
      "resp": 2033,
      "conf": 2034,
      "ina": 2035,
      "road": 2036,
      "glad": 2037,
      "thats": 2038,
      "sort": 2039,
      "logy": 2040,
      "behind": 2041,
      "cas": 2042,
      "swe": 2043,
      "Sup": 2044,
      "works": 2045,
      "twenty": 2046,
      "cli": 2047,
      "que": 2048,
      "clean": 2049,
      "NBA": 2050,
      "sex": 2051,
      "fall": 2052,
      "ley": 2053,
      "ible": 2054,
      "spend": 2055,
      "death": 2056,
      "irty": 2057,
      "York": 2058,
      "suppose": 2059,
      "Ben": 2060,
      "near": 2061,
      "dist": 2062,
      "track": 2063,
      "11": 2064,
      "ler": 2065,
      "mid": 2066,
      "America": 2067,
      "ized": 2068,
      "turned": 2069,
      "hair": 2070,
      "30": 2071,
      "dra": 2072,
      "yle": 2073,
      "speak": 2074,
      "War": 2075,
      "living": 2076,
      "Ah": 2077,
      "needs": 2078,
      "sports": 2079,
      "May": 2080,
      "ety": 2081,
      "present": 2082,
      "NFL": 2083,
      "whe": 2084,
      "planet": 2085,
      "Was": 2086,
      "OU": 2087,
      "test": 2088,
      "Af": 2089,
      "rew": 2090,
      "entertain": 2091,
      "aught": 2092,
      "shoes": 2093,
      "bers": 2094,
      "Apparently": 2095,
      "answer": 2096,
      "ism": 2097,
      "White": 2098,
      "inside": 2099,
      "ington": 2100,
      "short": 2101,
      "thin": 2102,
      "alive": 2103,
      "Bar": 2104,
      "gar": 2105,
      "ald": 2106,
      "celebr": 2107,
      "aces": 2108,
      "rele": 2109,
      "haps": 2110,
      "Facebook": 2111,
      "Jeff": 2112,
      "suc": 2113,
      "following": 2114,
      "dep": 2115,
      "Even": 2116,
      "langu": 2117,
      "others": 2118,
      "protect": 2119,
      "South": 2120,
      "truth": 2121,
      "ined": 2122,
      "drama": 2123,
      "loy": 2124,
      "fuckin": 2125,
      "usually": 2126,
      "ided": 2127,
      "ately": 2128,
      "ended": 2129,
      "became": 2130,
      "telling": 2131,
      "awesome": 2132,
      "teen": 2133,
      "Fuck": 2134,
      "pping": 2135,
      "soccer": 2136,
      "grand": 2137,
      "himself": 2138,
      "Star": 2139,
      "watched": 2140,
      "invent": 2141,
      ".\",\"...": 2142,
      "Frank": 2143,
      "forget": 2144,
      "computer": 2145,
      "40": 2146,
      "exc": 2147,
      "exam": 2148,
      "takes": 2149,
      "scar": 2150,
      "safe": 2151,
      "eyes": 2152,
      "aster": 2153,
      "oc": 2154,
      "highest": 2155,
      "United": 2156,
      "-\"": 2157,
      "-\",\"": 2158,
      "billion": 2159,
      "soci": 2160,
      "sw": 2161,
      "Her": 2162,
      "thanks": 2163,
      "psons": 2164,
      "fell": 2165,
      "type": 2166,
      "mention": 2167,
      "Great": 2168,
      "Wal": 2169,
      "Haha": 2170,
      "special": 2171,
      "mur": 2172,
      "rock": 2173,
      "vision": 2174,
      "Park": 2175,
      "verse": 2176,
      "teams": 2177,
      "rather": 2178,
      "hy": 2179,
      "shut": 2180,
      "ral": 2181,
      "tic": 2182,
      "ene": 2183,
      "vi": 2184,
      "famous": 2185,
      "months": 2186,
      "strong": 2187,
      "taken": 2188,
      "dle": 2189,
      "ution": 2190,
      "past": 2191,
      "sick": 2192,
      "Yea": 2193,
      "pper": 2194,
      "ount": 2195,
      "fully": 2196,
      "information": 2197,
      "amer": 2198,
      "100": 2199,
      "program": 2200,
      "?!": 2201,
      "entire": 2202,
      "front": 2203,
      "Two": 2204,
      "roy": 2205,
      "ague": 2206,
      "itting": 2207,
      "eight": 2208,
      "velop": 2209,
      "bot": 2210,
      "mach": 2211,
      "uses": 2212,
      "color": 2213,
      "bust": 2214,
      "gent": 2215,
      "oh": 2216,
      "cup": 2217,
      "ret": 2218,
      "rich": 2219,
      "arm": 2220,
      "area": 2221,
      "selves": 2222,
      "wow": 2223,
      "Amazon": 2224,
      "James": 2225,
      "Never": 2226,
      "ille": 2227,
      "complete": 2228,
      "catch": 2229,
      "court": 2230,
      "hands": 2231,
      "upid": 2232,
      "These": 2233,
      "ilar": 2234,
      "data": 2235,
      "fly": 2236,
      "sco": 2237,
      "vir": 2238,
      "building": 2239,
      "ham": 2240,
      "por": 2241,
      "offic": 2242,
      "Wash": 2243,
      "Ser": 2244,
      "leav": 2245,
      "secret": 2246,
      "People": 2247,
      "ime": 2248,
      "After": 2249,
      "15": 2250,
      "quar": 2251,
      "strange": 2252,
      "oud": 2253,
      "gn": 2254,
      "Could": 2255,
      "From": 2256,
      "yours": 2257,
      "write": 2258,
      "bird": 2259,
      "box": 2260,
      "experi": 2261,
      "early": 2262,
      "parent": 2263,
      "lex": 2264,
      "anybody": 2265,
      "lives": 2266,
      "season": 2267,
      "augh": 2268,
      "World": 2269,
      "tem": 2270,
      "Dis": 2271,
      "profess": 2272,
      "Interesting": 2273,
      "series": 2274,
      "event": 2275,
      "develop": 2276,
      "board": 2277,
      "cold": 2278,
      "aughter": 2279,
      "ony": 2280,
      "waiting": 2281,
      "Par": 2282,
      "doctor": 2283,
      "Ju": 2284,
      "ural": 2285,
      "dies": 2286,
      "hus": 2287,
      "iam": 2288,
      "tle": 2289,
      "outside": 2290,
      "horror": 2291,
      "changed": 2292,
      "gener": 2293,
      "account": 2294,
      "graph": 2295,
      "je": 2296,
      "national": 2297,
      "clear": 2298,
      "ied": 2299,
      "mal": 2300,
      "dad": 2301,
      "Captain": 2302,
      "thes": 2303,
      "given": 2304,
      "itive": 2305,
      "born": 2306,
      "based": 2307,
      "girls": 2308,
      "pan": 2309,
      "azz": 2310,
      "Ger": 2311,
      "asy": 2312,
      "ient": 2313,
      "perfect": 2314,
      "\"--": 2315,
      "personal": 2316,
      "invol": 2317,
      "igh": 2318,
      "reen": 2319,
      "stupid": 2320,
      "oper": 2321,
      "Qu": 2322,
      "tre": 2323,
      "date": 2324,
      "loc": 2325,
      "Earth": 2326,
      "cannot": 2327,
      "husband": 2328,
      "instead": 2329,
      "Washington": 2330,
      "ref": 2331,
      "tra": 2332,
      "interested": 2333,
      "wel": 2334,
      "apart": 2335,
      "ER": 2336,
      "post": 2337,
      "oup": 2338,
      "ba": 2339,
      "ming": 2340,
      "bag": 2341,
      "apparently": 2342,
      "success": 2343,
      "Pat": 2344,
      "bat": 2345,
      "tern": 2346,
      "22": 2347,
      "coach": 2348,
      "Mom": 2349,
      "dram": 2350,
      "presidents": 2351,
      "ensive": 2352,
      "guest": 2353,
      "commun": 2354,
      "happens": 2355,
      "var": 2356,
      "impress": 2357,
      "major": 2358,
      "albums": 2359,
      "Probably": 2360,
      "ilt": 2361,
      "tom": 2362,
      "straight": 2363,
      "ener": 2364,
      "somewhere": 2365,
      "worked": 2366,
      "save": 2367,
      "Mart": 2368,
      "quick": 2369,
      "danger": 2370,
      "espe": 2371,
      "lish": 2372,
      "Only": 2373,
      "ends": 2374,
      "Bet": 2375,
      "const": 2376,
      "cast": 2377,
      "control": 2378,
      "humans": 2379,
      "cing": 2380,
      "tour": 2381,
      "En": 2382,
      "especially": 2383,
      "ctr": 2384,
      "States": 2385,
      "solute": 2386,
      "Bob": 2387,
      "lor": 2388,
      "bi": 2389,
      "everybody": 2390,
      "del": 2391,
      "longer": 2392,
      "sed": 2393,
      "moment": 2394,
      "voice": 2395,
      "Sc": 2396,
      "moon": 2397,
      "Sha": 2398,
      "hero": 2399,
      "),": 2400,
      "adv": 2401,
      "store": 2402,
      "Harry": 2403,
      "Sam": 2404,
      "murder": 2405,
      "contin": 2406,
      "scared": 2407,
      "bt": 2408,
      "across": 2409,
      "une": 2410,
      "honest": 2411,
      "ey": 2412,
      "pract": 2413,
      "stick": 2414,
      "recently": 2415,
      "Got": 2416,
      "Google": 2417,
      "Its": 2418,
      "odd": 2419,
      "13": 2420,
      "Pet": 2421,
      "blue": 2422,
      "reach": 2423,
      "offee": 2424,
      "huge": 2425,
      "boys": 2426,
      "created": 2427,
      "fant": 2428,
      "century": 2429,
      "ines": 2430,
      "feeling": 2431,
      "priv": 2432,
      "Speaking": 2433,
      "Yep": 2434,
      "bra": 2435,
      "report": 2436,
      "ax": 2437,
      "fut": 2438,
      "ahead": 2439,
      "parents": 2440,
      "explain": 2441,
      "cted": 2442,
      "prefer": 2443,
      "deser": 2444,
      "vote": 2445,
      "career": 2446,
      "Sun": 2447,
      "equ": 2448,
      "smo": 2449,
      "language": 2450,
      "famili": 2451,
      "mad": 2452,
      "ride": 2453,
      "mag": 2454,
      "countries": 2455,
      "hh": 2456,
      "laugh": 2457,
      "tired": 2458,
      "ground": 2459,
      "brought": 2460,
      "ik": 2461,
      "wild": 2462,
      "realize": 2463,
      "appro": 2464,
      "visit": 2465,
      "carry": 2466,
      "Am": 2467,
      "vin": 2468,
      "dinner": 2469,
      "gas": 2470,
      "compet": 2471,
      "udge": 2472,
      "ips": 2473,
      "dou": 2474,
      "organ": 2475,
      "engine": 2476,
      "difference": 2477,
      "ale": 2478,
      "igned": 2479,
      "0s": 2480,
      "daughter": 2481,
      "mouth": 2482,
      "iction": 2483,
      "released": 2484,
      "refer": 2485,
      "seeing": 2486,
      "piece": 2487,
      "lly": 2488,
      "load": 2489,
      "els": 2490,
      "position": 2491,
      "serv": 2492,
      "Something": 2493,
      "considered": 2494,
      "Che": 2495,
      "gal": 2496,
      "Mon": 2497,
      "appear": 2498,
      "sister": 2499,
      "begin": 2500,
      "dark": 2501,
      "ature": 2502,
      "shouldn": 2503,
      "True": 2504,
      "North": 2505,
      "ford": 2506,
      "clothes": 2507,
      "ann": 2508,
      "198": 2509,
      "learned": 2510,
      "rench": 2511,
      "rot": 2512,
      "station": 2513,
      "nobody": 2514,
      "Big": 2515,
      "Gi": 2516,
      "looked": 2517,
      "thor": 2518,
      "respect": 2519,
      "audi": 2520,
      "ention": 2521,
      "honey": 2522,
      "speed": 2523,
      "Sir": 2524,
      "Huh": 2525,
      "ore": 2526,
      "libr": 2527,
      "hang": 2528,
      "treat": 2529,
      "asure": 2530,
      "weeks": 2531,
      "Pl": 2532,
      "Say": 2533,
      "ium": 2534,
      "wealth": 2535,
      "Dan": 2536,
      "phys": 2537,
      "Gen": 2538,
      "partic": 2539,
      "picture": 2540,
      "Pau": 2541,
      "respon": 2542,
      "AN": 2543,
      "didnt": 2544,
      "und": 2545,
      "suit": 2546,
      "thinks": 2547,
      "character": 2548,
      "Black": 2549,
      "wall": 2550,
      "rul": 2551,
      "chick": 2552,
      "whatever": 2553,
      "step": 2554,
      "Thats": 2555,
      "def": 2556,
      "Brad": 2557,
      "Ad": 2558,
      "conne": 2559,
      "cuss": 2560,
      "Mary": 2561,
      "asking": 2562,
      "weren": 2563,
      "Those": 2564,
      "destroy": 2565,
      "pian": 2566,
      "names": 2567,
      "itar": 2568,
      "entertainment": 2569,
      "solutely": 2570,
      "pho": 2571,
      "stor": 2572,
      "future": 2573,
      "tiv": 2574,
      "bye": 2575,
      "level": 2576,
      "large": 2577,
      "ties": 2578,
      "ged": 2579,
      "seven": 2580,
      "electr": 2581,
      "deli": 2582,
      "17": 2583,
      "pack": 2584,
      "Bu": 2585,
      "issu": 2586,
      "rey": 2587,
      "action": 2588,
      "uro": 2589,
      "terrible": 2590,
      "non": 2591,
      "psy": 2592,
      "clock": 2593,
      "coffee": 2594,
      "vot": 2595,
      "...?\"": 2596,
      "plic": 2597,
      "Rus": 2598,
      "common": 2599,
      "built": 2600,
      "By": 2601,
      "bal": 2602,
      "tv": 2603,
      "uts": 2604,
      "ountain": 2605,
      "current": 2606,
      "invented": 2607,
      "Isn": 2608,
      "Sm": 2609,
      "First": 2610,
      "concert": 2611,
      "itary": 2612,
      "flu": 2613,
      "Ke": 2614,
      "prise": 2615,
      "YOU": 2616,
      "due": 2617,
      "roll": 2618,
      "Fin": 2619,
      "health": 2620,
      "Nobody": 2621,
      "invest": 2622,
      "reci": 2623,
      "ric": 2624,
      "...?\",\"": 2625,
      "sweet": 2626,
      "Dav": 2627,
      "nie": 2628,
      "\"\"\"": 2629,
      "certainly": 2630,
      "bank": 2631,
      "vious": 2632,
      "sof": 2633,
      "aged": 2634,
      "feet": 2635,
      "direct": 2636,
      "Red": 2637,
      "umb": 2638,
      "ben": 2639,
      "fix": 2640,
      "dress": 2641,
      "ucks": 2642,
      "mission": 2643,
      "includ": 2644,
      "concerts": 2645,
      "sus": 2646,
      "attle": 2647,
      "gress": 2648,
      "ues": 2649,
      "ON": 2650,
      "meant": 2651,
      "poor": 2652,
      "talent": 2653,
      "single": 2654,
      "pot": 2655,
      "kick": 2656,
      "acy": 2657,
      "Simpsons": 2658,
      "gotten": 2659,
      "social": 2660,
      "simple": 2661,
      "asons": 2662,
      "AT": 2663,
      "fool": 2664,
      "zz": 2665,
      "Alex": 2666,
      "idence": 2667,
      "choice": 2668,
      "gs": 2669,
      "horse": 2670,
      "cul": 2671,
      "atch": 2672,
      "till": 2673,
      "rece": 2674,
      "illy": 2675,
      "wrote": 2676,
      "sat": 2677,
      "tube": 2678,
      "ised": 2679,
      "dramas": 2680,
      "Afr": 2681,
      "bought": 2682,
      "brain": 2683,
      "fifty": 2684,
      "iest": 2685,
      "nis": 2686,
      "golf": 2687,
      "Sometimes": 2688,
      "miles": 2689,
      "lady": 2690,
      "Bur": 2691,
      "Lou": 2692,
      "ctions": 2693,
      "example": 2694,
      "process": 2695,
      "style": 2696,
      "Most": 2697,
      "Too": 2698,
      "ckey": 2699,
      "needed": 2700,
      "support": 2701,
      "mir": 2702,
      "floor": 2703,
      "ument": 2704,
      "amount": 2705,
      "slow": 2706,
      "wit": 2707,
      "ault": 2708,
      "Anyway": 2709,
      "versity": 2710,
      "blow": 2711,
      "El": 2712,
      "deep": 2713,
      "giving": 2714,
      "teach": 2715,
      "Super": 2716,
      "attack": 2717,
      "scary": 2718,
      "trad": 2719,
      "lucky": 2720,
      "energy": 2721,
      "?!\"": 2722,
      "Our": 2723,
      "experience": 2724,
      "cir": 2725,
      "exist": 2726,
      "swi": 2727,
      "197": 2728,
      "About": 2729,
      "English": 2730,
      "Cor": 2731,
      "dent": 2732,
      "kept": 2733,
      "wonderful": 2734,
      "wise": 2735,
      "questions": 2736,
      "banned": 2737,
      "Lu": 2738,
      "RE": 2739,
      "prove": 2740,
      "Rep": 2741,
      "ief": 2742,
      "street": 2743,
      "cab": 2744,
      "irth": 2745,
      "felt": 2746,
      "pet": 2747,
      "code": 2748,
      "third": 2749,
      "ency": 2750,
      "dig": 2751,
      "Brit": 2752,
      "Sch": 2753,
      "techno": 2754,
      "original": 2755,
      "dear": 2756,
      "aver": 2757,
      "14": 2758,
      "?!\",\"": 2759,
      "tit": 2760,
      "plane": 2761,
      "ending": 2762,
      "blind": 2763,
      ".'": 2764,
      "ker": 2765,
      "uation": 2766,
      "decis": 2767,
      "ences": 2768,
      "Canada": 2769,
      "accident": 2770,
      "Com": 2771,
      "tin": 2772,
      "tough": 2773,
      "group": 2774,
      "involved": 2775,
      "San": 2776,
      "places": 2777,
      "opt": 2778,
      "goddamn": 2779,
      "hum": 2780,
      "regu": 2781,
      "Fine": 2782,
      "proper": 2783,
      "wide": 2784,
      "male": 2785,
      "Stop": 2786,
      "nam": 2787,
      "gold": 2788,
      "perfor": 2789,
      "moving": 2790,
      "champ": 2791,
      "Cha": 2792,
      "mom": 2793,
      "natural": 2794,
      "cry": 2795,
      "button": 2796,
      "card": 2797,
      "percent": 2798,
      "round": 2799,
      "196": 2800,
      "whether": 2801,
      "Jord": 2802,
      "pal": 2803,
      "dom": 2804,
      "suck": 2805,
      "allowed": 2806,
      "thirty": 2807,
      "owers": 2808,
      "pair": 2809,
      "alright": 2810,
      "worse": 2811,
      "paper": 2812,
      "Aust": 2813,
      "ky": 2814,
      "twice": 2815,
      "professional": 2816,
      "vol": 2817,
      "colors": 2818,
      "Didn": 2819,
      "trip": 2820,
      "ju": 2821,
      "bother": 2822,
      "opin": 2823,
      "spo": 2824,
      "Hu": 2825,
      "cand": 2826,
      "cket": 2827,
      "da": 2828,
      "sever": 2829,
      "except": 2830,
      "media": 2831,
      "eye": 2832,
      "fing": 2833,
      "bitch": 2834,
      "military": 2835,
      "contract": 2836,
      "piano": 2837,
      "types": 2838,
      "oop": 2839,
      "dangerous": 2840,
      "listening": 2841,
      "draw": 2842,
      "sme": 2843,
      "kidding": 2844,
      "animal": 2845,
      "kemon": 2846,
      "mocr": 2847,
      "William": 2848,
      "park": 2849,
      "--------": 2850,
      "ki": 2851,
      "Act": 2852,
      "bly": 2853,
      "doubt": 2854,
      "problems": 2855,
      "leaving": 2856,
      "block": 2857,
      "ability": 2858,
      "Dam": 2859,
      "weight": 2860,
      "dern": 2861,
      "driving": 2862,
      "wearing": 2863,
      "Russi": 2864,
      "fill": 2865,
      "broke": 2866,
      "Mer": 2867,
      "activ": 2868,
      "24": 2869,
      "Ice": 2870,
      "Sounds": 2871,
      "gain": 2872,
      "spir": 2873,
      "photo": 2874,
      "qual": 2875,
      "calling": 2876,
      "hop": 2877,
      "host": 2878,
      "responsi": 2879,
      "imp": 2880,
      "har": 2881,
      "bud": 2882,
      "orses": 2883,
      "ray": 2884,
      "plays": 2885,
      "comfort": 2886,
      "Shut": 2887,
      "films": 2888,
      "itor": 2889,
      "esides": 2890,
      "tot": 2891,
      "quarter": 2892,
      "reme": 2893,
      "comb": 2894,
      "aks": 2895,
      "moved": 2896,
      "selling": 2897,
      "apo": 2898,
      "spital": 2899,
      "expensive": 2900,
      "ians": 2901,
      "atic": 2902,
      "French": 2903,
      "bill": 2904,
      "traf": 2905,
      "Euro": 2906,
      "squ": 2907,
      "Also": 2908,
      "',": 2909,
      "fat": 2910,
      "itten": 2911,
      "middle": 2912,
      "caught": 2913,
      "boat": 2914,
      "cook": 2915,
      "sen": 2916,
      "Uni": 2917,
      "iers": 2918,
      "points": 2919,
      "OK": 2920,
      "Think": 2921,
      "ES": 2922,
      "Everything": 2923,
      "nia": 2924,
      "vio": 2925,
      "....\"": 2926,
      "force": 2927,
      "fit": 2928,
      "curity": 2929,
      "rule": 2930,
      "study": 2931,
      "Tur": 2932,
      "guitar": 2933,
      "species": 2934,
      "David": 2935,
      "sour": 2936,
      "reco": 2937,
      "oid": 2938,
      "television": 2939,
      "library": 2940,
      "totally": 2941,
      "sugg": 2942,
      "Paul": 2943,
      "aur": 2944,
      "Disney": 2945,
      "Ber": 2946,
      "resu": 2947,
      "states": 2948,
      "iced": 2949,
      "Joe": 2950,
      "attention": 2951,
      "fear": 2952,
      "bert": 2953,
      "....\",\"": 2954,
      "appreci": 2955,
      "Ac": 2956,
      "Li": 2957,
      "jazz": 2958,
      "ns": 2959,
      "terms": 2960,
      "text": 2961,
      "market": 2962,
      "yell": 2963,
      "icking": 2964,
      "diffic": 2965,
      "completely": 2966,
      "ico": 2967,
      "traffic": 2968,
      "NO": 2969,
      "atin": 2970,
      "size": 2971,
      "aware": 2972,
      "songs": 2973,
      "birth": 2974,
      "itions": 2975,
      "prov": 2976,
      "covered": 2977,
      "lif": 2978,
      "Comm": 2979,
      "Perhaps": 2980,
      "unt": 2981,
      "goin": 2982,
      "green": 2983,
      "cin": 2984,
      "fur": 2985,
      "nder": 2986,
      "Doctor": 2987,
      "lines": 2988,
      "Won": 2989,
      "ems": 2990,
      "yer": 2991,
      "Tim": 2992,
      "mail": 2993,
      "een": 2994,
      "mes": 2995,
      "lls": 2996,
      "hole": 2997,
      "hasn": 2998,
      "glass": 2999,
      ".\"\"\",\"": 3000,
      "West": 3001,
      "ander": 3002,
      "ples": 3003,
      "Ca": 3004,
      "Out": 3005,
      "insane": 3006,
      "mentioned": 3007,
      "Ter": 3008,
      "evening": 3009,
      "rules": 3010,
      "shock": 3011,
      "themselves": 3012,
      "largest": 3013,
      "facebook": 3014,
      "DO": 3015,
      "lived": 3016,
      "hockey": 3017,
      "Ever": 3018,
      "ination": 3019,
      "handle": 3020,
      "City": 3021,
      "Shit": 3022,
      "Nick": 3023,
      "Max": 3024,
      "universe": 3025,
      "several": 3026,
      "nel": 3027,
      "phones": 3028,
      "gers": 3029,
      "iff": 3030,
      "promise": 3031,
      "include": 3032,
      "IT": 3033,
      "vic": 3034,
      "collect": 3035,
      "scri": 3036,
      "Europe": 3037,
      "instr": 3038,
      "meeting": 3039,
      "Keep": 3040,
      "Same": 3041,
      "ok": 3042,
      "wed": 3043,
      "held": 3044,
      "ican": 3045,
      "onic": 3046,
      "product": 3047,
      "ada": 3048,
      "acting": 3049,
      "za": 3050,
      "Call": 3051,
      "Mur": 3052,
      "youtube": 3053,
      "writing": 3054,
      "including": 3055,
      "ges": 3056,
      "irt": 3057,
      "Sen": 3058,
      "requi": 3059,
      "stream": 3060,
      "local": 3061,
      "\"\".": 3062,
      "mistake": 3063,
      "scient": 3064,
      "ticket": 3065,
      "hic": 3066,
      "mic": 3067,
      "gue": 3068,
      "average": 3069,
      "lying": 3070,
      "bigger": 3071,
      "21": 3072,
      "cross": 3073,
      "term": 3074,
      "likely": 3075,
      "lots": 3076,
      "Martin": 3077,
      "technology": 3078,
      "happening": 3079,
      "modern": 3080,
      "window": 3081,
      "Three": 3082,
      "mostly": 3083,
      "Cali": 3084,
      "finish": 3085,
      "oul": 3086,
      "share": 3087,
      "science": 3088,
      "horses": 3089,
      "ech": 3090,
      "online": 3091,
      "sequ": 3092,
      "Scot": 3093,
      "Aw": 3094,
      "Cra": 3095,
      "author": 3096,
      "tax": 3097,
      "drug": 3098,
      "fornia": 3099,
      "rob": 3100,
      "fac": 3101,
      "II": 3102,
      "Ru": 3103,
      "stru": 3104,
      "div": 3105,
      "Mor": 3106,
      "ses": 3107,
      "ino": 3108,
      "mountain": 3109,
      "Exc": 3110,
      "familiar": 3111,
      "Tube": 3112,
      "rious": 3113,
      "election": 3114,
      "suggest": 3115,
      "cats": 3116,
      "LL": 3117,
      "Exactly": 3118,
      "forms": 3119,
      "likes": 3120,
      "novel": 3121,
      "deter": 3122,
      "van": 3123,
      "worried": 3124,
      "kiss": 3125,
      "stair": 3126,
      "bunch": 3127,
      "stri": 3128,
      "return": 3129,
      "hospital": 3130,
      "drop": 3131,
      "opinion": 3132,
      "compan": 3133,
      "prison": 3134,
      "decided": 3135,
      "Jordan": 3136,
      "California": 3137,
      "Make": 3138,
      "cash": 3139,
      "rup": 3140,
      "bility": 3141,
      "ays": 3142,
      "ife": 3143,
      "aim": 3144,
      "Bud": 3145,
      "losing": 3146,
      "Hel": 3147,
      "Mac": 3148,
      "inten": 3149,
      "fail": 3150,
      "Rich": 3151,
      "ories": 3152,
      "nother": 3153,
      "Green": 3154,
      "raz": 3155,
      "bowl": 3156,
      "ging": 3157,
      "vil": 3158,
      "club": 3159,
      "inc": 3160,
      "ift": 3161,
      "ified": 3162,
      "relation": 3163,
      ").": 3164,
      "Mad": 3165,
      "Su": 3166,
      "mot": 3167,
      "Christmas": 3168,
      "recogn": 3169,
      "IS": 3170,
      "machine": 3171,
      "jump": 3172,
      "insu": 3173,
      "ause": 3174,
      "correct": 3175,
      "access": 3176,
      "kinda": 3177,
      "Excuse": 3178,
      "spot": 3179,
      "Fox": 3180,
      "Another": 3181,
      "Ell": 3182,
      "opp": 3183,
      "rill": 3184,
      "busy": 3185,
      "tran": 3186,
      "hol": 3187,
      "Love": 3188,
      "mass": 3189,
      "stopped": 3190,
      "brid": 3191,
      "situation": 3192,
      "private": 3193,
      "cards": 3194,
      "ances": 3195,
      "astic": 3196,
      "However": 3197,
      "descri": 3198,
      "Rob": 3199,
      "accept": 3200,
      "hood": 3201,
      "note": 3202,
      "written": 3203,
      "Alright": 3204,
      "Air": 3205,
      "rance": 3206,
      "nock": 3207,
      "birds": 3208,
      "Ray": 3209,
      "ded": 3210,
      "mul": 3211,
      "rate": 3212,
      "trick": 3213,
      "Remember": 3214,
      "hid": 3215,
      "incred": 3216,
      "spent": 3217,
      "calls": 3218,
      "copy": 3219,
      "Canadian": 3220,
      "AM": 3221,
      "Em": 3222,
      "hey": 3223,
      "stars": 3224,
      "thy": 3225,
      "total": 3226,
      "associ": 3227,
      "fantasy": 3228,
      "tennis": 3229,
      "nine": 3230,
      "ston": 3231,
      "within": 3232,
      "table": 3233,
      "Lee": 3234,
      "sake": 3235,
      "cient": 3236,
      "difficult": 3237,
      "Min": 3238,
      "bucks": 3239,
      "Put": 3240,
      "terday": 3241,
      "Sal": 3242,
      "separ": 3243,
      "outta": 3244,
      "Daddy": 3245,
      "Rose": 3246,
      "mill": 3247,
      "crew": 3248,
      "noon": 3249,
      "classic": 3250,
      "stock": 3251,
      "avail": 3252,
      "More": 3253,
      "eth": 3254,
      "YouTube": 3255,
      "shall": 3256,
      "vari": 3257,
      "Pri": 3258,
      "cean": 3259,
      "cis": 3260,
      "incre": 3261,
      "stat": 3262,
      "helped": 3263,
      "abo": 3264,
      "talked": 3265,
      "recei": 3266,
      "Ken": 3267,
      "none": 3268,
      "neigh": 3269,
      "upiter": 3270,
      "upset": 3271,
      "create": 3272,
      "Steph": 3273,
      "Jer": 3274,
      "threat": 3275,
      "role": 3276,
      "webs": 3277,
      "Whatever": 3278,
      "soldiers": 3279,
      "manag": 3280,
      "figured": 3281,
      "summer": 3282,
      "although": 3283,
      "poet": 3284,
      "Mother": 3285,
      "ites": 3286,
      "belong": 3287,
      "ulous": 3288,
      "techn": 3289,
      "cult": 3290,
      "fortun": 3291,
      "impressive": 3292,
      "stairs": 3293,
      "island": 3294,
      "artist": 3295,
      "solar": 3296,
      "iles": 3297,
      "forest": 3298,
      "surprise": 3299,
      "France": 3300,
      "Charlie": 3301,
      "shar": 3302,
      "quit": 3303,
      "Seems": 3304,
      "picked": 3305,
      "Ted": 3306,
      "anywhere": 3307,
      "appoint": 3308,
      "hung": 3309,
      "actors": 3310,
      "icy": 3311,
      "brand": 3312,
      "older": 3313,
      "apartment": 3314,
      "Ap": 3315,
      "unless": 3316,
      "kin": 3317,
      "push": 3318,
      "rie": 3319,
      "Hmm": 3320,
      "sna": 3321,
      "general": 3322,
      "fans": 3323,
      "finally": 3324,
      "HA": 3325,
      "google": 3326,
      "loves": 3327,
      "auto": 3328,
      "Det": 3329,
      "fault": 3330,
      "Africa": 3331,
      "Four": 3332,
      "league": 3333,
      "ivid": 3334,
      ",\"\"": 3335,
      "Sy": 3336,
      "among": 3337,
      "hotel": 3338,
      "sn": 3339,
      "price": 3340,
      "walking": 3341,
      "Thomas": 3342,
      "decision": 3343,
      "doin": 3344,
      "??": 3345,
      "ners": 3346,
      "ffic": 3347,
      "Tal": 3348,
      "liter": 3349,
      "ero": 3350,
      "loyd": 3351,
      "cow": 3352,
      "sess": 3353,
      "avy": 3354,
      "Jimmy": 3355,
      "aly": 3356,
      "bon": 3357,
      "necess": 3358,
      "charge": 3359,
      "Back": 3360,
      "reed": 3361,
      "politics": 3362,
      "particular": 3363,
      "Must": 3364,
      "owns": 3365,
      "join": 3366,
      "string": 3367,
      "Once": 3368,
      "publ": 3369,
      "security": 3370,
      "appreciate": 3371,
      "\"\",": 3372,
      "owned": 3373,
      "THE": 3374,
      "urch": 3375,
      "records": 3376,
      "surprising": 3377,
      "Bru": 3378,
      "marry": 3379,
      "missed": 3380,
      "Given": 3381,
      "project": 3382,
      "facts": 3383,
      "gives": 3384,
      "deliver": 3385,
      "legal": 3386,
      "British": 3387,
      "regular": 3388,
      "ron": 3389,
      "ady": 3390,
      "Col": 3391,
      "contact": 3392,
      "Boy": 3393,
      "champion": 3394,
      "rac": 3395,
      "neck": 3396,
      "research": 3397,
      "assu": 3398,
      "tail": 3399,
      "starting": 3400,
      "Someone": 3401,
      "saved": 3402,
      "uel": 3403,
      "Anything": 3404,
      "India": 3405,
      "Walter": 3406,
      "available": 3407,
      "?\",\"...": 3408,
      "standing": 3409,
      "University": 3410,
      "Fun": 3411,
      "egg": 3412,
      "nes": 3413,
      "score": 3414,
      "ado": 3415,
      "dar": 3416,
      "lunch": 3417,
      "State": 3418,
      "Cong": 3419,
      "Fe": 3420,
      "Since": 3421,
      "message": 3422,
      "sitting": 3423,
      "crack": 3424,
      "tie": 3425,
      "Forget": 3426,
      "steal": 3427,
      "Republic": 3428,
      "Cour": 3429,
      "Jupiter": 3430,
      "sil": 3431,
      "political": 3432,
      "Actually": 3433,
      "Try": 3434,
      "ped": 3435,
      "'.": 3436,
      "Mister": 3437,
      "finished": 3438,
      "Indian": 3439,
      "represent": 3440,
      "Haw": 3441,
      "nar": 3442,
      "stud": 3443,
      "quiet": 3444,
      "Dick": 3445,
      "rat": 3446,
      "vous": 3447,
      "ison": 3448,
      "eds": 3449,
      "careful": 3450,
      "Pokemon": 3451,
      "ram": 3452,
      "cil": 3453,
      "cops": 3454,
      "swear": 3455,
      "website": 3456,
      "plant": 3457,
      "German": 3458,
      "Brady": 3459,
      "reli": 3460,
      "ently": 3461,
      "Johnny": 3462,
      "ski": 3463,
      "La": 3464,
      "ened": 3465,
      "match": 3466,
      "gentle": 3467,
      "benef": 3468,
      "multi": 3469,
      "ung": 3470,
      "bullshit": 3471,
      "Peter": 3472,
      "Pret": 3473,
      "ships": 3474,
      "forever": 3475,
      "biggest": 3476,
      "Class": 3477,
      "viol": 3478,
      "rights": 3479,
      "intendo": 3480,
      "Bruce": 3481,
      "National": 3482,
      "perhaps": 3483,
      "econ": 3484,
      "knock": 3485,
      "lim": 3486,
      "ballet": 3487,
      "emplo": 3488,
      "Hard": 3489,
      "south": 3490,
      "joke": 3491,
      "fucked": 3492,
      "clothing": 3493,
      "tall": 3494,
      "Bart": 3495,
      "Kore": 3496,
      "antic": 3497,
      "forward": 3498,
      "lax": 3499,
      "Mex": 3500,
      "neither": 3501,
      "broad": 3502,
      "Iceland": 3503,
      "snow": 3504,
      "vehic": 3505,
      "jack": 3506,
      "pants": 3507,
      "wash": 3508,
      "explo": 3509,
      "China": 3510,
      "communic": 3511,
      "Jackson": 3512,
      "ilarious": 3513,
      "similar": 3514,
      "ives": 3515,
      "fol": 3516,
      "Gold": 3517,
      "Lol": 3518,
      "active": 3519,
      "skill": 3520,
      "yesterday": 3521,
      "ME": 3522,
      "runs": 3523,
      "individ": 3524,
      "burn": 3525,
      "buster": 3526,
      "welve": 3527,
      "Wonder": 3528,
      "stories": 3529,
      "letter": 3530,
      "flame": 3531,
      "judge": 3532,
      "ribut": 3533,
      "Damn": 3534,
      "Lord": 3535,
      "wid": 3536,
      "Chris": 3537,
      "effect": 3538,
      "normal": 3539,
      "knowled": 3540,
      "raph": 3541,
      "mix": 3542,
      "itself": 3543,
      "Jefferson": 3544,
      "!!\"": 3545,
      "GO": 3546,
      "influ": 3547,
      "ato": 3548,
      "apers": 3549,
      "eh": 3550,
      "weather": 3551,
      "buying": 3552,
      "Bro": 3553,
      "bast": 3554,
      "lawyer": 3555,
      "videos": 3556,
      "beginning": 3557,
      "soft": 3558,
      "smell": 3559,
      "employe": 3560,
      "version": 3561,
      "England": 3562,
      "pictures": 3563,
      "Sid": 3564,
      "vy": 3565,
      "icago": 3566,
      "forgot": 3567,
      "artic": 3568,
      "ization": 3569,
      "Jon": 3570,
      "Ok": 3571,
      "parts": 3572,
      "cute": 3573,
      "grad": 3574,
      "subject": 3575,
      "uff": 3576,
      "aste": 3577,
      "Grand": 3578,
      "quire": 3579,
      "founded": 3580,
      "evol": 3581,
      "cussion": 3582,
      "Cent": 3583,
      "intro": 3584,
      "Still": 3585,
      "memory": 3586,
      "High": 3587,
      "Smith": 3588,
      "pes": 3589,
      "Pretty": 3590,
      "intell": 3591,
      "ording": 3592,
      "elly": 3593,
      "rail": 3594,
      "warm": 3595,
      "extreme": 3596,
      "training": 3597,
      "Show": 3598,
      "passed": 3599,
      "IC": 3600,
      "UK": 3601,
      "fle": 3602,
      "relax": 3603,
      "ids": 3604,
      "putting": 3605,
      "learning": 3606,
      "FB": 3607,
      "Lea": 3608,
      "Donald": 3609,
      "Last": 3610,
      "ga": 3611,
      "nuts": 3612,
      "exer": 3613,
      "Should": 3614,
      "ential": 3615,
      "killing": 3616,
      "illegal": 3617,
      "?...": 3618,
      "iod": 3619,
      "boss": 3620,
      "race": 3621,
      "tar": 3622,
      "ulation": 3623,
      "afternoon": 3624,
      "performan": 3625,
      "Hold": 3626,
      "jail": 3627,
      "Mike": 3628,
      "cise": 3629,
      "ortun": 3630,
      "Although": 3631,
      "winning": 3632,
      "ying": 3633,
      "theory": 3634,
      "...?": 3635,
      "greatest": 3636,
      "parag": 3637,
      "Everybody": 3638,
      "Ban": 3639,
      "gree": 3640,
      "mber": 3641,
      "screw": 3642,
      "seconds": 3643,
      "Eddie": 3644,
      "General": 3645,
      "comfortable": 3646,
      "Day": 3647,
      "ply": 3648,
      "rough": 3649,
      "sea": 3650,
      "bles": 3651,
      "presidential": 3652,
      "Cause": 3653,
      "flight": 3654,
      "nin": 3655,
      "risk": 3656,
      "Fred": 3657,
      "Que": 3658,
      "Sat": 3659,
      "iot": 3660,
      "aced": 3661,
      "waste": 3662,
      "female": 3663,
      "tood": 3664,
      "honor": 3665,
      "Ham": 3666,
      "zen": 3667,
      "arrest": 3668,
      "mark": 3669,
      "content": 3670,
      "personally": 3671,
      "boring": 3672,
      "inno": 3673,
      "Indones": 3674,
      "80": 3675,
      "positive": 3676,
      "stuck": 3677,
      "enty": 3678,
      "enjoyed": 3679,
      "obvious": 3680,
      "Louis": 3681,
      "Cur": 3682,
      "onto": 3683,
      "reasons": 3684,
      "neat": 3685,
      "peace": 3686,
      "companies": 3687,
      "Ang": 3688,
      "nick": 3689,
      "silly": 3690,
      "hall": 3691,
      "riots": 3692,
      "fresh": 3693,
      "acher": 3694,
      "wealthiest": 3695,
      "Del": 3696,
      "Dep": 3697,
      "vac": 3698,
      "celebrity": 3699,
      "yellow": 3700,
      "eating": 3701,
      "jam": 3702,
      "partner": 3703,
      "dollar": 3704,
      "Up": 3705,
      "recomm": 3706,
      "adill": 3707,
      "weap": 3708,
      "tire": 3709,
      "spl": 3710,
      "25": 3711,
      "Besides": 3712,
      "imm": 3713,
      "shop": 3714,
      "purpose": 3715,
      "ka": 3716,
      "republic": 3717,
      "students": 3718,
      "comic": 3719,
      "blame": 3720,
      "promot": 3721,
      "paragraph": 3722,
      "prevent": 3723,
      "ING": 3724,
      "ID": 3725,
      "cture": 3726,
      "Island": 3727,
      "700": 3728,
      "Coun": 3729,
      "fas": 3730,
      "asing": 3731,
      "ills": 3732,
      "instrument": 3733,
      "Ve": 3734,
      "arts": 3735,
      "ption": 3736,
      "inde": 3737,
      "sud": 3738,
      "Lau": 3739,
      ".\",\"--": 3740,
      "restaur": 3741,
      "uclear": 3742,
      "educ": 3743,
      "prep": 3744,
      "55": 3745,
      "Over": 3746,
      "ocean": 3747,
      "wondering": 3748,
      "knowledge": 3749,
      "introdu": 3750,
      "Were": 3751,
      "plans": 3752,
      "extra": 3753,
      "drunk": 3754,
      "absolutely": 3755,
      "model": 3756,
      "weekend": 3757,
      "Bull": 3758,
      "bout": 3759,
      "Stre": 3760,
      "adillac": 3761,
      "iet": 3762,
      "truck": 3763,
      "ateg": 3764,
      "dio": 3765,
      "Paris": 3766,
      "sudden": 3767,
      "ria": 3768,
      "dying": 3769,
      "depend": 3770,
      "tape": 3771,
      "urs": 3772,
      "pleasure": 3773,
      "wore": 3774,
      "Ri": 3775,
      "oil": 3776,
      "easier": 3777,
      "quarterback": 3778,
      "fiction": 3779,
      "Rock": 3780,
      "curious": 3781,
      "dumb": 3782,
      "pool": 3783,
      "formed": 3784,
      "gri": 3785,
      "lies": 3786,
      "Father": 3787,
      "zing": 3788,
      "upac": 3789,
      "Ba": 3790,
      "Ob": 3791,
      "Van": 3792,
      "sand": 3793,
      "ught": 3794,
      "perform": 3795,
      "ideas": 3796,
      "Stay": 3797,
      "Chicago": 3798,
      "ancient": 3799,
      "missing": 3800,
      "leader": 3801,
      "nature": 3802,
      "accom": 3803,
      "period": 3804,
      "...\",\"...": 3805,
      "successful": 3806,
      "Cool": 3807,
      "Looks": 3808,
      "poetry": 3809,
      "Six": 3810,
      "cig": 3811,
      "arden": 3812,
      "staying": 3813,
      "detail": 3814,
      "Lon": 3815,
      "piss": 3816,
      "choose": 3817,
      "bomb": 3818,
      "ius": 3819,
      "seemed": 3820,
      "considering": 3821,
      "FK": 3822,
      "meaning": 3823,
      "awful": 3824,
      "higher": 3825,
      "camp": 3826,
      "via": 3827,
      "enn": 3828,
      "uty": 3829,
      "ilities": 3830,
      "address": 3831,
      "Bab": 3832,
      "dial": 3833,
      "claim": 3834,
      "trees": 3835,
      "TO": 3836,
      "aven": 3837,
      "dun": 3838,
      "beer": 3839,
      "ante": 3840,
      "Er": 3841,
      "Mill": 3842,
      "Sher": 3843,
      "heat": 3844,
      "achie": 3845,
      "Stan": 3846,
      "skin": 3847,
      "faster": 3848,
      "ired": 3849,
      "inct": 3850,
      "feed": 3851,
      "surv": 3852,
      "related": 3853,
      "shooting": 3854,
      "logical": 3855,
      "Mars": 3856,
      "Ram": 3857,
      "rible": 3858,
      "riage": 3859,
      "While": 3860,
      "willing": 3861,
      "Chin": 3862,
      "32": 3863,
      "60": 3864,
      "ffer": 3865,
      "iel": 3866,
      "print": 3867,
      "flowers": 3868,
      "Dun": 3869,
      "Son": 3870,
      "opportun": 3871,
      "JFK": 3872,
      "zed": 3873,
      "greed": 3874,
      "Hon": 3875,
      "ially": 3876,
      "rd": 3877,
      "sli": 3878,
      "ured": 3879,
      "hadn": 3880,
      "nervous": 3881,
      "netflix": 3882,
      "numbers": 3883,
      "changes": 3884,
      "nal": 3885,
      "killer": 3886,
      "Everyone": 3887,
      "Space": 3888,
      "audience": 3889,
      "AR": 3890,
      "Hen": 3891,
      "ease": 3892,
      "aries": 3893,
      "aret": 3894,
      "usual": 3895,
      "inkin": 3896,
      "Bye": 3897,
      "phi": 3898,
      "value": 3899,
      "hungry": 3900,
      "23": 3901,
      "Mu": 3902,
      "Mag": 3903,
      "cru": 3904,
      "lic": 3905,
      "pig": 3906,
      "tery": 3907,
      "vert": 3908,
      "mater": 3909,
      "iculous": 3910,
      "members": 3911,
      "Wil": 3912,
      "etc": 3913,
      "celebrities": 3914,
      "70": 3915,
      "WH": 3916,
      "camer": 3917,
      "Hope": 3918,
      "growing": 3919,
      "DC": 3920,
      "rout": 3921,
      "tree": 3922,
      "trunk": 3923,
      "fighting": 3924,
      "cant": 3925,
      "taught": 3926,
      "avoid": 3927,
      "driver": 3928,
      "Other": 3929,
      "ising": 3930,
      "plenty": 3931,
      "broken": 3932,
      "incredible": 3933,
      "Five": 3934,
      "Nike": 3935,
      "Watch": 3936,
      "sens": 3937,
      "beach": 3938,
      "lier": 3939,
      "admit": 3940,
      "agon": 3941,
      "originally": 3942,
      "boo": 3943,
      "kn": 3944,
      "convers": 3945,
      "practice": 3946,
      "specially": 3947,
      "indust": 3948,
      "feels": 3949,
      "Richard": 3950,
      "Ten": 3951,
      "ued": 3952,
      "wake": 3953,
      "itiz": 3954,
      "helps": 3955,
      "dancer": 3956,
      "Indonesia": 3957,
      "glo": 3958,
      "babwe": 3959,
      "issue": 3960,
      "cum": 3961,
      "assho": 3962,
      "owe": 3963,
      "lymp": 3964,
      "feat": 3965,
      "custo": 3966,
      "characters": 3967,
      "Austral": 3968,
      "Pol": 3969,
      "aper": 3970,
      "pil": 3971,
      "iment": 3972,
      "impossible": 3973,
      "finan": 3974,
      "reality": 3975,
      "require": 3976,
      "itution": 3977,
      "fascin": 3978,
      "75": 3979,
      "Old": 3980,
      "Wr": 3981,
      "provide": 3982,
      "bron": 3983,
      "fellow": 3984,
      "electric": 3985,
      "Pink": 3986,
      "afford": 3987,
      "180": 3988,
      "Cle": 3989,
      "Time": 3990,
      "bullet": 3991,
      "witness": 3992,
      "relationship": 3993,
      "Cup": 3994,
      "Eve": 3995,
      "dry": 3996,
      "imbabwe": 3997,
      "Their": 3998,
      "computers": 3999,
      "speaking": 4000,
      "Before": 4001,
      "!!\",\"": 4002,
      "300": 4003,
      "wine": 4004,
      "crow": 4005,
      "chicken": 4006,
      "Fed": 4007,
      "Fam": 4008,
      "remind": 4009,
      "flat": 4010,
      "stein": 4011,
      "lately": 4012,
      "passage": 4013,
      "Apple": 4014,
      "cock": 4015,
      "fired": 4016,
      "evil": 4017,
      "Steve": 4018,
      "tradition": 4019,
      "Dar": 4020,
      "Jake": 4021,
      "notice": 4022,
      "keeps": 4023,
      "quickly": 4024,
      "source": 4025,
      "culture": 4026,
      "icated": 4027,
      "actual": 4028,
      "Mus": 4029,
      "Wood": 4030,
      "hilarious": 4031,
      "ators": 4032,
      "emot": 4033,
      "useful": 4034,
      "jobs": 4035,
      "services": 4036,
      "90": 4037,
      "ises": 4038,
      "orders": 4039,
      "eleph": 4040,
      "evidence": 4041,
      "ridiculous": 4042,
      "crime": 4043,
      "divor": 4044,
      "Street": 4045,
      "AS": 4046,
      "ware": 4047,
      "weak": 4048,
      "frequ": 4049,
      "responsible": 4050,
      "rated": 4051,
      "signed": 4052,
      "crit": 4053,
      "Tupac": 4054,
      "battle": 4055,
      "fru": 4056,
      "ears": 4057,
      "writer": 4058,
      "paying": 4059,
      "ables": 4060,
      "Blue": 4061,
      "dancing": 4062,
      "advant": 4063,
      "lied": 4064,
      "knowing": 4065,
      "contain": 4066,
      "necessary": 4067,
      "Tex": 4068,
      "site": 4069,
      "cher": 4070,
      "guard": 4071,
      "focus": 4072,
      "chall": 4073,
      "viron": 4074,
      "physical": 4075,
      "Mark": 4076,
      "ades": 4077,
      "dem": 4078,
      "heavy": 4079,
      "crimin": 4080,
      "ET": 4081,
      "Game": 4082,
      "younger": 4083,
      "located": 4084,
      "Kind": 4085,
      "Sus": 4086,
      "bing": 4087,
      "gam": 4088,
      "pitch": 4089,
      "winter": 4090,
      "lfriend": 4091,
      "keys": 4092,
      "hook": 4093,
      "bey": 4094,
      "switch": 4095,
      "Bas": 4096,
      "Lie": 4097,
      "west": 4098,
      "bel": 4099,
      "nothin": 4100,
      "official": 4101,
      "poin": 4102,
      "bled": 4103,
      "Guy": 4104,
      ">.": 4105,
      "bes": 4106,
      "tes": 4107,
      "nose": 4108,
      "scene": 4109,
      "chair": 4110,
      "Absolutely": 4111,
      "quality": 4112,
      "further": 4113,
      "Tru": 4114,
      "sue": 4115,
      "tight": 4116,
      "Chief": 4117,
      "final": 4118,
      "\"'": 4119,
      "Jan": 4120,
      "twelve": 4121,
      "va": 4122,
      "worst": 4123,
      "angry": 4124,
      "Nintendo": 4125,
      "larger": 4126,
      "Ver": 4127,
      "adium": 4128,
      "neighbor": 4129,
      "performance": 4130,
      "asshole": 4131,
      "Bea": 4132,
      "Play": 4133,
      "cers": 4134,
      "hide": 4135,
      "Au": 4136,
      "cam": 4137,
      "hearing": 4138,
      "runner": 4139,
      "Billy": 4140,
      "QB": 4141,
      "ective": 4142,
      "ining": 4143,
      "East": 4144,
      "Sw": 4145,
      "loss": 4146,
      "thousands": 4147,
      "smoke": 4148,
      "Des": 4149,
      "ior": 4150,
      "nuclear": 4151,
      "uten": 4152,
      "north": 4153,
      ">,": 4154,
      "ering": 4155,
      "Coll": 4156,
      "icted": 4157,
      "radios": 4158,
      "excuse": 4159,
      "equip": 4160,
      "storms": 4161,
      "phy": 4162,
      "everywhere": 4163,
      "fifteen": 4164,
      "Block": 4165,
      "moves": 4166,
      "parties": 4167,
      "unders": 4168,
      "birthday": 4169,
      "Funny": 4170,
      "width": 4171,
      "AA": 4172,
      "Kar": 4173,
      "manage": 4174,
      "guns": 4175,
      "London": 4176,
      "fir": 4177,
      "pic": 4178,
      "release": 4179,
      "master": 4180,
      "psych": 4181,
      "Ele": 4182,
      "mate": 4183,
      "forty": 4184,
      "sales": 4185,
      "Chi": 4186,
      "bear": 4187,
      "Francis": 4188,
      "Germany": 4189,
      "intellig": 4190,
      "86": 4191,
      "theater": 4192,
      "raise": 4193,
      "heads": 4194,
      "candid": 4195,
      "Want": 4196,
      "tend": 4197,
      "arri": 4198,
      "umber": 4199,
      "girlfriend": 4200,
      "dreams": 4201,
      "finger": 4202,
      "Str": 4203,
      "democr": 4204,
      "truly": 4205,
      "Guess": 4206,
      "fran": 4207,
      "environ": 4208,
      "Americans": 4209,
      "events": 4210,
      "EN": 4211,
      "ds": 4212,
      "soul": 4213,
      "taste": 4214,
      "Lebron": 4215,
      "object": 4216,
      "barr": 4217,
      "tempt": 4218,
      "Queen": 4219,
      "neg": 4220,
      "closed": 4221,
      "Bron": 4222,
      "simply": 4223,
      "Charles": 4224,
      "Sa": 4225,
      "500": 4226,
      "Little": 4227,
      "?\"\"\"": 4228,
      "beha": 4229,
      "award": 4230,
      "investig": 4231,
      "750": 4232,
      "Ident": 4233,
      "Yout": 4234,
      "ena": 4235,
      "tors": 4236,
      "Mexico": 4237,
      "Cal": 4238,
      "ials": 4239,
      "noticed": 4240,
      "Comp": 4241,
      "turns": 4242,
      "Better": 4243,
      "suspect": 4244,
      "sight": 4245,
      "rian": 4246,
      "mato": 4247,
      "Den": 4248,
      "Pan": 4249,
      "expected": 4250,
      "cities": 4251,
      "yan": 4252,
      "beg": 4253,
      "Nope": 4254,
      "function": 4255,
      "condition": 4256,
      "systems": 4257,
      "bastard": 4258,
      "lts": 4259,
      "ads": 4260,
      "cheap": 4261,
      "mming": 4262,
      "burger": 4263,
      "Youtube": 4264,
      "Bow": 4265,
      "cheer": 4266,
      "sky": 4267,
      "sleeping": 4268,
      "pin": 4269,
      "army": 4270,
      "Somebody": 4271,
      "keeping": 4272,
      "CK": 4273,
      "rick": 4274,
      "tea": 4275,
      "direc": 4276,
      "serve": 4277,
      "crash": 4278,
      "Banana": 4279,
      "Under": 4280,
      "vill": 4281,
      "reck": 4282,
      "folks": 4283,
      "pink": 4284,
      "hardly": 4285,
      "capital": 4286,
      "typically": 4287,
      "3rd": 4288,
      "views": 4289,
      "Rick": 4290,
      "lyn": 4291,
      "condu": 4292,
      "ppers": 4293,
      "tells": 4294,
      "Os": 4295,
      "UN": 4296,
      "shame": 4297,
      "regard": 4298,
      "credit": 4299,
      "Stephen": 4300,
      "somethin": 4301,
      "powerful": 4302,
      "above": 4303,
      "Na": 4304,
      "OR": 4305,
      "peak": 4306,
      "horrible": 4307,
      "unique": 4308,
      "Hill": 4309,
      "lab": 4310,
      "itted": 4311,
      "seriously": 4312,
      "bio": 4313,
      "fed": 4314,
      "ador": 4315,
      "195": 4316,
      "starts": 4317,
      "!!!": 4318,
      "decide": 4319,
      "occas": 4320,
      "talented": 4321,
      "domest": 4322,
      "Vic": 4323,
      "Holly": 4324,
      "ival": 4325,
      "indeed": 4326,
      "Res": 4327,
      "?\"\"": 4328,
      "gency": 4329,
      "Doesn": 4330,
      "emer": 4331,
      "surface": 4332,
      "Henry": 4333,
      "etime": 4334,
      "mode": 4335,
      "occur": 4336,
      "received": 4337,
      "Sand": 4338,
      "uce": 4339,
      "lling": 4340,
      "arms": 4341,
      "thern": 4342,
      "combined": 4343,
      "rupt": 4344,
      "Identify": 4345,
      "Has": 4346,
      "Many": 4347,
      "bandwidth": 4348,
      "conversation": 4349,
      "Way": 4350,
      "amb": 4351,
      "showed": 4352,
      "Ya": 4353,
      "reference": 4354,
      "Ze": 4355,
      "bits": 4356,
      "jour": 4357,
      "mi": 4358,
      "suffer": 4359,
      "airport": 4360,
      "cellent": 4361,
      "specific": 4362,
      "Ow": 4363,
      "Ron": 4364,
      "mph": 4365,
      "alter": 4366,
      "decl": 4367,
      "ppy": 4368,
      "venue": 4369,
      "aves": 4370,
      "Aren": 4371,
      "genre": 4372,
      "holding": 4373,
      "commer": 4374,
      "mental": 4375,
      "cious": 4376,
      "marriage": 4377,
      "Lar": 4378,
      "pounds": 4379,
      "rating": 4380,
      "vada": 4381,
      "pocket": 4382,
      "elected": 4383,
      "Congress": 4384,
      "Name": 4385,
      "bri": 4386,
      "domin": 4387,
      "former": 4388,
      "craft": 4389,
      "title": 4390,
      "Williams": 4391,
      "BC": 4392,
      "VP": 4393,
      "link": 4394,
      "ases": 4395,
      "usion": 4396,
      "plus": 4397,
      "exe": 4398,
      "prin": 4399,
      "screen": 4400,
      "sched": 4401,
      "ashion": 4402,
      "degree": 4403,
      "spread": 4404,
      "design": 4405,
      "population": 4406,
      "hurry": 4407,
      "Zimbabwe": 4408,
      "double": 4409,
      "pred": 4410,
      "itude": 4411,
      "bell": 4412,
      "Major": 4413,
      "signific": 4414,
      "Linkin": 4415,
      "rare": 4416,
      "sle": 4417,
      "somehow": 4418,
      "percussion": 4419,
      "wedding": 4420,
      "Classify": 4421,
      "Cadillac": 4422,
      "monster": 4423,
      "shape": 4424,
      "streng": 4425,
      "Japanese": 4426,
      "society": 4427,
      "developed": 4428,
      "Dor": 4429,
      "pas": 4430,
      "ida": 4431,
      "istic": 4432,
      "Murray": 4433,
      "Crazy": 4434,
      "Adam": 4435,
      "Jones": 4436,
      "Long": 4437,
      "aylor": 4438,
      "earlier": 4439,
      "thoughts": 4440,
      "options": 4441,
      "Especially": 4442,
      "pray": 4443,
      "ordin": 4444,
      "Holy": 4445,
      "computing": 4446,
      "purch": 4447,
      "McDonald": 4448,
      "temper": 4449,
      "approach": 4450,
      "meth": 4451,
      "ourselves": 4452,
      "leaders": 4453,
      "excited": 4454,
      "Sunday": 4455,
      "Next": 4456,
      "bac": 4457,
      "omic": 4458,
      "climb": 4459,
      "individual": 4460,
      "Leave": 4461,
      ":)": 4462,
      "ED": 4463,
      "Mal": 4464,
      "alo": 4465,
      "served": 4466,
      "desk": 4467,
      "requires": 4468,
      "roit": 4469,
      "balls": 4470,
      "feelings": 4471,
      "panic": 4472,
      "lifetime": 4473,
      "wards": 4474,
      "stone": 4475,
      "fective": 4476,
      "kinds": 4477,
      "calm": 4478,
      "Kill": 4479,
      "nut": 4480,
      "river": 4481,
      "subscri": 4482,
      "Ty": 4483,
      "astr": 4484,
      "web": 4485,
      "handed": 4486,
      "Dead": 4487,
      "grew": 4488,
      "Gee": 4489,
      "destroyed": 4490,
      "Satur": 4491,
      "54": 4492,
      "lift": 4493,
      "scare": 4494,
      "hello": 4495,
      "Judge": 4496,
      "asleep": 4497,
      "assist": 4498,
      "gran": 4499,
      "creep": 4500,
      "recorded": 4501,
      "Phil": 4502,
      "Buddy": 4503,
      "wis": 4504,
      "Chinese": 4505,
      "page": 4506,
      "Clint": 4507,
      "dropped": 4508,
      "Texas": 4509,
      "lu": 4510,
      "papers": 4511,
      "ville": 4512,
      "eath": 4513,
      "burg": 4514,
      "apolog": 4515,
      "fortunately": 4516,
      "Laurie": 4517,
      "mary": 4518,
      "ening": 4519,
      "anti": 4520,
      "channel": 4521,
      "amazon": 4522,
      "complex": 4523,
      "drugs": 4524,
      "Kim": 4525,
      "depart": 4526,
      "concerned": 4527,
      "bathr": 4528,
      "dump": 4529,
      "py": 4530,
      "stadium": 4531,
      "Jerry": 4532,
      "article": 4533,
      "behavi": 4534,
      "Hor": 4535,
      "Part": 4536,
      "Taylor": 4537,
      "ov": 4538,
      "advice": 4539,
      "immedi": 4540,
      "shirt": 4541,
      "lets": 4542,
      "Rome": 4543,
      "walked": 4544,
      "depends": 4545,
      "exercise": 4546,
      "Bel": 4547,
      "Eli": 4548,
      "Gree": 4549,
      "sec": 4550,
      "doors": 4551,
      "embarr": 4552,
      "moral": 4553,
      "Roy": 4554,
      "brea": 4555,
      "anta": 4556,
      "contest": 4557,
      "Robert": 4558,
      "smaller": 4559,
      "assume": 4560,
      "Nix": 4561,
      "Wes": 4562,
      "nic": 4563,
      "upon": 4564,
      "daddy": 4565,
      "swim": 4566,
      "Help": 4567,
      "fascinating": 4568,
      "Blockbuster": 4569,
      "Cub": 4570,
      "Ford": 4571,
      "nur": 4572,
      "fox": 4573,
      "crap": 4574,
      "lights": 4575,
      "Johnson": 4576,
      "opportunity": 4577,
      "utenant": 4578,
      "teacher": 4579,
      "studio": 4580,
      "Jam": 4581,
      "los": 4582,
      "oppos": 4583,
      "----------------": 4584,
      "file": 4585,
      "lower": 4586,
      "zer": 4587,
      "below": 4588,
      "adm": 4589,
      "placed": 4590,
      "followed": 4591,
      "Patriots": 4592,
      "beyond": 4593,
      "idiot": 4594,
      "plor": 4595,
      "proof": 4596,
      "psycho": 4597,
      "Honey": 4598,
      "lat": 4599,
      "ange": 4600,
      "began": 4601,
      "Democr": 4602,
      "Talk": 4603,
      "Best": 4604,
      "alley": 4605,
      "embarrass": 4606,
      "bb": 4607,
      "jury": 4608,
      "berg": 4609,
      "proud": 4610,
      "rotary": 4611,
      "Korea": 4612,
      "citiz": 4613,
      "path": 4614,
      "planets": 4615,
      "Leon": 4616,
      "pencil": 4617,
      "distance": 4618,
      "draft": 4619,
      "loose": 4620,
      "loud": 4621,
      "hack": 4622,
      "turning": 4623,
      "Goodbye": 4624,
      "darling": 4625,
      "AI": 4626,
      "cro": 4627,
      "yard": 4628,
      "ours": 4629,
      "sail": 4630,
      "grab": 4631,
      "Marvel": 4632,
      "breakfast": 4633,
      "vacation": 4634,
      "Gover": 4635,
      "uary": 4636,
      "acket": 4637,
      "cancell": 4638,
      "however": 4639,
      "Nevada": 4640,
      "holds": 4641,
      "legs": 4642,
      "drinking": 4643,
      "welcome": 4644,
      "issues": 4645,
      "rant": 4646,
      "seat": 4647,
      "194": 4648,
      "Always": 4649,
      "Roman": 4650,
      "Agreed": 4651,
      "Frid": 4652,
      "stress": 4653,
      "ooper": 4654,
      "items": 4655,
      "patient": 4656,
      "pieces": 4657,
      "Twenty": 4658,
      "fashion": 4659,
      "init": 4660,
      "attract": 4661,
      "appeared": 4662,
      "Bre": 4663,
      "CO": 4664,
      "Pal": 4665,
      "sey": 4666,
      "fied": 4667,
      "center": 4668,
      "pulled": 4669,
      "photograph": 4670,
      "cigaret": 4671,
      "Tri": 4672,
      "igu": 4673,
      "request": 4674,
      "leaves": 4675,
      "achieve": 4676,
      "Sar": 4677,
      "pets": 4678,
      "mob": 4679,
      "dev": 4680,
      "artists": 4681,
      "speech": 4682,
      "Carl": 4683,
      "Foot": 4684,
      "restaurant": 4685,
      "yn": 4686,
      "utch": 4687,
      "goal": 4688,
      "complain": 4689,
      "Things": 4690,
      "ortal": 4691,
      "corpor": 4692,
      "promised": 4693,
      "cable": 4694,
      "rab": 4695,
      "fake": 4696,
      "stayed": 4697,
      "locked": 4698,
      "swimming": 4699,
      "relig": 4700,
      "Golden": 4701,
      "Ven": 4702,
      "lack": 4703,
      "meat": 4704,
      "unks": 4705,
      "congress": 4706,
      "launch": 4707,
      "production": 4708,
      "Hawai": 4709,
      "Floyd": 4710,
      "Off": 4711,
      "becoming": 4712,
      "commit": 4713,
      "cape": 4714,
      "option": 4715,
      "Hugh": 4716,
      "Baby": 4717,
      "Bad": 4718,
      "Open": 4719,
      "thru": 4720,
      "damage": 4721,
      "bridge": 4722,
      "FBI": 4723,
      "poem": 4724,
      "conven": 4725,
      "herself": 4726,
      "talkin": 4727,
      "officer": 4728,
      "continue": 4729,
      "pointing": 4730,
      "method": 4731,
      "..\"": 4732,
      "HE": 4733,
      "regre": 4734,
      "whose": 4735,
      "buddy": 4736,
      "Central": 4737,
      "astron": 4738,
      "ooms": 4739,
      "nights": 4740,
      "planning": 4741,
      "League": 4742,
      "wheel": 4743,
      "strength": 4744,
      "gift": 4745,
      "nation": 4746,
      "rection": 4747,
      "milk": 4748,
      "Juli": 4749,
      "location": 4750,
      "Bobby": 4751,
      "impact": 4752,
      "Vir": 4753,
      "pers": 4754,
      "teeth": 4755,
      "counter": 4756,
      "Gor": 4757,
      "riors": 4758,
      "ansas": 4759,
      "discovered": 4760,
      "boyfriend": 4761,
      "2000": 4762,
      "bathroom": 4763,
      "cous": 4764,
      "sor": 4765,
      "roat": 4766,
      "antly": 4767,
      "plat": 4768,
      "addition": 4769,
      "Fif": 4770,
      "Pop": 4771,
      "harm": 4772,
      "retire": 4773,
      "improve": 4774,
      "thers": 4775,
      "prior": 4776,
      "lovely": 4777,
      "Hea": 4778,
      "tun": 4779,
      "bodies": 4780,
      "farm": 4781,
      "discuss": 4782,
      "rub": 4783,
      "cheese": 4784,
      "Internet": 4785,
      "empty": 4786,
      "Phone": 4787,
      "stran": 4788,
      "iding": 4789,
      "eles": 4790,
      "pressure": 4791,
      "sym": 4792,
      "bottom": 4793,
      "Enter": 4794,
      "Scott": 4795,
      "Sing": 4796,
      "imme": 4797,
      "grown": 4798,
      "settle": 4799,
      "custom": 4800,
      "easily": 4801,
      "millions": 4802,
      "sevent": 4803,
      "bok": 4804,
      "affect": 4805,
      "healthy": 4806,
      "eggs": 4807,
      "accompl": 4808,
      "Law": 4809,
      "dick": 4810,
      "rem": 4811,
      "conv": 4812,
      "respond": 4813,
      "Bay": 4814,
      "Tar": 4815,
      "wins": 4816,
      "breath": 4817,
      "Check": 4818,
      "humor": 4819,
      "advantage": 4820,
      "IM": 4821,
      "onel": 4822,
      "compli": 4823,
      "property": 4824,
      "Du": 4825,
      "aa": 4826,
      "era": 4827,
      "argu": 4828,
      "verson": 4829,
      "church": 4830,
      "ceed": 4831,
      "consu": 4832,
      "complic": 4833,
      "Imag": 4834,
      "Flor": 4835,
      "Sit": 4836,
      "gro": 4837,
      "lieve": 4838,
      "genius": 4839,
      "desert": 4840,
      "snakes": 4841,
      "Detroit": 4842,
      "Vegas": 4843,
      "industry": 4844,
      "Find": 4845,
      "Lin": 4846,
      "seasons": 4847,
      "format": 4848,
      "wire": 4849,
      "superhero": 4850,
      "Prof": 4851,
      "Andy": 4852,
      "disease": 4853,
      "izing": 4854,
      "victim": 4855,
      "Beat": 4856,
      "cream": 4857,
      "simpsons": 4858,
      "corner": 4859,
      "Wo": 4860,
      "sac": 4861,
      "nail": 4862,
      "compared": 4863,
      "command": 4864,
      "leading": 4865,
      "streaming": 4866,
      "employees": 4867,
      "\"<": 4868,
      "Cas": 4869,
      "finitely": 4870,
      "Jean": 4871,
      "Fire": 4872,
      "Hy": 4873,
      "Life": 4874,
      "ggie": 4875,
      "Tommy": 4876,
      "various": 4877,
      "result": 4878,
      "razor": 4879,
      "Francisco": 4880,
      ";)": 4881,
      "fright": 4882,
      "alian": 4883,
      "possibly": 4884,
      "financial": 4885,
      "hous": 4886,
      "remain": 4887,
      "ache": 4888,
      "shark": 4889,
      "..\",\"": 4890,
      "Friend": 4891,
      "Olymp": 4892,
      "pun": 4893,
      "Doc": 4894,
      "saf": 4895,
      "believed": 4896,
      "Allen": 4897,
      "brothers": 4898,
      "split": 4899,
      "cancelled": 4900,
      "Gar": 4901,
      "News": 4902,
      "dish": 4903,
      "pher": 4904,
      "doc": 4905,
      "resour": 4906,
      "wondered": 4907,
      "Hur": 4908,
      "Tre": 4909,
      "len": 4910,
      "pite": 4911,
      "anced": 4912,
      "chips": 4913,
      "omen": 4914,
      "satis": 4915,
      "manager": 4916,
      "execut": 4917,
      "Ryan": 4918,
      "fu": 4919,
      "trump": 4920,
      "newsp": 4921,
      "constru": 4922,
      "published": 4923,
      "Ain": 4924,
      "Far": 4925,
      "Sur": 4926,
      "tian": 4927,
      "ilty": 4928,
      "pson": 4929,
      "network": 4930,
      "Uncle": 4931,
      "2005": 4932,
      "community": 4933,
      "Football": 4934,
      "33": 4935,
      "Latin": 4936,
      "Pot": 4937,
      "Te": 4938,
      "gor": 4939,
      "device": 4940,
      "laws": 4941,
      "classical": 4942,
      "opened": 4943,
      "solid": 4944,
      "Russia": 4945,
      "Nixon": 4946,
      "ST": 4947,
      "yo": 4948,
      "enny": 4949,
      "nomin": 4950,
      "products": 4951,
      "Asi": 4952,
      "jer": 4953,
      "Italian": 4954,
      "grade": 4955,
      "medical": 4956,
      "ivity": 4957,
      "recognize": 4958,
      "multiple": 4959,
      "recommend": 4960,
      "Dave": 4961,
      "escape": 4962,
      "trail": 4963,
      "agan": 4964,
      "apple": 4965,
      "flying": 4966,
      "Judy": 4967,
      "Imagine": 4968,
      "cts": 4969,
      "foreign": 4970,
      "babies": 4971,
      "courage": 4972,
      "sets": 4973,
      "caused": 4974,
      "beauty": 4975,
      "Men": 4976,
      "bright": 4977,
      "acqu": 4978,
      "concept": 4979,
      "fucker": 4980,
      "closer": 4981,
      "elections": 4982,
      "Boston": 4983,
      "eventually": 4984,
      "environment": 4985,
      "Bird": 4986,
      "Hot": 4987,
      "LA": 4988,
      "Ra": 4989,
      "damned": 4990,
      "banana": 4991,
      "telephone": 4992,
      "activity": 4993,
      "associated": 4994,
      "separate": 4995,
      "Australia": 4996,
      "Hal": 4997,
      "WW": 4998,
      "alous": 4999,
      "stole": 5000,
      "Definitely": 5001,
      "consist": 5002,
      "itchen": 5003,
      "fastest": 5004,
      "repe": 5005,
      "rapper": 5006,
      "sphere": 5007,
      "civ": 5008,
      "designed": 5009,
      "offered": 5010,
      "square": 5011,
      "provided": 5012,
      "Family": 5013,
      "Hall": 5014,
      "VE": 5015,
      "igan": 5016,
      "education": 5017,
      "Dark": 5018,
      "Sho": 5019,
      "Use": 5020,
      "dirty": 5021,
      "visited": 5022,
      "Ask": 5023,
      "added": 5024,
      "effective": 5025,
      "broadcast": 5026,
      "vehicles": 5027,
      "Lieutenant": 5028,
      "core": 5029,
      "agent": 5030,
      "express": 5031,
      "explor": 5032,
      "2022": 5033,
      "required": 5034,
      "promotion": 5035,
      "camera": 5036,
      "ably": 5037,
      "owner": 5038,
      "drag": 5039,
      "scored": 5040,
      "brains": 5041,
      "activities": 5042,
      "26": 5043,
      "Dude": 5044,
      "Mat": 5045,
      "trade": 5046,
      "transport": 5047,
      "customer": 5048,
      "behavior": 5049,
      "Ring": 5050,
      "ileaks": 5051,
      "faith": 5052,
      "employ": 5053,
      "connection": 5054,
      "Know": 5055,
      "Run": 5056,
      "fro": 5057,
      "omy": 5058,
      "inju": 5059,
      "recall": 5060,
      "tray": 5061,
      "actions": 5062,
      "prote": 5063,
      "letters": 5064,
      "appears": 5065,
      "republican": 5066,
      "Sep": 5067,
      "sexual": 5068,
      "nearly": 5069,
      "Bat": 5070,
      "enced": 5071,
      "breed": 5072,
      "families": 5073,
      "Court": 5074,
      "jud": 5075,
      ".\",\"\"\"": 5076,
      "costs": 5077,
      "fruit": 5078,
      "director": 5079,
      "sis": 5080,
      "asty": 5081,
      "saving": 5082,
      "Moon": 5083,
      "allows": 5084,
      "changing": 5085,
      "defense": 5086,
      "insurance": 5087,
      "irts": 5088,
      "Daniel": 5089,
      "novels": 5090,
      "skills": 5091,
      "Fre": 5092,
      "gged": 5093,
      "movement": 5094,
      "generally": 5095,
      "Betty": 5096,
      "carrying": 5097,
      "competition": 5098,
      "Florida": 5099,
      "35": 5100,
      "None": 5101,
      "lun": 5102,
      "ufact": 5103,
      "llo": 5104,
      "summ": 5105,
      "cel": 5106,
      "butter": 5107,
      "guilty": 5108,
      "comedies": 5109,
      "2001": 5110,
      "gang": 5111,
      "hill": 5112,
      "rist": 5113,
      "Roger": 5114,
      "athlet": 5115,
      "pattern": 5116,
      "exciting": 5117,
      "equipment": 5118,
      "Lam": 5119,
      "stro": 5120,
      "sele": 5121,
      "esty": 5122,
      "bran": 5123,
      "Both": 5124,
      "traveling": 5125,
      "magic": 5126,
      "results": 5127,
      "literature": 5128,
      "demand": 5129,
      "Fer": 5130,
      "Iverson": 5131,
      "ration": 5132,
      "lands": 5133,
      "signal": 5134,
      "survive": 5135,
      "Hawaii": 5136,
      "800": 5137,
      "bul": 5138,
      "orrow": 5139,
      "Reed": 5140,
      "understanding": 5141,
      "native": 5142,
      "bringing": 5143,
      "Cer": 5144,
      "wing": 5145,
      "helping": 5146,
      "USA": 5147,
      "machines": 5148,
      "hanging": 5149,
      "tickets": 5150,
      "material": 5151,
      "AL": 5152,
      "Tran": 5153,
      "Um": 5154,
      "atmo": 5155,
      "heaven": 5156,
      "plants": 5157,
      "Real": 5158,
      "opening": 5159,
      "creating": 5160,
      "freak": 5161,
      "deserve": 5162,
      "Russian": 5163,
      "civili": 5164,
      "Bell": 5165,
      "Braz": 5166,
      "Med": 5167,
      "scream": 5168,
      "LeBron": 5169,
      "Except": 5170,
      "unior": 5171,
      "tware": 5172,
      "Saturday": 5173,
      "Eight": 5174,
      "ita": 5175,
      "itation": 5176,
      "edge": 5177,
      "sometime": 5178,
      "\"\".\"": 5179,
      "basic": 5180,
      "School": 5181,
      "target": 5182,
      "garden": 5183,
      "ost": 5184,
      "aland": 5185,
      "Hollywood": 5186,
      "DA": 5187,
      "categ": 5188,
      "mare": 5189,
      "areas": 5190,
      "basically": 5191,
      "Wouldn": 5192,
      "Plus": 5193,
      "MM": 5194,
      "Rad": 5195,
      "vard": 5196,
      "stage": 5197,
      "lium": 5198,
      "temp": 5199,
      "Danny": 5200,
      "immediately": 5201,
      "bread": 5202,
      "rush": 5203,
      "ano": 5204,
      "Dogs": 5205,
      "policy": 5206,
      "causes": 5207,
      "mood": 5208,
      "forgive": 5209,
      "trunks": 5210,
      "noise": 5211,
      "ucker": 5212,
      "files": 5213,
      "salt": 5214,
      "Mama": 5215,
      "bare": 5216,
      "shad": 5217,
      "ule": 5218,
      "aff": 5219,
      "grass": 5220,
      "cases": 5221,
      "itors": 5222,
      "'.\"": 5223,
      "awhile": 5224,
      "arante": 5225,
      "fel": 5226,
      "innocent": 5227,
      "Tor": 5228,
      "bond": 5229,
      "mut": 5230,
      "Young": 5231,
      "rake": 5232,
      "collection": 5233,
      "influence": 5234,
      "kitchen": 5235,
      "manufact": 5236,
      "progress": 5237,
      "scen": 5238,
      "locker": 5239,
      "hoping": 5240,
      "Republican": 5241,
      "safety": 5242,
      "Emine": 5243,
      "Happ": 5244,
      "cot": 5245,
      "ference": 5246,
      "primary": 5247,
      "understood": 5248,
      "gate": 5249,
      "velt": 5250,
      "Believe": 5251,
      "flow": 5252,
      "fficient": 5253,
      "Night": 5254,
      "highly": 5255,
      "increase": 5256,
      "Sheriff": 5257,
      "negative": 5258,
      "Eminem": 5259,
      "gia": 5260,
      "ito": 5261,
      "sion": 5262,
      "ambi": 5263,
      "estab": 5264,
      "Art": 5265,
      "according": 5266,
      "dunno": 5267,
      "ws": 5268,
      "rep": 5269,
      "esar": 5270,
      "contribut": 5271,
      "Tomorrow": 5272,
      "Had": 5273,
      "Mil": 5274,
      "kne": 5275,
      "pup": 5276,
      "infe": 5277,
      "advert": 5278,
      "possess": 5279,
      "musical": 5280,
      "Harold": 5281,
      "ength": 5282,
      "produce": 5283,
      "instru": 5284,
      "Plan": 5285,
      "gall": 5286,
      "wers": 5287,
      "attempt": 5288,
      "suic": 5289,
      "aint": 5290,
      "honestly": 5291,
      "directly": 5292,
      "department": 5293,
      "Gra": 5294,
      "duty": 5295,
      "spin": 5296,
      "standard": 5297,
      "checked": 5298,
      "produced": 5299,
      "grav": 5300,
      "wooden": 5301,
      "development": 5302,
      "Profess": 5303,
      "Lake": 5304,
      "Val": 5305,
      "bage": 5306,
      "sne": 5307,
      "xim": 5308,
      "romantic": 5309,
      "singer": 5310,
      "burned": 5311,
      "championship": 5312,
      "oosevelt": 5313,
      "automat": 5314,
      "ota": 5315,
      "acle": 5316,
      "awards": 5317,
      "Ann": 5318,
      "Anne": 5319,
      "freed": 5320,
      "Jeffrey": 5321,
      "Miller": 5322,
      "piz": 5323,
      "rooms": 5324,
      "tune": 5325,
      "idge": 5326,
      "breaking": 5327,
      "patent": 5328,
      "filled": 5329,
      "infl": 5330,
      "veget": 5331,
      "spring": 5332,
      "icks": 5333,
      "doesnt": 5334,
      "hired": 5335,
      "kespe": 5336,
      "listened": 5337,
      "Acc": 5338,
      "Senate": 5339,
      "extremely": 5340,
      "divorce": 5341,
      "guarante": 5342,
      "bling": 5343,
      "ademy": 5344,
      "angle": 5345,
      "finding": 5346,
      "friendly": 5347,
      "Goddamn": 5348,
      "trial": 5349,
      "Engine": 5350,
      "Kenned": 5351,
      "granny": 5352,
      "212": 5353,
      "Base": 5354,
      "Sil": 5355,
      "ience": 5356,
      "ghost": 5357,
      "FA": 5358,
      "Wars": 5359,
      "rum": 5360,
      "estim": 5361,
      "belief": 5362,
      "matters": 5363,
      "2011": 5364,
      "dude": 5365,
      "Carol": 5366,
      "languages": 5367,
      "appointed": 5368,
      "weapons": 5369,
      "Larry": 5370,
      "apologize": 5371,
      "Nah": 5372,
      "Yah": 5373,
      "anye": 5374,
      "Ree": 5375,
      "throwers": 5376,
      "bottle": 5377,
      "jealous": 5378,
      "prepared": 5379,
      "Gir": 5380,
      "rand": 5381,
      "metal": 5382,
      "raised": 5383,
      "cloud": 5384,
      "Home": 5385,
      "calcul": 5386,
      "spoke": 5387,
      "Senator": 5388,
      "campa": 5389,
      "iPhone": 5390,
      "mart": 5391,
      "pus": 5392,
      "urally": 5393,
      "graphy": 5394,
      "Everest": 5395,
      "sharks": 5396,
      "Colonel": 5397,
      "details": 5398,
      "Ire": 5399,
      "threw": 5400,
      "theart": 5401,
      "hated": 5402,
      "liqu": 5403,
      "gettin": 5404,
      "applic": 5405,
      "apped": 5406,
      "visiting": 5407,
      "storm": 5408,
      "Write": 5409,
      "Gal": 5410,
      "lone": 5411,
      "stal": 5412,
      "cience": 5413,
      "stands": 5414,
      "2003": 5415,
      "Army": 5416,
      "smoking": 5417,
      "Admir": 5418,
      "vest": 5419,
      "lled": 5420,
      "rial": 5421,
      "190": 5422,
      "cares": 5423,
      "document": 5424,
      "Kennedy": 5425,
      "'.\",\"": 5426,
      "Jose": 5427,
      "Mmm": 5428,
      "Yup": 5429,
      "sees": 5430,
      "iring": 5431,
      "aging": 5432,
      "upstairs": 5433,
      "realized": 5434,
      "Until": 5435,
      "Marty": 5436,
      "magaz": 5437,
      "script": 5438,
      "techni": 5439,
      "obviously": 5440,
      "Bush": 5441,
      "Rel": 5442,
      "ez": 5443,
      "jacket": 5444,
      "theat": 5445,
      "Soon": 5446,
      "aker": 5447,
      "Atl": 5448,
      "knife": 5449,
      "neighborhood": 5450,
      "Death": 5451,
      "Los": 5452,
      "anda": 5453,
      "donated": 5454,
      "Extract": 5455,
      "riding": 5456,
      "regret": 5457,
      "bid": 5458,
      "bath": 5459,
      "kins": 5460,
      "thetic": 5461,
      "user": 5462,
      "excellent": 5463,
      "earn": 5464,
      "hiding": 5465,
      "39": 5466,
      "Hun": 5467,
      "Lady": 5468,
      "ients": 5469,
      "meas": 5470,
      "forced": 5471,
      "cancer": 5472,
      "histor": 5473,
      "enemy": 5474,
      "pairs": 5475,
      "spirit": 5476,
      "devices": 5477,
      "kespeare": 5478,
      "Admiral": 5479,
      "Las": 5480,
      "eli": 5481,
      "thon": 5482,
      "habit": 5483,
      "ulations": 5484,
      "otherwise": 5485,
      "international": 5486,
      "ichigan": 5487,
      "shoe": 5488,
      "laid": 5489,
      "160": 5490,
      "tracking": 5491,
      "virt": 5492,
      "quarters": 5493,
      "suddenly": 5494,
      "Friday": 5495,
      "Agent": 5496,
      "NA": 5497,
      "lap": 5498,
      "reject": 5499,
      "revol": 5500,
      "seum": 5501,
      "tip": 5502,
      "Unless": 5503,
      "creative": 5504,
      "painting": 5505,
      "Kansas": 5506,
      "Met": 5507,
      "donate": 5508,
      "weetheart": 5509,
      "grees": 5510,
      "continued": 5511,
      "Caesar": 5512,
      "strike": 5513,
      "Oc": 5514,
      "hits": 5515,
      "lake": 5516,
      "interview": 5517,
      "coln": 5518,
      "leads": 5519,
      "buildings": 5520,
      "AND": 5521,
      "software": 5522,
      "compliment": 5523,
      "27": 5524,
      "70s": 5525,
      "Apri": 5526,
      "Die": 5527,
      "pu": 5528,
      "rise": 5529,
      "ros": 5530,
      "shirts": 5531,
      "pregn": 5532,
      "cles": 5533,
      "21st": 5534,
      "Bowl": 5535,
      "April": 5536,
      "Tra": 5537,
      "Tech": 5538,
      "ox": 5539,
      "helium": 5540,
      "andon": 5541,
      "adays": 5542,
      "coat": 5543,
      "plastic": 5544,
      "attend": 5545,
      "conditions": 5546,
      "borrow": 5547,
      "politic": 5548,
      "currently": 5549,
      "potential": 5550,
      "shocked": 5551,
      "hidden": 5552,
      "Jason": 5553,
      "Roosevelt": 5554,
      "Spo": 5555,
      "degrees": 5556,
      "everyday": 5557,
      "tural": 5558,
      "Bal": 5559,
      "CH": 5560,
      "PS": 5561,
      "bound": 5562,
      "wrest": 5563,
      "atives": 5564,
      "itz": 5565,
      "Carrey": 5566,
      "ixar": 5567,
      "distur": 5568,
      "bike": 5569,
      "ari": 5570,
      "reser": 5571,
      "direction": 5572,
      "workers": 5573,
      "answers": 5574,
      "2014": 5575,
      "roads": 5576,
      "Champ": 5577,
      "99": 5578,
      "Id": 5579,
      "Py": 5580,
      "Wik": 5581,
      "jelly": 5582,
      "aller": 5583,
      "maintain": 5584,
      "emergency": 5585,
      "Mine": 5586,
      "UCK": 5587,
      "actress": 5588,
      "rank": 5589,
      "nightmare": 5590,
      "medic": 5591,
      "trained": 5592,
      "constitution": 5593,
      "LE": 5594,
      "Mack": 5595,
      "ila": 5596,
      "longest": 5597,
      "posit": 5598,
      "programming": 5599,
      "accounts": 5600,
      "gradu": 5601,
      "inte": 5602,
      "robot": 5603,
      "map": 5604,
      "iling": 5605,
      "american": 5606,
      "crying": 5607,
      "variety": 5608,
      "Zealand": 5609,
      "Book": 5610,
      "ML": 5611,
      "Wel": 5612,
      "dunk": 5613,
      "Without": 5614,
      "spending": 5615,
      "hamburger": 5616,
      "besides": 5617,
      "ture": 5618,
      "wart": 5619,
      "iny": 5620,
      "ooth": 5621,
      "Read": 5622,
      "Justin": 5623,
      "Poor": 5624,
      "loso": 5625,
      "comin": 5626,
      "2012": 5627,
      "voted": 5628,
      "scientists": 5629,
      "managers": 5630,
      "Karl": 5631,
      "jesty": 5632,
      "phe": 5633,
      "rhy": 5634,
      "--\",\"--": 5635,
      "border": 5636,
      "Grace": 5637,
      "perfectly": 5638,
      "daily": 5639,
      "elephants": 5640,
      "Virgin": 5641,
      "Aug": 5642,
      "Ir": 5643,
      "SN": 5644,
      "insp": 5645,
      "ucky": 5646,
      "clue": 5647,
      "disappear": 5648,
      "passing": 5649,
      "voting": 5650,
      "dressed": 5651,
      "Ellie": 5652,
      "Jane": 5653,
      "Tank": 5654,
      "ini": 5655,
      "inet": 5656,
      "liar": 5657,
      "theres": 5658,
      "omb": 5659,
      "streets": 5660,
      "benefits": 5661,
      "Lincoln": 5662,
      "Bor": 5663,
      "Ly": 5664,
      "asant": 5665,
      "oops": 5666,
      "ula": 5667,
      "earned": 5668,
      "planned": 5669,
      "Haven": 5670,
      "Makes": 5671,
      "Series": 5672,
      "murdered": 5673,
      "gentlemen": 5674,
      "criminal": 5675,
      "Miles": 5676,
      "Nat": 5677,
      "bite": 5678,
      "Reagan": 5679,
      "topic": 5680,
      "valu": 5681,
      "Burger": 5682,
      "IG": 5683,
      "Jazz": 5684,
      "pi": 5685,
      "leans": 5686,
      "sole": 5687,
      "deaf": 5688,
      "decent": 5689,
      "holes": 5690,
      "2018": 5691,
      "Almost": 5692,
      "transfer": 5693,
      "lonely": 5694,
      "Cla": 5695,
      "SH": 5696,
      "Ta": 5697,
      "Water": 5698,
      "Yo": 5699,
      "ateful": 5700,
      "throughout": 5701,
      "giant": 5702,
      "prime": 5703,
      "Kanye": 5704,
      "SE": 5705,
      "ee": 5706,
      "inches": 5707,
      "arrange": 5708,
      "smile": 5709,
      "frame": 5710,
      "voices": 5711,
      "confess": 5712,
      "suicide": 5713,
      "length": 5714,
      "mama": 5715,
      "tank": 5716,
      "udes": 5717,
      "zos": 5718,
      "income": 5719,
      "independ": 5720,
      "showing": 5721,
      "student": 5722,
      "Shakespeare": 5723,
      "loaded": 5724,
      "Luc": 5725,
      "Lloyd": 5726,
      "Rand": 5727,
      "hes": 5728,
      "waves": 5729,
      "tower": 5730,
      "orbit": 5731,
      "unfriend": 5732,
      "agreed": 5733,
      "deb": 5734,
      "endor": 5735,
      "fortune": 5736,
      "salary": 5737,
      "Curry": 5738,
      "1805": 5739,
      "complicated": 5740,
      "Cut": 5741,
      "Port": 5742,
      "cake": 5743,
      "gie": 5744,
      "mile": 5745,
      "sie": 5746,
      "lean": 5747,
      "shopping": 5748,
      "Carter": 5749,
      "Norman": 5750,
      "loyal": 5751,
      "African": 5752,
      "Luke": 5753,
      "houses": 5754,
      "Emp": 5755,
      "Sum": 5756,
      "ched": 5757,
      "torney": 5758,
      "minis": 5759,
      "minds": 5760,
      "drives": 5761,
      "Pete": 5762,
      "Prime": 5763,
      "challeng": 5764,
      "Creed": 5765,
      "Lind": 5766,
      "RO": 5767,
      "iant": 5768,
      "sugar": 5769,
      "exact": 5770,
      "hire": 5771,
      "drum": 5772,
      "connected": 5773,
      "Bullshit": 5774,
      "resources": 5775,
      "400": 5776,
      "Bra": 5777,
      "Seven": 5778,
      "tles": 5779,
      "ender": 5780,
      "quot": 5781,
      "museum": 5782,
      "Whoa": 5783,
      "expert": 5784,
      "Human": 5785,
      "scientist": 5786,
      "Brazil": 5787,
      "Michigan": 5788,
      "Wall": 5789,
      "lord": 5790,
      "ows": 5791,
      "ager": 5792,
      "puts": 5793,
      "Trust": 5794,
      "Comedy": 5795,
      "uniforms": 5796,
      "Span": 5797,
      "shots": 5798,
      "1975": 5799,
      "Wilson": 5800,
      "Certain": 5801,
      "!...": 5802,
      "Di": 5803,
      "Fl": 5804,
      "Ot": 5805,
      "Ton": 5806,
      "ert": 5807,
      "replace": 5808,
      "measure": 5809,
      "havent": 5810,
      "trap": 5811,
      "cks": 5812,
      "blew": 5813,
      "grou": 5814,
      "diet": 5815,
      "guessed": 5816,
      "Second": 5817,
      "syn": 5818,
      "hunting": 5819,
      "ounce": 5820,
      "appropri": 5821,
      "chickens": 5822,
      "Turn": 5823,
      "describe": 5824,
      "Duncan": 5825,
      "ek": 5826,
      "managed": 5827,
      "whom": 5828,
      "Start": 5829,
      "Church": 5830,
      "sites": 5831,
      "drinks": 5832,
      "Warriors": 5833,
      "Potter": 5834,
      "bby": 5835,
      "othy": 5836,
      "isa": 5837,
      "lec": 5838,
      "soundtrack": 5839,
      "chain": 5840,
      "towards": 5841,
      "classes": 5842,
      "client": 5843,
      "richest": 5844,
      "steps": 5845,
      "license": 5846,
      "vation": 5847,
      "whis": 5848,
      "acts": 5849,
      "candy": 5850,
      "Dou": 5851,
      "fuel": 5852,
      "pages": 5853,
      "sou": 5854,
      "vable": 5855,
      "ustle": 5856,
      "istan": 5857,
      "venture": 5858,
      "Brown": 5859,
      "experiment": 5860,
      "instance": 5861,
      "responsibility": 5862,
      "Such": 5863,
      "global": 5864,
      "campaign": 5865,
      "Aye": 5866,
      "Gl": 5867,
      "icket": 5868,
      "poison": 5869,
      "ously": 5870,
      "lookin": 5871,
      "tons": 5872,
      "walks": 5873,
      "March": 5874,
      "Bring": 5875,
      "statement": 5876,
      "guests": 5877,
      "holid": 5878,
      "economic": 5879,
      "Ringo": 5880,
      "'?\"": 5881,
      "cord": 5882,
      "gger": 5883,
      "pure": 5884,
      "flag": 5885,
      "setting": 5886,
      "Anna": 5887,
      "solution": 5888,
      "Teddy": 5889,
      "Angeles": 5890,
      "pizza": 5891,
      "coast": 5892,
      "conserv": 5893,
      "display": 5894,
      "singing": 5895,
      "toward": 5896,
      "calories": 5897,
      "paint": 5898,
      "vehicle": 5899,
      "occasion": 5900,
      "princi": 5901,
      "freedom": 5902,
      "Baseball": 5903,
      "Ja": 5904,
      "Pixar": 5905,
      "SO": 5906,
      "cohol": 5907,
      "tee": 5908,
      "hip": 5909,
      "concern": 5910,
      "entirely": 5911,
      "fixed": 5912,
      "'?\",\"": 5913,
      "slight": 5914,
      "ette": 5915,
      "playoff": 5916,
      "affair": 5917,
      "Harvard": 5918,
      "Wasn": 5919,
      "panels": 5920,
      "Buzz": 5921,
      "spoken": 5922,
      "cousin": 5923,
      "Reebok": 5924,
      "June": 5925,
      "Kay": 5926,
      "pha": 5927,
      "tho": 5928,
      "mechan": 5929,
      "owa": 5930,
      "iron": 5931,
      "shift": 5932,
      "brings": 5933,
      "warrant": 5934,
      "clever": 5935,
      "tournam": 5936,
      "European": 5937,
      "Robin": 5938,
      "Bon": 5939,
      "FUCK": 5940,
      "ires": 5941,
      "lph": 5942,
      "zard": 5943,
      "staff": 5944,
      "earning": 5945,
      "eleven": 5946,
      "iami": 5947,
      "Cont": 5948,
      "Mel": 5949,
      "nig": 5950,
      "sword": 5951,
      "wet": 5952,
      "tial": 5953,
      "founder": 5954,
      "ugly": 5955,
      "nurse": 5956,
      "NY": 5957,
      "dim": 5958,
      "isto": 5959,
      "Italy": 5960,
      "detective": 5961,
      "cables": 5962,
      "Ms": 5963,
      "yl": 5964,
      "atory": 5965,
      "roof": 5966,
      "rig": 5967,
      "goti": 5968,
      "offers": 5969,
      "letting": 5970,
      "minim": 5971,
      "schools": 5972,
      "legend": 5973,
      "logist": 5974,
      "protected": 5975,
      "bags": 5976,
      "River": 5977,
      "convenient": 5978,
      "Tower": 5979,
      "Whe": 5980,
      "gross": 5981,
      "sin": 5982,
      ".\",\"'": 5983,
      "lip": 5984,
      "tied": 5985,
      "Stu": 5986,
      "sche": 5987,
      "grandfather": 5988,
      "balance": 5989,
      "investment": 5990,
      "Ruth": 5991,
      "limited": 5992,
      "immortal": 5993,
      "According": 5994,
      "Down": 5995,
      "chief": 5996,
      "sued": 5997,
      "convent": 5998,
      "shoulder": 5999,
      "joint": 6000,
      "organization": 6001,
      "particip": 6002,
      "brief": 6003,
      "Happy": 6004,
      "Data": 6005,
      "fame": 6006,
      "sam": 6007,
      "itche": 6008,
      "loan": 6009,
      "ulu": 6010,
      "uments": 6011,
      "icked": 6012,
      "phr": 6013,
      "shower": 6014,
      "mond": 6015,
      "conscious": 6016,
      "Mickey": 6017,
      "capable": 6018,
      "sooner": 6019,
      "confused": 6020,
      "programs": 6021,
      "operation": 6022,
      "deterrent": 6023,
      "Hillary": 6024,
      "Ant": 6025,
      "CA": 6026,
      "Kare": 6027,
      "Might": 6028,
      "meal": 6029,
      "becomes": 6030,
      "adjust": 6031,
      "?\",\"--": 6032,
      "\"\"?": 6033,
      "worldwide": 6034,
      "Today": 6035,
      "candidate": 6036,
      "August": 6037,
      "groups": 6038,
      "picking": 6039,
      "uals": 6040,
      "oring": 6041,
      "\"\"?\",\"": 6042,
      "Seattle": 6043,
      "univers": 6044,
      "1998": 6045,
      "protection": 6046,
      "appointment": 6047,
      "weapon": 6048,
      "Ireland": 6049,
      "endorse": 6050,
      "65": 6051,
      "pir": 6052,
      "wa": 6053,
      "wich": 6054,
      "stit": 6055,
      "aled": 6056,
      "weigh": 6057,
      "deals": 6058,
      "goodbye": 6059,
      "assador": 6060,
      "pressing": 6061,
      "oldest": 6062,
      "extinct": 6063,
      "register": 6064,
      "pilot": 6065,
      "Miami": 6066,
      "iat": 6067,
      "craw": 6068,
      "passion": 6069,
      "bullets": 6070,
      "fella": 6071,
      "circum": 6072,
      "particularly": 6073,
      "CE": 6074,
      "OF": 6075,
      "fal": 6076,
      "nap": 6077,
      "nfl": 6078,
      "powers": 6079,
      "esh": 6080,
      "goals": 6081,
      "buried": 6082,
      "surround": 6083,
      "wald": 6084,
      "archite": 6085,
      "digital": 6086,
      "Ball": 6087,
      "Ill": 6088,
      "Pa": 6089,
      "wound": 6090,
      "ester": 6091,
      "funeral": 6092,
      "strate": 6093,
      "Anim": 6094,
      "aimed": 6095,
      "garbage": 6096,
      "physics": 6097,
      "oopers": 6098,
      "nickname": 6099,
      "crowd": 6100,
      "infeld": 6101,
      "Cr": 6102,
      "Person": 6103,
      "cue": 6104,
      "rink": 6105,
      "ults": 6106,
      "aked": 6107,
      "aska": 6108,
      "gging": 6109,
      "bands": 6110,
      "aldwin": 6111,
      "engineer": 6112,
      "Times": 6113,
      "mixed": 6114,
      "Susan": 6115,
      "Based": 6116,
      "Nye": 6117,
      "ape": 6118,
      "gov": 6119,
      "Theo": 6120,
      "Ohio": 6121,
      "Been": 6122,
      "ception": 6123,
      "sixty": 6124,
      "Grant": 6125,
      "garage": 6126,
      "cups": 6127,
      "opposite": 6128,
      "Gordon": 6129,
      "Cons": 6130,
      "Sto": 6131,
      "ni": 6132,
      "secre": 6133,
      "alot": 6134,
      "nowhere": 6135,
      "adap": 6136,
      "root": 6137,
      "weet": 6138,
      "image": 6139,
      "geant": 6140,
      "Homer": 6141,
      "region": 6142,
      "frequency": 6143,
      "athletes": 6144,
      "valuable": 6145,
      "dust": 6146,
      "tooth": 6147,
      "previous": 6148,
      "carto": 6149,
      "Incred": 6150,
      "2020": 6151,
      "Shhh": 6152,
      "Georgia": 6153,
      "falling": 6154,
      "forests": 6155,
      "Dorothy": 6156,
      "customers": 6157,
      "appropriate": 6158,
      "Hit": 6159,
      "stink": 6160,
      "beating": 6161,
      "alike": 6162,
      "chess": 6163,
      "therap": 6164,
      "proved": 6165,
      "izon": 6166,
      "ashed": 6167,
      "drove": 6168,
      "Patrick": 6169,
      "Him": 6170,
      "Money": 6171,
      "dat": 6172,
      "dul": 6173,
      "inch": 6174,
      "abilities": 6175,
      "unusual": 6176,
      "motor": 6177,
      "devil": 6178,
      "Thr": 6179,
      "aving": 6180,
      "Lewis": 6181,
      "relative": 6182,
      "rilliant": 6183,
      "Ari": 6184,
      "Easy": 6185,
      "Glad": 6186,
      "Gimme": 6187,
      "Light": 6188,
      "bone": 6189,
      "tt": 6190,
      "anno": 6191,
      "stations": 6192,
      "section": 6193,
      "dozen": 6194,
      "rier": 6195,
      "shi": 6196,
      "Majesty": 6197,
      "solve": 6198,
      "laughing": 6199,
      "receive": 6200,
      "incident": 6201,
      "gentleman": 6202,
      "introduced": 6203,
      "symbo": 6204,
      "inflation": 6205,
      "AP": 6206,
      "Brian": 6207,
      "OW": 6208,
      "bars": 6209,
      "cere": 6210,
      "dating": 6211,
      "alys": 6212,
      "forgotten": 6213,
      "wolf": 6214,
      "interests": 6215,
      "2013": 6216,
      "Alan": 6217,
      "favorites": 6218,
      "expecting": 6219,
      "Police": 6220,
      "domesticated": 6221,
      "Party": 6222,
      "Jess": 6223,
      "Rac": 6224,
      "dition": 6225,
      "sweetheart": 6226,
      "tag": 6227,
      "uncle": 6228,
      "...,": 6229,
      "shield": 6230,
      "fees": 6231,
      "romise": 6232,
      "extract": 6233,
      "strict": 6234,
      "harder": 6235,
      "Club": 6236,
      "stret": 6237,
      "sending": 6238,
      "Prin": 6239,
      "fantastic": 6240,
      "fingers": 6241,
      "traditional": 6242,
      "intelligence": 6243,
      "sacri": 6244,
      "nominated": 6245,
      "Joseph": 6246,
      "28": 6247,
      "45": 6248,
      "Fu": 6249,
      "Tes": 6250,
      "cies": 6251,
      "stan": 6252,
      "lem": 6253,
      "otic": 6254,
      "negoti": 6255,
      "spare": 6256,
      "scale": 6257,
      "Bezos": 6258,
      "Goodnight": 6259,
      "Joey": 6260,
      "Annie": 6261,
      "recording": 6262,
      "pulling": 6263,
      "1997": 6264,
      "determin": 6265,
      "philoso": 6266,
      "random": 6267,
      "Ko": 6268,
      "Vi": 6269,
      "lon": 6270,
      "icing": 6271,
      "abama": 6272,
      "...,\"": 6273,
      "usive": 6274,
      "tear": 6275,
      "talks": 6276,
      "guessing": 6277,
      "2004": 6278,
      "hundreds": 6279,
      "Earl": 6280,
      "dancers": 6281,
      "beth": 6282,
      "brown": 6283,
      "burning": 6284,
      "Inde": 6285,
      "advanced": 6286,
      "cultural": 6287,
      "shocking": 6288,
      "effects": 6289,
      "ordinary": 6290,
      "gather": 6291,
      "vit": 6292,
      "inspir": 6293,
      "rema": 6294,
      "reput": 6295,
      "supre": 6296,
      "iffel": 6297,
      "comics": 6298,
      "Reggie": 6299,
      "despite": 6300,
      "attitude": 6301,
      "!!!\"": 6302,
      "clearly": 6303,
      "Caine": 6304,
      "fortunate": 6305,
      "pissed": 6306,
      "firm": 6307,
      "schedule": 6308,
      "During": 6309,
      "FI": 6310,
      "NE": 6311,
      "iphone": 6312,
      "tori": 6313,
      "vey": 6314,
      "som": 6315,
      "nowadays": 6316,
      "ieber": 6317,
      "fishing": 6318,
      "impressed": 6319,
      "benefit": 6320,
      "Friends": 6321,
      "Pac": 6322,
      "Swi": 6323,
      "Women": 6324,
      "ibles": 6325,
      "pump": 6326,
      "chose": 6327,
      "suits": 6328,
      "spect": 6329,
      "distract": 6330,
      "laine": 6331,
      "confir": 6332,
      "blocks": 6333,
      "Course": 6334,
      "atmosphere": 6335,
      "Professor": 6336,
      "pregnant": 6337,
      "Certainly": 6338,
      "Kareem": 6339,
      "Santa": 6340,
      "arily": 6341,
      "sem": 6342,
      "bug": 6343,
      "gym": 6344,
      "possibility": 6345,
      "tests": 6346,
      "coaches": 6347,
      "bills": 6348,
      "sequel": 6349,
      "Indeed": 6350,
      "cine": 6351,
      "dict": 6352,
      "nit": 6353,
      "amphi": 6354,
      "nold": 6355,
      "justice": 6356,
      "tools": 6357,
      "fold": 6358,
      "enses": 6359,
      "dealing": 6360,
      "Steven": 6361,
      "ordered": 6362,
      "advance": 6363,
      "performed": 6364,
      "Truman": 6365,
      "Clinton": 6366,
      "alysis": 6367,
      "Lots": 6368,
      "Mid": 6369,
      "Offic": 6370,
      "kers": 6371,
      "tro": 6372,
      "exchange": 6373,
      "...\"\"": 6374,
      "...\"\"\"": 6375,
      "ishing": 6376,
      "presents": 6377,
      "identify": 6378,
      "finds": 6379,
      "Neither": 6380,
      "ension": 6381,
      "struck": 6382,
      "rison": 6383,
      "conduct": 6384,
      "commercial": 6385,
      "Relax": 6386,
      "95": 6387,
      "ders": 6388,
      "thus": 6389,
      "thick": 6390,
      "sta": 6391,
      "pokemon": 6392,
      "concent": 6393,
      "wanting": 6394,
      "ached": 6395,
      "central": 6396,
      "Neil": 6397,
      "twins": 6398,
      "1989": 6399,
      "levels": 6400,
      "structure": 6401,
      "status": 6402,
      "purchase": 6403,
      "Mass": 6404,
      "repor": 6405,
      "enge": 6406,
      "limit": 6407,
      "union": 6408,
      "ironic": 6409,
      "geo": 6410,
      "pardon": 6411,
      "profit": 6412,
      "entertaining": 6413,
      "Ronald": 6414,
      "Spanish": 6415,
      "Iowa": 6416,
      "Kir": 6417,
      "Low": 6418,
      "Si": 6419,
      "dated": 6420,
      "oon": 6421,
      "sides": 6422,
      "analy": 6423,
      "asks": 6424,
      "roid": 6425,
      "worn": 6426,
      "Leo": 6427,
      "Amazing": 6428,
      "virus": 6429,
      "juice": 6430,
      "Bambi": 6431,
      "reward": 6432,
      "outs": 6433,
      "demon": 6434,
      "ruin": 6435,
      "animated": 6436,
      "addiction": 6437,
      "uniform": 6438,
      "university": 6439,
      "Quite": 6440,
      "ERE": 6441,
      "galax": 6442,
      "susp": 6443,
      "fleet": 6444,
      "sandwich": 6445,
      "Government": 6446,
      "Tonight": 6447,
      "64": 6448,
      "Made": 6449,
      "Yan": 6450,
      "info": 6451,
      "aling": 6452,
      "Head": 6453,
      "tool": 6454,
      "gear": 6455,
      "carried": 6456,
      "cents": 6457,
      "swing": 6458,
      "colorblind": 6459,
      "referred": 6460,
      "drawn": 6461,
      "Commander": 6462,
      "System": 6463,
      "employee": 6464,
      "temperature": 6465,
      "seventy": 6466,
      "barely": 6467,
      "Spock": 6468,
      "Wikileaks": 6469,
      "Each": 6470,
      "Free": 6471,
      "bones": 6472,
      "tolls": 6473,
      "ora": 6474,
      "andria": 6475,
      "accur": 6476,
      "pective": 6477,
      "2016": 6478,
      "invited": 6479,
      "growth": 6480,
      "busted": 6481,
      "titles": 6482,
      "golden": 6483,
      "?\"\"\",\"": 6484,
      "astronaut": 6485,
      "Batman": 6486,
      "Again": 6487,
      "Land": 6488,
      "east": 6489,
      "ancy": 6490,
      "sters": 6491,
      "alcohol": 6492,
      "icate": 6493,
      "tapes": 6494,
      "thrower": 6495,
      "Ready": 6496,
      "cris": 6497,
      "bury": 6498,
      "tember": 6499,
      "Da": 6500,
      "Fall": 6501,
      "Tony": 6502,
      "gust": 6503,
      "gage": 6504,
      "jun": 6505,
      "punch": 6506,
      "thou": 6507,
      "injury": 6508,
      "iters": 6509,
      "convin": 6510,
      "stomach": 6511,
      "joined": 6512,
      "tongue": 6513,
      "Force": 6514,
      "planes": 6515,
      "!!!\",\"": 6516,
      "choices": 6517,
      "adopt": 6518,
      "cheerleaders": 6519,
      "Cat": 6520,
      "Pos": 6521,
      "bun": 6522,
      "dirt": 6523,
      "iner": 6524,
      "orange": 6525,
      "stery": 6526,
      "soap": 6527,
      "aggress": 6528,
      "minor": 6529,
      "chances": 6530,
      "Orleans": 6531,
      "doctors": 6532,
      "reached": 6533,
      "glasses": 6534,
      "arrested": 6535,
      "Hopefully": 6536,
      ",\",\"": 6537,
      "toi": 6538,
      "beard": 6539,
      "adults": 6540,
      "trict": 6541,
      "agues": 6542,
      "plot": 6543,
      "blade": 6544,
      "akers": 6545,
      "Myspace": 6546,
      "pays": 6547,
      "expand": 6548,
      "ification": 6549,
      "floppy": 6550,
      "install": 6551,
      "aliens": 6552,
      "Superman": 6553,
      "budget": 6554,
      "failed": 6555,
      "Babe": 6556,
      "Music": 6557,
      "newspaper": 6558,
      "Amy": 6559,
      "Dutch": 6560,
      "Half": 6561,
      "Master": 6562,
      "zero": 6563,
      "inven": 6564,
      "contr": 6565,
      "civil": 6566,
      "obsess": 6567,
      "2007": 6568,
      "breathe": 6569,
      "platform": 6570,
      "magazine": 6571,
      "Virginia": 6572,
      "Mm": 6573,
      "Viet": 6574,
      "removed": 6575,
      "terror": 6576,
      "lesson": 6577,
      "Monday": 6578,
      "Honest": 6579,
      "Office": 6580,
      "Thrones": 6581,
      "supreme": 6582,
      "Care": 6583,
      "End": 6584,
      "Kid": 6585,
      "Sleep": 6586,
      "fought": 6587,
      "rag": 6588,
      "armed": 6589,
      "lored": 6590,
      "someday": 6591,
      "consum": 6592,
      "boots": 6593,
      "Thurs": 6594,
      "helpful": 6595,
      "lasted": 6596,
      "creation": 6597,
      "Secret": 6598,
      "colate": 6599,
      "refle": 6600,
      "economy": 6601,
      "Brother": 6602,
      "Feder": 6603,
      "150": 6604,
      "?'": 6605,
      "lation": 6606,
      "ole": 6607,
      "Thirty": 6608,
      "Stand": 6609,
      "flower": 6610,
      "Spain": 6611,
      "audio": 6612,
      "Fa": 6613,
      "uk": 6614,
      "veland": 6615,
      "chest": 6616,
      "debt": 6617,
      "poly": 6618,
      "winner": 6619,
      "Colle": 6620,
      "creepy": 6621,
      "Gre": 6622,
      "nu": 6623,
      "sau": 6624,
      "yers": 6625,
      "claimed": 6626,
      "2023": 6627,
      "Benjam": 6628,
      "sucker": 6629,
      "cooking": 6630,
      "Eliza": 6631,
      "Either": 6632,
      "IP": 6633,
      "Mas": 6634,
      "WA": 6635,
      "lover": 6636,
      "believable": 6637,
      "onsense": 6638,
      "charity": 6639,
      "bowling": 6640,
      "midnight": 6641,
      "satell": 6642,
      "admire": 6643,
      "Bible": 6644,
      "Sea": 6645,
      "Side": 6646,
      "mac": 6647,
      "mous": 6648,
      "overall": 6649,
      "grateful": 6650,
      "commonly": 6651,
      "mainly": 6652,
      "Supreme": 6653,
      "profession": 6654,
      "defend": 6655,
      "instruments": 6656,
      "Dire": 6657,
      "Hol": 6658,
      "RA": 6659,
      "tan": 6660,
      "isher": 6661,
      "adult": 6662,
      "\"\"?\"": 6663,
      "bored": 6664,
      "Thought": 6665,
      "intended": 6666,
      "193": 6667,
      "payment": 6668,
      "corn": 6669,
      "Shall": 6670,
      "Baldwin": 6671,
      "Dri": 6672,
      "junk": 6673,
      "sty": 6674,
      "users": 6675,
      "depress": 6676,
      "pleasant": 6677,
      "Web": 6678,
      "umbo": 6679,
      "marks": 6680,
      "18th": 6681,
      "THAT": 6682,
      "Morning": 6683,
      "snake": 6684,
      "Obama": 6685,
      "federal": 6686,
      "significant": 6687,
      "September": 6688,
      "Diego": 6689,
      "29": 6690,
      "Cy": 6691,
      "dit": 6692,
      "dates": 6693,
      "han": 6694,
      "mere": 6695,
      "mally": 6696,
      "twin": 6697,
      "zo": 6698,
      "throat": 6699,
      "oore": 6700,
      "exists": 6701,
      "dia": 6702,
      "awn": 6703,
      "iously": 6704,
      "sett": 6705,
      "attic": 6706,
      "decade": 6707,
      "sources": 6708,
      "separated": 6709,
      "rejected": 6710,
      "Python": 6711,
      "53": 6712,
      "Vin": 6713,
      "Vis": 6714,
      "Wind": 6715,
      "banks": 6716,
      "jan": 6717,
      "tast": 6718,
      "tober": 6719,
      "acted": 6720,
      "believes": 6721,
      "pretend": 6722,
      "nett": 6723,
      "elev": 6724,
      "waited": 6725,
      "2006": 6726,
      "bedroom": 6727,
      "painted": 6728,
      "touched": 6729,
      "July": 6730,
      "communication": 6731,
      "Depart": 6732,
      "Greek": 6733,
      "!?": 6734,
      ".]": 6735,
      "Hand": 6736,
      "MO": 6737,
      "Sad": 6738,
      "ggl": 6739,
      "ko": 6740,
      "vember": 6741,
      "?\",\"\"\"": 6742,
      "peror": 6743,
      "2008": 6744,
      "ladies": 6745,
      "tiny": 6746,
      "evolved": 6747,
      "automatically": 6748,
      "Empire": 6749,
      "false": 6750,
      "reputation": 6751,
      "Gran": 6752,
      "fab": 6753,
      "ras": 6754,
      "orter": 6755,
      "unit": 6756,
      "disks": 6757,
      "listed": 6758,
      "mates": 6759,
      "Alabama": 6760,
      "foods": 6761,
      "sweat": 6762,
      "occup": 6763,
      "Sergeant": 6764,
      "sticks": 6765,
      "connect": 6766,
      "robots": 6767,
      "literally": 6768,
      "franch": 6769,
      "DE": 6770,
      "Pay": 6771,
      "Wild": 6772,
      "cti": 6773,
      "loser": 6774,
      "notes": 6775,
      "maid": 6776,
      "background": 6777,
      "2010": 6778,
      "Seinfeld": 6779,
      "wealthy": 6780,
      "Honor": 6781,
      "circumst": 6782,
      "Benjamin": 6783,
      "Elaine": 6784,
      "Rod": 6785,
      "Zucker": 6786,
      "factors": 6787,
      "ww": 6788,
      "render": 6789,
      "!\"\"": 6790,
      "boot": 6791,
      "astro": 6792,
      "grant": 6793,
      "insist": 6794,
      "eaten": 6795,
      "includes": 6796,
      "Edward": 6797,
      "included": 6798,
      "Child": 6799,
      "intelligent": 6800,
      "Cam": 6801,
      "dough": 6802,
      "inner": 6803,
      "height": 6804,
      "chos": 6805,
      "canad": 6806,
      "amed": 6807,
      "Being": 6808,
      "desper": 6809,
      "Mean": 6810,
      "signs": 6811,
      "depending": 6812,
      "Gotta": 6813,
      "competitive": 6814,
      "existence": 6815,
      "provides": 6816,
      "delivered": 6817,
      "Sidney": 6818,
      "retirement": 6819,
      "accomplish": 6820,
      "Yanke": 6821,
      "Drake": 6822,
      "Junior": 6823,
      "Mitche": 6824,
      "inac": 6825,
      "aspect": 6826,
      "butt": 6827,
      "istics": 6828,
      "berry": 6829,
      "mighty": 6830,
      "desire": 6831,
      "Clark": 6832,
      "Western": 6833,
      "gravity": 6834,
      "BM": 6835,
      "Bus": 6836,
      "Cu": 6837,
      "brilliant": 6838,
      "san": 6839,
      "onna": 6840,
      "lips": 6841,
      "amin": 6842,
      "comment": 6843,
      "ava": 6844,
      "libraries": 6845,
      "directed": 6846,
      "Britain": 6847,
      "County": 6848,
      "Asia": 6849,
      "Radio": 6850,
      "integr": 6851,
      "inspired": 6852,
      "Hild": 6853,
      "Kev": 6854,
      "Kelly": 6855,
      "Lan": 6856,
      "Top": 6857,
      "stab": 6858,
      "lig": 6859,
      "eak": 6860,
      "spider": 6861,
      "bleed": 6862,
      "creature": 6863,
      "trend": 6864,
      "odds": 6865,
      "equal": 6866,
      "Tesla": 6867,
      "Mitchell": 6868,
      "CD": 6869,
      "Ive": 6870,
      "fers": 6871,
      "revenue": 6872,
      "meters": 6873,
      "hates": 6874,
      "grat": 6875,
      "hunt": 6876,
      "hotter": 6877,
      "straw": 6878,
      "practically": 6879,
      "Detective": 6880,
      "slept": 6881,
      "jerk": 6882,
      "tempor": 6883,
      "Kong": 6884,
      "Naw": 6885,
      "rings": 6886,
      "ication": 6887,
      "excl": 6888,
      "awake": 6889,
      "headed": 6890,
      "crush": 6891,
      "bloody": 6892,
      "Baron": 6893,
      "generation": 6894,
      "delivery": 6895,
      "Finland": 6896,
      "Terry": 6897,
      "route": 6898,
      "elephant": 6899,
      "arrived": 6900,
      "Kat": 6901,
      "Mt": 6902,
      "shown": 6903,
      "November": 6904,
      "aws": 6905,
      "disappeared": 6906,
      "rug": 6907,
      "Sean": 6908,
      "Couldn": 6909,
      "Hmmm": 6910,
      "prepare": 6911,
      "Basketball": 6912,
      "citizen": 6913,
      "Sarah": 6914,
      "strategy": 6915,
      "Elizabeth": 6916,
      "Cre": 6917,
      "DV": 6918,
      "latin": 6919,
      "vere": 6920,
      "liber": 6921,
      "ruined": 6922,
      "flash": 6923,
      "Anybody": 6924,
      "twist": 6925,
      "combination": 6926,
      "bowlers": 6927,
      "Fant": 6928,
      "ILL": 6929,
      "jet": 6930,
      "osa": 6931,
      "heading": 6932,
      "cutting": 6933,
      "sells": 6934,
      "confidence": 6935,
      "OUT": 6936,
      "suspic": 6937,
      "Hamm": 6938,
      "Cleveland": 6939,
      "October": 6940,
      "Lem": 6941,
      "Phi": 6942,
      "Spr": 6943,
      "fum": 6944,
      "tering": 6945,
      "ints": 6946,
      "thrown": 6947,
      "disco": 6948,
      "nerve": 6949,
      "postage": 6950,
      "brave": 6951,
      "Victor": 6952,
      "Welcome": 6953,
      "College": 6954,
      "Jay": 6955,
      "Kane": 6956,
      "Mind": 6957,
      "Mont": 6958,
      "cure": 6959,
      "tu": 6960,
      "asha": 6961,
      "allas": 6962,
      "aco": 6963,
      "tered": 6964,
      "tractive": 6965,
      "wouldnt": 6966,
      "naked": 6967,
      "surger": 6968,
      "cycle": 6969,
      "chocolate": 6970,
      "decisions": 6971,
      "Department": 6972,
      "canadian": 6973,
      "Ret": 6974,
      "Year": 6975,
      "buck": 6976,
      "iation": 6977,
      "nasty": 6978,
      "argue": 6979,
      "rib": 6980,
      "opera": 6981,
      "secure": 6982,
      "Kr": 6983,
      "Mountain": 6984,
      "Pack": 6985,
      "hmm": 6986,
      "jar": 6987,
      "mam": 6988,
      "pill": 6989,
      "stood": 6990,
      "retired": 6991,
      "stake": 6992,
      "alle": 6993,
      "abbar": 6994,
      "unfortunately": 6995,
      "---": 6996,
      "anyways": 6997,
      "iled": 6998,
      "umps": 6999,
      "offense": 7000,
      "reduce": 7001,
      "clicking": 7002,
      "1930": 7003,
      "courses": 7004,
      "violence": 7005,
      "cigarettes": 7006,
      "mobile": 7007,
      "MLB": 7008,
      "remains": 7009,
      "BO": 7010,
      "Bieber": 7011,
      "Eh": 7012,
      "Fro": 7013,
      "IA": 7014,
      "Pho": 7015,
      "Sk": 7016,
      "pit": 7017,
      "rit": 7018,
      "ygen": 7019,
      "bee": 7020,
      "nels": 7021,
      "uss": 7022,
      "plate": 7023,
      "goodness": 7024,
      "backs": 7025,
      "downtown": 7026,
      "Stone": 7027,
      "carefully": 7028,
      "horizon": 7029,
      "popularity": 7030,
      "Starship": 7031,
      "personality": 7032,
      "majority": 7033,
      "Buff": 7034,
      "mountains": 7035,
      "WHAT": 7036,
      "village": 7037,
      "frightened": 7038,
      "Pull": 7039,
      "Sl": 7040,
      "Squ": 7041,
      "gian": 7042,
      "someplace": 7043,
      "comma": 7044,
      "cials": 7045,
      "stolen": 7046,
      "Unfortunately": 7047,
      "creatures": 7048,
      "soldier": 7049,
      "Finally": 7050,
      "senate": 7051,
      "belongs": 7052,
      "emotional": 7053,
      "Wayne": 7054,
      "tournament": 7055,
      "Row": 7056,
      "witch": 7057,
      "kel": 7058,
      "urt": 7059,
      "Andrew": 7060,
      "whoever": 7061,
      "sale": 7062,
      "woke": 7063,
      "Cole": 7064,
      "Chick": 7065,
      "scr": 7066,
      "visible": 7067,
      "elect": 7068,
      "hurts": 7069,
      "treated": 7070,
      "Austin": 7071,
      "inventor": 7072,
      "Thursday": 7073,
      ">.\"": 7074,
      "Pin": 7075,
      "VER": 7076,
      "Wade": 7077,
      "faces": 7078,
      "reve": 7079,
      "jokes": 7080,
      "hibit": 7081,
      "studied": 7082,
      "worthy": 7083,
      "grave": 7084,
      "terrific": 7085,
      "Conne": 7086,
      "climate": 7087,
      "storage": 7088,
      "Fort": 7089,
      "Sue": 7090,
      "Science": 7091,
      "UP": 7092,
      "fare": 7093,
      "gig": 7094,
      "returned": 7095,
      "\"\"...": 7096,
      "ctic": 7097,
      "phia": 7098,
      "discus": 7099,
      "Marsh": 7100,
      "charged": 7101,
      "engage": 7102,
      "effort": 7103,
      "throwing": 7104,
      ".'\"": 7105,
      "struct": 7106,
      "failure": 7107,
      "McDonalds": 7108,
      "technique": 7109,
      "Rachel": 7110,
      "Tot": 7111,
      "analysis": 7112,
      "toy": 7113,
      "icop": 7114,
      "gos": 7115,
      "ulate": 7116,
      "clar": 7117,
      "memories": 7118,
      "apps": 7119,
      "dramatic": 7120,
      "response": 7121,
      "features": 7122,
      "challenge": 7123,
      "investigation": 7124,
      "Hurry": 7125,
      "revolution": 7126,
      "Fair": 7127,
      "bay": 7128,
      "fest": 7129,
      "attorney": 7130,
      "onents": 7131,
      "ales": 7132,
      "rol": 7133,
      "\"\".\",\"": 7134,
      "dip": 7135,
      "addicted": 7136,
      "Carlin": 7137,
      "Claren": 7138,
      "Spot": 7139,
      "detect": 7140,
      "fifth": 7141,
      "eighteen": 7142,
      "constant": 7143,
      "Academy": 7144,
      "routine": 7145,
      "warehouse": 7146,
      "Champion": 7147,
      "Hang": 7148,
      "PN": 7149,
      "Vice": 7150,
      "rice": 7151,
      "swell": 7152,
      "tries": 7153,
      "ara": 7154,
      ".....": 7155,
      "keting": 7156,
      "ifically": 7157,
      "rappers": 7158,
      "ummy": 7159,
      "stores": 7160,
      "hud": 7161,
      "ully": 7162,
      "flav": 7163,
      "gene": 7164,
      "fancy": 7165,
      "Walt": 7166,
      "rocks": 7167,
      "slowly": 7168,
      "fatigu": 7169,
      "journal": 7170,
      "SA": 7171,
      "wars": 7172,
      "anx": 7173,
      "tos": 7174,
      "enna": 7175,
      "enforce": 7176,
      "lee": 7177,
      "maps": 7178,
      "homes": 7179,
      "whopper": 7180,
      "Thor": 7181,
      "monitor": 7182,
      "2017": 7183,
      "Dece": 7184,
      "Move": 7185,
      "filed": 7186,
      "supply": 7187,
      "alien": 7188,
      "accepted": 7189,
      "communicate": 7190,
      "evolution": 7191,
      "screwed": 7192,
      "predict": 7193,
      "citizens": 7194,
      "'?": 7195,
      "Dallas": 7196,
      "Gard": 7197,
      "Kent": 7198,
      "Muse": 7199,
      "cooper": 7200,
      "gic": 7201,
      "hitting": 7202,
      "arran": 7203,
      "beans": 7204,
      "heres": 7205,
      "assign": 7206,
      "tryin": 7207,
      "disgust": 7208,
      "Alaska": 7209,
      "shake": 7210,
      "controver": 7211,
      "cleaning": 7212,
      "ONE": 7213,
      "technically": 7214,
      "Sonny": 7215,
      "Company": 7216,
      "Enterprise": 7217,
      "injured": 7218,
      "Officer": 7219,
      "aggressive": 7220,
      "Easter": 7221,
      "Lisa": 7222,
      "Moore": 7223,
      "Oz": 7224,
      "Ren": 7225,
      "bicy": 7226,
      "roles": 7227,
      "rip": 7228,
      "badly": 7229,
      "fourth": 7230,
      "188": 7231,
      "Edgar": 7232,
      "Prince": 7233,
      "distribut": 7234,
      "222": 7235,
      ".'\",\"": 7236,
      "alternative": 7237,
      "Clarence": 7238,
      "Cath": 7239,
      "DNA": 7240,
      "Pen": 7241,
      "Pick": 7242,
      "UT": 7243,
      "nest": 7244,
      "hats": 7245,
      "illa": 7246,
      "iger": 7247,
      "ission": 7248,
      "Brook": 7249,
      "Norway": 7250,
      "Stewart": 7251,
      "naturally": 7252,
      "Benz": 7253,
      "stronger": 7254,
      "appearance": 7255,
      "Alexandria": 7256,
      "Republicans": 7257,
      "cigarette": 7258,
      "religious": 7259,
      "jellyfish": 7260,
      "ministr": 7261,
      "secrets": 7262,
      "astronauts": 7263,
      "1000": 7264,
      "Lion": 7265,
      "NES": 7266,
      "Oper": 7267,
      "Rem": 7268,
      "Tues": 7269,
      "lished": 7270,
      "thrill": 7271,
      "remove": 7272,
      "forces": 7273,
      "concl": 7274,
      "mann": 7275,
      "ureau": 7276,
      "fund": 7277,
      "cert": 7278,
      "cricket": 7279,
      "2002": 7280,
      "signals": 7281,
      "copies": 7282,
      "dinosa": 7283,
      "physic": 7284,
      "walls": 7285,
      "electron": 7286,
      "stealing": 7287,
      "republicans": 7288,
      "Federal": 7289,
      "critic": 7290,
      "schedul": 7291,
      "transportation": 7292,
      "toilet": 7293,
      "Kevin": 7294,
      "Bang": 7295,
      "DR": 7296,
      "Dear": 7297,
      "Hou": 7298,
      "Sally": 7299,
      "bilities": 7300,
      "ived": 7301,
      "ji": 7302,
      "las": 7303,
      "ping": 7304,
      "phas": 7305,
      "wreck": 7306,
      "attractive": 7307,
      "assum": 7308,
      "alarm": 7309,
      "resist": 7310,
      "igning": 7311,
      "discover": 7312,
      "discontinued": 7313,
      "menu": 7314,
      "closely": 7315,
      "pursue": 7316,
      "aired": 7317,
      "medium": 7318,
      "Freddie": 7319,
      "DVD": 7320,
      "Kal": 7321,
      "Later": 7322,
      "cs": 7323,
      "tub": 7324,
      "ona": 7325,
      "itut": 7326,
      "heh": 7327,
      "rome": 7328,
      "ups": 7329,
      "explan": 7330,
      "comedi": 7331,
      "2019": 7332,
      "stray": 7333,
      "flies": 7334,
      "refuse": 7335,
      "Ramones": 7336,
      "candidates": 7337,
      "models": 7338,
      "journey": 7339,
      "stroke": 7340,
      "franchise": 7341,
      ")\"": 7342,
      ").\"": 7343,
      ">.\",\"": 7344,
      "Ku": 7345,
      "bang": 7346,
      "liver": 7347,
      "guards": 7348,
      "Getting": 7349,
      "Jackie": 7350,
      "1993": 7351,
      "potato": 7352,
      "kicked": 7353,
      "motiv": 7354,
      "described": 7355,
      "neighb": 7356,
      "Matt": 7357,
      "dare": 7358,
      "eline": 7359,
      "Dog": 7360,
      "intend": 7361,
      "compar": 7362,
      "commut": 7363,
      "motherfucker": 7364,
      "Follow": 7365,
      "Simpson": 7366,
      "Service": 7367,
      "refused": 7368,
      "Libr": 7369,
      "taxes": 7370,
      "Christian": 7371,
      "begins": 7372,
      "remote": 7373,
      "Mackinac": 7374,
      "Hildy": 7375,
      "Eag": 7376,
      "LI": 7377,
      "Sel": 7378,
      "iac": 7379,
      "dolph": 7380,
      "ental": 7381,
      "termin": 7382,
      "estyle": 7383,
      "somewhat": 7384,
      "perman": 7385,
      "affe": 7386,
      "charges": 7387,
      "fairly": 7388,
      "invention": 7389,
      "secretary": 7390,
      "ESPN": 7391,
      "theatre": 7392,
      "oxygen": 7393,
      "fatigues": 7394,
      "Han": 7395,
      "Mul": 7396,
      "efficient": 7397,
      "reaction": 7398,
      "aside": 7399,
      "tips": 7400,
      "backwards": 7401,
      "Howard": 7402,
      "basis": 7403,
      "breaks": 7404,
      "ggle": 7405,
      "invite": 7406,
      "reasonable": 7407,
      "McC": 7408,
      "widely": 7409,
      "windows": 7410,
      "repeat": 7411,
      "protein": 7412,
      "phrase": 7413,
      "Apo": 7414,
      "NN": 7415,
      "Nine": 7416,
      "Swed": 7417,
      "Vio": 7418,
      "Wy": 7419,
      "email": 7420,
      "guts": 7421,
      "eter": 7422,
      "ustain": 7423,
      "igno": 7424,
      "downstairs": 7425,
      "parks": 7426,
      "Going": 7427,
      "woods": 7428,
      "Korean": 7429,
      "introduce": 7430,
      "critical": 7431,
      "Oswald": 7432,
      "Lucas": 7433,
      "stretch": 7434,
      "Alec": 7435,
      "Eiffel": 7436,
      "OO": 7437,
      "fits": 7438,
      "rates": 7439,
      "yards": 7440,
      "review": 7441,
      "escap": 7442,
      "rope": 7443,
      "abor": 7444,
      "neut": 7445,
      "estate": 7446,
      "helicop": 7447,
      "20th": 7448,
      "Model": 7449,
      "checking": 7450,
      "examples": 7451,
      "privacy": 7452,
      "NOW": 7453,
      "scientific": 7454,
      "sharp": 7455,
      "prints": 7456,
      "assistant": 7457,
      "corporate": 7458,
      "\"[": 7459,
      "Bust": 7460,
      "rage": 7461,
      "betray": 7462,
      "chi": 7463,
      "ader": 7464,
      "2021": 7465,
      "trigger": 7466,
      "Perfect": 7467,
      "Enjoy": 7468,
      "circumstances": 7469,
      "34": 7470,
      "BE": 7471,
      "Fish": 7472,
      "Pear": 7473,
      "Send": 7474,
      "vamp": 7475,
      "yea": 7476,
      "Theory": 7477,
      "proced": 7478,
      "intim": 7479,
      "studies": 7480,
      "pathetic": 7481,
      "genet": 7482,
      "frust": 7483,
      "lawyers": 7484,
      "engaged": 7485,
      "Jesse": 7486,
      "Phill": 7487,
      "Alexander": 7488,
      "reminds": 7489,
      "dominant": 7490,
      "pussy": 7491,
      "stitute": 7492,
      "December": 7493,
      "Jacqu": 7494,
      "WE": 7495,
      "lting": 7496,
      "enger": 7497,
      "iders": 7498,
      "extr": 7499,
      "whenever": 7500,
      "remembered": 7501,
      "Anyone": 7502,
      "normally": 7503,
      "International": 7504,
      "sucks": 7505,
      "bulleted": 7506,
      "Royal": 7507,
      "Heaven": 7508,
      "construction": 7509,
      "explorer": 7510,
      "Pacific": 7511,
      "KE": 7512,
      "Nin": 7513,
      "PM": 7514,
      "nun": 7515,
      "zone": 7516,
      "adel": 7517,
      "coinc": 7518,
      "agne": 7519,
      "thinkin": 7520,
      "consequ": 7521,
      "whore": 7522,
      "spit": 7523,
      "assass": 7524,
      "memor": 7525,
      "kills": 7526,
      "subway": 7527,
      "messed": 7528,
      "transl": 7529,
      "Comput": 7530,
      "dedicated": 7531,
      "Stanley": 7532,
      "labor": 7533,
      "Jessica": 7534,
      "PH": 7535,
      "cular": 7536,
      "pills": 7537,
      "slo": 7538,
      "zoo": 7539,
      "rocket": 7540,
      "ams": 7541,
      "exha": 7542,
      "Though": 7543,
      "Alice": 7544,
      "visual": 7545,
      "Special": 7546,
      "zona": 7547,
      "hammer": 7548,
      "attacked": 7549,
      "silver": 7550,
      "sensitive": 7551,
      "screaming": 7552,
      "Arizona": 7553,
      "ashamed": 7554,
      "Kung": 7555,
      "Naz": 7556,
      "Power": 7557,
      "Wiz": 7558,
      "gif": 7559,
      "lit": 7560,
      "relie": 7561,
      "inger": 7562,
      "aude": 7563,
      "ultim": 7564,
      "bless": 7565,
      "surely": 7566,
      "2015": 7567,
      "Union": 7568,
      "captain": 7569,
      "confident": 7570,
      "micro": 7571,
      "frozen": 7572,
      "manufactur": 7573,
      "Nic": 7574,
      "Rap": 7575,
      "Smo": 7576,
      "hal": 7577,
      "yup": 7578,
      "isnt": 7579,
      "amond": 7580,
      "pee": 7581,
      "aches": 7582,
      "poses": 7583,
      "matches": 7584,
      "Hahaha": 7585,
      "voiced": 7586,
      "produces": 7587,
      "chester": 7588,
      "Const": 7589,
      "Samuel": 7590,
      "threatened": 7591,
      "Congrat": 7592,
      "subscribers": 7593,
      "shadow": 7594,
      "therapy": 7595,
      "324": 7596,
      "Cow": 7597,
      "Hm": 7598,
      "Mach": 7599,
      "Set": 7600,
      "Sweet": 7601,
      "Tam": 7602,
      "kicking": 7603,
      "tab": 7604,
      "vs": 7605,
      "wasting": 7606,
      "usage": 7607,
      "poll": 7608,
      "cker": 7609,
      "tellin": 7610,
      "brush": 7611,
      "genes": 7612,
      "Abdul": 7613,
      "sentence": 7614,
      "jective": 7615,
      "electronic": 7616,
      "motion": 7617,
      "Emmy": 7618,
      "Much": 7619,
      "established": 7620,
      "guarantee": 7621,
      "cinemato": 7622,
      "Hud": 7623,
      "Oscar": 7624,
      "aid": 7625,
      "bin": 7626,
      "wes": 7627,
      "bolt": 7628,
      "shel": 7629,
      "blown": 7630,
      "diamond": 7631,
      "scoring": 7632,
      "lessons": 7633,
      "formation": 7634,
      "Spider": 7635,
      "cells": 7636,
      "completed": 7637,
      "Craig": 7638,
      "instructions": 7639,
      "positivity": 7640,
      "accurate": 7641,
      "Cru": 7642,
      "toms": 7643,
      "beef": 7644,
      "idency": 7645,
      "lder": 7646,
      "unfair": 7647,
      "unfortunate": 7648,
      "!\",\"...": 7649,
      "dynam": 7650,
      "presence": 7651,
      "cury": 7652,
      "Micro": 7653,
      "eighty": 7654,
      "teaching": 7655,
      "performing": 7656,
      "knees": 7657,
      "Consider": 7658,
      "chosen": 7659,
      "exhaust": 7660,
      "Congratulations": 7661,
      "2nd": 7662,
      "Glo": 7663,
      "Nep": 7664,
      "Navy": 7665,
      "Tol": 7666,
      "lac": 7667,
      "pm": 7668,
      "swer": 7669,
      ".\",\"<": 7670,
      "goats": 7671,
      "defe": 7672,
      "ameter": 7673,
      "manner": 7674,
      "phen": 7675,
      "emies": 7676,
      "matic": 7677,
      "Need": 7678,
      "Margo": 7679,
      "ctors": 7680,
      "Starr": 7681,
      "recommended": 7682,
      "Beaut": 7683,
      "breathing": 7684,
      "foxhole": 7685,
      "Olympic": 7686,
      "dd": 7687,
      "rus": 7688,
      "zation": 7689,
      "aming": 7690,
      "trou": 7691,
      "oughta": 7692,
      "happiness": 7693,
      "Beth": 7694,
      "Moz": 7695,
      "falls": 7696,
      "bikes": 7697,
      "authority": 7698,
      "silent": 7699,
      "narrated": 7700,
      "latest": 7701,
      "DB": 7702,
      "Hay": 7703,
      "bail": 7704,
      "nan": 7705,
      "tore": 7706,
      "tories": 7707,
      "abandon": 7708,
      "myster": 7709,
      "conference": 7710,
      "raw": 7711,
      "aps": 7712,
      "greater": 7713,
      "elements": 7714,
      "counting": 7715,
      "ounced": 7716,
      "Mommy": 7717,
      "impression": 7718,
      "foolish": 7719,
      "studying": 7720,
      "clubs": 7721,
      "Panther": 7722,
      "liquid": 7723,
      "Linda": 7724,
      "Incredibles": 7725,
      "Kirk": 7726,
      ">...": 7727,
      "Sn": 7728,
      "Sou": 7729,
      "Sug": 7730,
      "forth": 7731,
      "abstr": 7732,
      "abitch": 7733,
      "shine": 7734,
      "depressing": 7735,
      "conver": 7736,
      "ques": 7737,
      "Soccer": 7738,
      "Jewish": 7739,
      "legis": 7740,
      "Post": 7741,
      "atherine": 7742,
      "offering": 7743,
      "typical": 7744,
      "Jersey": 7745,
      "domestic": 7746,
      "Romeo": 7747,
      "Venus": 7748,
      "satisfied": 7749,
      "executive": 7750,
      "independent": 7751,
      "Tuesday": 7752,
      "52": 7753,
      "HT": 7754,
      "Room": 7755,
      "mouse": 7756,
      "pound": 7757,
      "vant": 7758,
      "tomato": 7759,
      "heck": 7760,
      "charts": 7761,
      "ellow": 7762,
      "ilton": 7763,
      "foc": 7764,
      "asts": 7765,
      "writers": 7766,
      "marvel": 7767,
      "sons": 7768,
      "shore": 7769,
      "hopefully": 7770,
      "allowing": 7771,
      "danced": 7772,
      "suggested": 7773,
      "Feel": 7774,
      "Country": 7775,
      "Olympics": 7776,
      "pipe": 7777,
      "Princess": 7778,
      "Eric": 7779,
      "Hanks": 7780,
      "MVP": 7781,
      "Ou": 7782,
      "Tit": 7783,
      "Yet": 7784,
      "ja": 7785,
      "oven": 7786,
      "scan": 7787,
      "xx": 7788,
      "chip": 7789,
      "pod": 7790,
      "tah": 7791,
      "backup": 7792,
      "sayin": 7793,
      "minister": 7794,
      "partners": 7795,
      "akistan": 7796,
      "Albert": 7797,
      "Security": 7798,
      "lawn": 7799,
      "123": 7800,
      "Simone": 7801,
      "INT": 7802,
      "Russians": 7803,
      "achievement": 7804,
      "sneak": 7805,
      "medicine": 7806,
      "holiday": 7807,
      "minimum": 7808,
      "satellite": 7809,
      "Snow": 7810,
      "wave": 7811,
      "enemies": 7812,
      "secut": 7813,
      "entially": 7814,
      "mystery": 7815,
      "trace": 7816,
      "deck": 7817,
      "rescue": 7818,
      "redu": 7819,
      "diverse": 7820,
      "gameplay": 7821,
      "sounded": 7822,
      "musician": 7823,
      "warning": 7824,
      "counts": 7825,
      "lawsuit": 7826,
      "grapher": 7827,
      "organiz": 7828,
      "mirror": 7829,
      "kien": 7830,
      "Bern": 7831,
      "electricity": 7832,
      "management": 7833,
      "argument": 7834,
      "branches": 7835,
      "AC": 7836,
      "Ni": 7837,
      "UR": 7838,
      "sive": 7839,
      "soup": 7840,
      "remake": 7841,
      "lla": 7842,
      "lia": 7843,
      "pean": 7844,
      "ifer": 7845,
      "ils": 7846,
      "venge": 7847,
      "blades": 7848,
      "stops": 7849,
      "intention": 7850,
      "Isra": 7851,
      "lists": 7852,
      "cared": 7853,
      "survi": 7854,
      "burns": 7855,
      "Norwe": 7856,
      "Poe": 7857,
      "goddam": 7858,
      "deny": 7859,
      "ismith": 7860,
      "Fucking": 7861,
      "batter": 7862,
      "claims": 7863,
      "slip": 7864,
      "Otherwise": 7865,
      "suffering": 7866,
      "Philadel": 7867,
      "embarrassing": 7868,
      "Claire": 7869,
      "phabet": 7870,
      "galaxy": 7871,
      "sauce": 7872,
      "huddle": 7873,
      "Philadelphia": 7874,
      "Hind": 7875,
      "Mi": 7876,
      "thief": 7877,
      "ensure": 7878,
      "haw": 7879,
      "oooo": 7880,
      "feature": 7881,
      "carjack": 7882,
      "diameter": 7883,
      "mini": 7884,
      "kidna": 7885,
      "Presidents": 7886,
      "bottles": 7887,
      "murderer": 7888,
      "tricks": 7889,
      "gaming": 7890,
      "victims": 7891,
      "explanation": 7892,
      "Beautiful": 7893,
      "Camp": 7894,
      "Egy": 7895,
      "GET": 7896,
      "Number": 7897,
      "kov": 7898,
      "prob": 7899,
      "...\",": 7900,
      "bruary": 7901,
      "mony": 7902,
      "smooth": 7903,
      "lightning": 7904,
      "Answer": 7905,
      "colon": 7906,
      "annual": 7907,
      "Build": 7908,
      "insult": 7909,
      "association": 7910,
      "AD": 7911,
      "Aunt": 7912,
      "Bank": 7913,
      "Greg": 7914,
      "Ira": 7915,
      "Valley": 7916,
      "pour": 7917,
      "sink": 7918,
      "wings": 7919,
      "thir": 7920,
      "theme": 7921,
      "replaced": 7922,
      "ingred": 7923,
      "bez": 7924,
      "Weird": 7925,
      "prices": 7926,
      "preser": 7927,
      "aval": 7928,
      "inson": 7929,
      "chem": 7930,
      "observ": 7931,
      "imagination": 7932,
      "officers": 7933,
      "1960": 7934,
      "contracts": 7935,
      "Commun": 7936,
      "determine": 7937,
      "aboard": 7938,
      "knocked": 7939,
      "stranger": 7940,
      "Library": 7941,
      "Baker": 7942,
      "Clar": 7943,
      "Tw": 7944,
      "cens": 7945,
      "french": 7946,
      "gut": 7947,
      "ii": 7948,
      "vig": 7949,
      "oured": 7950,
      "ered": 7951,
      "youre": 7952,
      "aron": 7953,
      "sher": 7954,
      "!\"\"\"": 7955,
      "acks": 7956,
      "conce": 7957,
      "carbon": 7958,
      "angel": 7959,
      "martial": 7960,
      "marketing": 7961,
      "oles": 7962,
      "surge": 7963,
      "Boss": 7964,
      "subst": 7965,
      "chestra": 7966,
      "battery": 7967,
      "wallet": 7968,
      "atinum": 7969,
      "Nicky": 7970,
      "recognized": 7971,
      "cracker": 7972,
      "psychiat": 7973,
      "Ricky": 7974,
      "Graham": 7975,
      "Swift": 7976,
      "Pearl": 7977,
      ">?": 7978,
      "Gun": 7979,
      "Gang": 7980,
      "Iron": 7981,
      "Us": 7982,
      "Wed": 7983,
      "Wend": 7984,
      "ibly": 7985,
      "mask": 7986,
      "riot": 7987,
      "resort": 7988,
      "asses": 7989,
      "couch": 7990,
      "smith": 7991,
      "primar": 7992,
      "Arch": 7993,
      "picks": 7994,
      "sixteen": 7995,
      "Elvis": 7996,
      "properly": 7997,
      "massive": 7998,
      "historical": 7999,
      "scratch": 8000,
      "western": 8001,
      "Count": 8002,
      "Psy": 8003,
      "batt": 8004,
      "japan": 8005,
      "oned": 8006,
      "seats": 8007,
      "unlike": 8008,
      "unce": 8009,
      "ousy": 8010,
      "apply": 8011,
      "element": 8012,
      "Associ": 8013,
      "Mayfield": 8014,
      "america": 8015,
      "Minister": 8016,
      "cowboy": 8017,
      "February": 8018,
      "restaurants": 8019,
      "cruel": 8020,
      "January": 8021,
      "links": 8022,
      "politicians": 8023,
      "Vietnam": 8024,
      "Iraq": 8025,
      "Ali": 8026,
      "Close": 8027,
      "Pur": 8028,
      "Pakistan": 8029,
      "WOw": 8030,
      "pow": 8031,
      "ths": 8032,
      "onde": 8033,
      "iffer": 8034,
      "debut": 8035,
      "blast": 8036,
      "netic": 8037,
      "strings": 8038,
      "prize": 8039,
      "situ": 8040,
      "Kingdom": 8041,
      "touchdown": 8042,
      "operating": 8043,
      "babe": 8044,
      "delic": 8045,
      "kickball": 8046,
      "Emperor": 8047,
      "Matthe": 8048,
      "lungs": 8049,
      "Alf": 8050,
      "BS": 8051,
      "Jun": 8052,
      "Jabbar": 8053,
      "encing": 8054,
      "hem": 8055,
      "belt": 8056,
      "quote": 8057,
      "Sovi": 8058,
      "serving": 8059,
      "Looking": 8060,
      "collar": 8061,
      "checks": 8062,
      "operations": 8063,
      "practical": 8064,
      "Berlin": 8065,
      "Awards": 8066,
      "racket": 8067,
      "folk": 8068,
      "Fifty": 8069,
      "Hybrid": 8070,
      "Spotify": 8071,
      "Cou": 8072,
      "Sail": 8073,
      "heal": 8074,
      "pleased": 8075,
      "posing": 8076,
      "optim": 8077,
      "ignor": 8078,
      "steel": 8079,
      "passes": 8080,
      "104": 8081,
      "testify": 8082,
      "NOT": 8083,
      "violent": 8084,
      "explore": 8085,
      "accommo": 8086,
      "cameras": 8087,
      "Center": 8088,
      "Hustle": 8089,
      "Having": 8090,
      "Promise": 8091,
      "Ti": 8092,
      "Vo": 8093,
      "combat": 8094,
      "ideal": 8095,
      "parking": 8096,
      "Anth": 8097,
      "publicity": 8098,
      "patch": 8099,
      "Price": 8100,
      "constantly": 8101,
      "anni": 8102,
      "package": 8103,
      "Mostly": 8104,
      "miracle": 8105,
      "individuals": 8106,
      "playoffs": 8107,
      "Mozart": 8108,
      "31": 8109,
      "74": 8110,
      "Bond": 8111,
      "Cri": 8112,
      "Found": 8113,
      "Lucky": 8114,
      "Rain": 8115,
      "bour": 8116,
      "inse": 8117,
      "atar": 8118,
      "assure": 8119,
      "acity": 8120,
      "loving": 8121,
      "elle": 8122,
      "closing": 8123,
      "charming": 8124,
      "basement": 8125,
      "mistakes": 8126,
      "Seriously": 8127,
      "suggestions": 8128,
      "requirements": 8129,
      "Eastwood": 8130,
      "frank": 8131,
      "convince": 8132,
      "Duke": 8133,
      "Personally": 8134,
      "reporter": 8135,
      "convinced": 8136,
      "Kath": 8137,
      "Laur": 8138,
      "Save": 8139,
      "Win": 8140,
      "sque": 8141,
      "tone": 8142,
      "vast": 8143,
      "wan": 8144,
      "wander": 8145,
      "toss": 8146,
      "acid": 8147,
      "boats": 8148,
      "grace": 8149,
      "tainment": 8150,
      "flesh": 8151,
      "headquarters": 8152,
      "figures": 8153,
      "originated": 8154,
      "casino": 8155,
      "Enough": 8156,
      "deserves": 8157,
      "Madame": 8158,
      "religion": 8159,
      "methods": 8160,
      "estimated": 8161,
      "Jabez": 8162,
      "primarily": 8163,
      "Kell": 8164,
      "Mis": 8165,
      "Ski": 8166,
      "Wha": 8167,
      "unknown": 8168,
      "ookie": 8169,
      "owners": 8170,
      "reads": 8171,
      "reader": 8172,
      "prem": 8173,
      "destru": 8174,
      "differently": 8175,
      "rental": 8176,
      "Holl": 8177,
      "producers": 8178,
      "queen": 8179,
      "tracks": 8180,
      "engineering": 8181,
      "Naismith": 8182,
      "launched": 8183,
      "annoying": 8184,
      "stanbul": 8185,
      "desperate": 8186,
      "horizontal": 8187,
      "Dur": 8188,
      "Gall": 8189,
      "Kids": 8190,
      "LD": 8191,
      "Live": 8192,
      "Sort": 8193,
      "dess": 8194,
      "mort": 8195,
      "retail": 8196,
      "leagues": 8197,
      "coin": 8198,
      "confl": 8199,
      "quant": 8200,
      "preh": 8201,
      "worker": 8202,
      "Color": 8203,
      "rane": 8204,
      "worlds": 8205,
      "highways": 8206,
      "curse": 8207,
      "osity": 8208,
      "numer": 8209,
      "skull": 8210,
      "shuttle": 8211,
      "graphic": 8212,
      "continu": 8213,
      "cabin": 8214,
      "apore": 8215,
      "billions": 8216,
      "Murphy": 8217,
      "technical": 8218,
      "taller": 8219,
      "Darling": 8220,
      "Adams": 8221,
      "Cubs": 8222,
      "grocer": 8223,
      "WWII": 8224,
      "wrestling": 8225,
      "Irish": 8226,
      "amphitheater": 8227,
      "arranged": 8228,
      "3g": 8229,
      "Croat": 8230,
      "FC": 8231,
      "Mitch": 8232,
      "Work": 8233,
      "rop": 8234,
      "rix": 8235,
      "pros": 8236,
      "offensive": 8237,
      "dios": 8238,
      "disliked": 8239,
      "Clay": 8240,
      "relatives": 8241,
      "trem": 8242,
      "treatment": 8243,
      "victory": 8244,
      "zerland": 8245,
      "Democrats": 8246,
      "Shoot": 8247,
      "Museum": 8248,
      "250": 8249,
      "Pass": 8250,
      "bible": 8251,
      "sustain": 8252,
      "youth": 8253,
      "ofabitch": 8254,
      "bean": 8255,
      "worm": 8256,
      "holy": 8257,
      "plement": 8258,
      "addin": 8259,
      "Boys": 8260,
      "succeed": 8261,
      "virgin": 8262,
      "treasure": 8263,
      "rolls": 8264,
      "materials": 8265,
      "occurred": 8266,
      "rabbit": 8267,
      "Hotel": 8268,
      "Girl": 8269,
      "IR": 8270,
      "Lenny": 8271,
      "fig": 8272,
      "gus": 8273,
      "otch": 8274,
      "lion": 8275,
      "advis": 8276,
      "adventure": 8277,
      "rog": 8278,
      "wig": 8279,
      "maker": 8280,
      "permission": 8281,
      "opard": 8282,
      "omics": 8283,
      "agreement": 8284,
      "recy": 8285,
      "curren": 8286,
      "follows": 8287,
      "ificial": 8288,
      "fields": 8289,
      "specifically": 8290,
      "Ahh": 8291,
      "protecting": 8292,
      "experienced": 8293,
      "emotions": 8294,
      "--------------------------------": 8295,
      "Singapore": 8296,
      "Humans": 8297,
      "'...": 8298,
      "Liz": 8299,
      "mig": 8300,
      "zes": 8301,
      "anz": 8302,
      "edition": 8303,
      "solo": 8304,
      "mole": 8305,
      "moments": 8306,
      "shrink": 8307,
      "agen": 8308,
      "platinum": 8309,
      "compreh": 8310,
      "seek": 8311,
      "prick": 8312,
      "monkey": 8313,
      "beings": 8314,
      "driven": 8315,
      "appeal": 8316,
      "cleaned": 8317,
      "refers": 8318,
      "Helen": 8319,
      "flights": 8320,
      "Calm": 8321,
      "gay": 8322,
      "lousy": 8323,
      "reamed": 8324,
      "ismo": 8325,
      "ento": 8326,
      "dope": 8327,
      "polo": 8328,
      "intent": 8329,
      "merch": 8330,
      "spell": 8331,
      "cheaper": 8332,
      "compare": 8333,
      "muscle": 8334,
      "Forgive": 8335,
      "formal": 8336,
      "mayor": 8337,
      "Jews": 8338,
      "royal": 8339,
      "involve": 8340,
      "Mercury": 8341,
      "Commission": 8342,
      "incredibly": 8343,
      "limits": 8344,
      "perspective": 8345,
      "exclusive": 8346,
      "powder": 8347,
      "63": 8348,
      "Bun": 8349,
      "Card": 8350,
      "Ethan": 8351,
      "Scar": 8352,
      "Sky": 8353,
      "pace": 8354,
      "\"\"\",\"": 8355,
      "autom": 8356,
      "emper": 8357,
      "division": 8358,
      "Coast": 8359,
      "disci": 8360,
      "disney": 8361,
      "bargain": 8362,
      "Barry": 8363,
      "Small": 8364,
      "YOUR": 8365,
      "trange": 8366,
      "divorced": 8367,
      "stadiums": 8368,
      "injuries": 8369,
      "branch": 8370,
      "adopted": 8371,
      "neighbors": 8372,
      "helicopter": 8373,
      "Laura": 8374,
      "1st": 8375,
      "Hong": 8376,
      "Lot": 8377,
      "vary": 8378,
      "chasing": 8379,
      "ament": 8380,
      "trave": 8381,
      "commission": 8382,
      "safer": 8383,
      "kings": 8384,
      "ranch": 8385,
      "disaster": 8386,
      "izes": 8387,
      "Leg": 8388,
      "channels": 8389,
      "fighter": 8390,
      "Frankie": 8391,
      "smells": 8392,
      "frequently": 8393,
      "settled": 8394,
      "surgery": 8395,
      "abstract": 8396,
      "MA": 8397,
      "MY": 8398,
      "Mons": 8399,
      "Pas": 8400,
      "caut": 8401,
      "gment": 8402,
      "km": 8403,
      "tha": 8404,
      "donald": 8405,
      "conspir": 8406,
      "eland": 8407,
      "perce": 8408,
      "spy": 8409,
      "prepar": 8410,
      "mont": 8411,
      "scow": 8412,
      "mature": 8413,
      "bush": 8414,
      "genres": 8415,
      "label": 8416,
      "county": 8417,
      "colum": 8418,
      "decades": 8419,
      "rainforest": 8420,
      "governments": 8421,
      "layer": 8422,
      "grandmother": 8423,
      "boarding": 8424,
      "Pardon": 8425,
      "Quiet": 8426,
      "privile": 8427,
      "votes": 8428,
      "blockbuster": 8429,
      "robber": 8430,
      "ICE": 8431,
      "Australian": 8432,
      "cocktail": 8433,
      "ratings": 8434,
      "rarely": 8435,
      "Israel": 8436,
      "uncey": 8437,
      "Ass": 8438,
      "CIA": 8439,
      "DON": 8440,
      "Fight": 8441,
      "Karen": 8442,
      "pads": 8443,
      "thouse": 8444,
      ",\",": 8445,
      "wives": 8446,
      "traged": 8447,
      "agger": 8448,
      "noble": 8449,
      "Chan": 8450,
      "scat": 8451,
      "vessel": 8452,
      "Golf": 8453,
      "animation": 8454,
      "Blood": 8455,
      "miser": 8456,
      "Manchester": 8457,
      "terribly": 8458,
      "purposes": 8459,
      "catching": 8460,
      "Shaw": 8461,
      "reports": 8462,
      "rosse": 8463,
      "fumbled": 8464,
      ">!": 8465,
      "Award": 8466,
      "CS": 8467,
      "Dy": 8468,
      "Jenn": 8469,
      "Lakers": 8470,
      "Por": 8471,
      "Strange": 8472,
      "infr": 8473,
      "itars": 8474,
      "het": 8475,
      "heav": 8476,
      "lete": 8477,
      "wasnt": 8478,
      "upload": 8479,
      "umin": 8480,
      "quint": 8481,
      "intense": 8482,
      "underground": 8483,
      "Beach": 8484,
      "dub": 8485,
      "amazed": 8486,
      "wishes": 8487,
      "cuit": 8488,
      "hypo": 8489,
      "existed": 8490,
      "Chauncey": 8491,
      "publish": 8492,
      "Janet": 8493,
      "climbing": 8494,
      "websites": 8495,
      "Woman": 8496,
      "advertising": 8497,
      "crisis": 8498,
      "ggling": 8499,
      "Apollo": 8500,
      "Buck": 8501,
      "Hanna": 8502,
      "Jen": 8503,
      "Pil": 8504,
      "bie": 8505,
      "dge": 8506,
      "fate": 8507,
      "mand": 8508,
      "nn": 8509,
      "pity": 8510,
      "rack": 8511,
      "stable": 8512,
      "mos": 8513,
      "cance": 8514,
      "tier": 8515,
      "spector": 8516,
      "Whose": 8517,
      "rude": 8518,
      "legit": 8519,
      "penny": 8520,
      "Suppose": 8521,
      "engineers": 8522,
      "voter": 8523,
      "regul": 8524,
      "sharing": 8525,
      "skiing": 8526,
      "significance": 8527,
      "elevator": 8528,
      "Association": 8529,
      "Jennifer": 8530,
      "Dian": 8531,
      "Grad": 8532,
      "Istanbul": 8533,
      "Kiss": 8534,
      "Sport": 8535,
      "Usu": 8536,
      "nintendo": 8537,
      "uries": 8538,
      "lions": 8539,
      "administr": 8540,
      "rode": 8541,
      "covers": 8542,
      "quis": 8543,
      "Doyle": 8544,
      "cling": 8545,
      "Cold": 8546,
      "rence": 8547,
      "decor": 8548,
      "caine": 8549,
      "definition": 8550,
      "Starfleet": 8551,
      "deserved": 8552,
      "faced": 8553,
      "ambassador": 8554,
      "IMDB": 8555,
      "establish": 8556,
      "Planet": 8557,
      "elimin": 8558,
      "allergic": 8559,
      "Doug": 8560,
      "Federation": 8561,
      "Business": 8562,
      "comedian": 8563,
      "!?\"": 8564,
      "??\"": 8565,
      "??\",\"": 8566,
      "Cher": 8567,
      "Gent": 8568,
      "Sain": 8569,
      "Vada": 8570,
      "cage": 8571,
      "nonsense": 8572,
      "task": 8573,
      "toler": 8574,
      "Hear": 8575,
      "offices": 8576,
      "Third": 8577,
      "presidency": 8578,
      "attached": 8579,
      "Devil": 8580,
      "priest": 8581,
      "surprises": 8582,
      "Drink": 8583,
      "empire": 8584,
      "confusing": 8585,
      "reported": 8586,
      "Louise": 8587,
      "Jordans": 8588,
      "guitarist": 8589,
      "jumped": 8590,
      "initially": 8591,
      "sisters": 8592,
      "bicycle": 8593,
      "Norwegian": 8594,
      "Bax": 8595,
      "Cross": 8596,
      "Mount": 8597,
      "Swit": 8598,
      "TA": 8599,
      "Tele": 8600,
      "flex": 8601,
      "vul": 8602,
      "steak": 8603,
      "trash": 8604,
      "math": 8605,
      "guide": 8606,
      "roman": 8607,
      "ieur": 8608,
      "ulse": 8609,
      "Whoever": 8610,
      "visitors": 8611,
      "syl": 8612,
      "hahaha": 8613,
      "warn": 8614,
      "profile": 8615,
      "dreaming": 8616,
      "spends": 8617,
      "processing": 8618,
      "humili": 8619,
      "photos": 8620,
      "relaxing": 8621,
      "Erin": 8622,
      "Oscars": 8623,
      "commercials": 8624,
      "embarrassed": 8625,
      "ximately": 8626,
      "Drive": 8627,
      "Houston": 8628,
      "coincidence": 8629,
      "Monsieur": 8630,
      "46": 8631,
      "Case": 8632,
      "Civ": 8633,
      "Catherine": 8634,
      "Fur": 8635,
      "FOR": 8636,
      "Hunt": 8637,
      "Utah": 8638,
      "bis": 8639,
      "nba": 8640,
      "thur": 8641,
      "thee": 8642,
      "haul": 8643,
      "sore": 8644,
      "colored": 8645,
      "imony": 8646,
      "therlands": 8647,
      "therefore": 8648,
      "guitars": 8649,
      "schol": 8650,
      "committed": 8651,
      "bara": 8652,
      "trusted": 8653,
      "throws": 8654,
      "circle": 8655,
      "vegetables": 8656,
      "slightly": 8657,
      "Saints": 8658,
      "Baxter": 8659,
      "38": 8660,
      "78": 8661,
      "Bry": 8662,
      "Cumber": 8663,
      "Full": 8664,
      "Gill": 8665,
      "Stra": 8666,
      "aire": 8667,
      "bble": 8668,
      "lves": 8669,
      "tent": 8670,
      "inher": 8671,
      "remark": 8672,
      "toys": 8673,
      "esis": 8674,
      "melt": 8675,
      "units": 8676,
      "unhappy": 8677,
      "vending": 8678,
      "item": 8679,
      "interpret": 8680,
      "grats": 8681,
      "sonofabitch": 8682,
      "Meet": 8683,
      "Frances": 8684,
      "Gram": 8685,
      "increasing": 8686,
      "grim": 8687,
      "Said": 8688,
      "Nathan": 8689,
      "rubber": 8690,
      "Faith": 8691,
      "ctives": 8692,
      "Spring": 8693,
      "discovery": 8694,
      "Sugar": 8695,
      "Switzerland": 8696,
      "Cho": 8697,
      "Ocean": 8698,
      "Pre": 8699,
      "Pier": 8700,
      "fea": 8701,
      "tits": 8702,
      "testing": 8703,
      "inations": 8704,
      "ario": 8705,
      "...'": 8706,
      "impro": 8707,
      "trucks": 8708,
      "tiles": 8709,
      "sip": 8710,
      "diseas": 8711,
      "1900": 8712,
      "opposed": 8713,
      "stume": 8714,
      "handsome": 8715,
      "musicians": 8716,
      "Road": 8717,
      "strateg": 8718,
      "Toy": 8719,
      "childhood": 8720,
      "voc": 8721,
      "entered": 8722,
      "floating": 8723,
      "PhD": 8724,
      "generate": 8725,
      "explains": 8726,
      "bothered": 8727,
      "pushed": 8728,
      "narrow": 8729,
      "Brothers": 8730,
      "cuments": 8731,
      "applications": 8732,
      "symbol": 8733,
      "determined": 8734,
      "temporary": 8735,
      "Microsoft": 8736,
      "ingredients": 8737,
      "ifferent": 8738,
      "48": 8739,
      "Dream": 8740,
      "riages": 8741,
      "costume": 8742,
      "imperson": 8743,
      "goat": 8744,
      "troops": 8745,
      "homa": 8746,
      "excess": 8747,
      "pride": 8748,
      "wherever": 8749,
      "Instead": 8750,
      "brick": 8751,
      "useless": 8752,
      "identical": 8753,
      "Record": 8754,
      "handy": 8755,
      "Josh": 8756,
      "attended": 8757,
      "Deep": 8758,
      "hurting": 8759,
      "valued": 8760,
      "instinct": 8761,
      "baggage": 8762,
      "1986": 8763,
      "Buy": 8764,
      "percentage": 8765,
      "kilo": 8766,
      "Terri": 8767,
      "Suz": 8768,
      "represented": 8769,
      "pige": 8770,
      "1958": 8771,
      "category": 8772,
      "cartoon": 8773,
      "Band": 8774,
      "Eat": 8775,
      "Jud": 8776,
      "gard": 8777,
      "ored": 8778,
      "tact": 8779,
      "tured": 8780,
      "wagon": 8781,
      "represents": 8782,
      "bears": 8783,
      "astle": 8784,
      "watches": 8785,
      "tension": 8786,
      "differences": 8787,
      "Troopers": 8788,
      "creator": 8789,
      "aneously": 8790,
      "supplies": 8791,
      "males": 8792,
      "competitions": 8793,
      "viously": 8794,
      "factory": 8795,
      "objects": 8796,
      "Target": 8797,
      "FIFA": 8798,
      "Brooklyn": 8799,
      "Anthony": 8800,
      "!?\",\"": 8801,
      "76": 8802,
      "Kurt": 8803,
      "Lester": 8804,
      "Vol": 8805,
      "Yellow": 8806,
      "lump": 8807,
      "pisto": 8808,
      "ume": 8809,
      "encourage": 8810,
      "ceans": 8811,
      "pla": 8812,
      "audition": 8813,
      "emic": 8814,
      "Justice": 8815,
      "enjoying": 8816,
      "Parker": 8817,
      "drawing": 8818,
      "divided": 8819,
      "assumed": 8820,
      "emotion": 8821,
      "reckon": 8822,
      "opposing": 8823,
      "summit": 8824,
      "gallons": 8825,
      "Yankees": 8826,
      "Cumberland": 8827,
      ",'": 8828,
      "->": 8829,
      "80s": 8830,
      "Ga": 8831,
      "Gary": 8832,
      "Hans": 8833,
      "Ned": 8834,
      "OS": 8835,
      "tox": 8836,
      "liest": 8837,
      "limb": 8838,
      "wik": 8839,
      "absor": 8840,
      "plug": 8841,
      "delay": 8842,
      "holo": 8843,
      "exit": 8844,
      "berries": 8845,
      "Shelly": 8846,
      "bugs": 8847,
      "glory": 8848,
      "towns": 8849,
      "History": 8850,
      "doub": 8851,
      "rolling": 8852,
      "bachel": 8853,
      "Jamie": 8854,
      "Entertainment": 8855,
      "seventeen": 8856,
      "dishes": 8857,
      "Atlantic": 8858,
      "Wednes": 8859,
      "90s": 8860,
      "Oak": 8861,
      "Sub": 8862,
      "ibility": 8863,
      "tack": 8864,
      "oust": 8865,
      "ller": 8866,
      "encour": 8867,
      "arrow": 8868,
      "hazard": 8869,
      "tap": 8870,
      "owning": 8871,
      "lottery": 8872,
      "marter": 8873,
      "olic": 8874,
      "radiation": 8875,
      "networks": 8876,
      "Step": 8877,
      "capacity": 8878,
      "1992": 8879,
      "1994": 8880,
      "Fuckin": 8881,
      "ruling": 8882,
      "ninet": 8883,
      "tragedy": 8884,
      "CNN": 8885,
      "Wanna": 8886,
      "bart": 8887,
      "duck": 8888,
      "fag": 8889,
      "factor": 8890,
      "ikes": 8891,
      "mour": 8892,
      "olymp": 8893,
      "tics": 8894,
      "indon": 8895,
      "documents": 8896,
      "choo": 8897,
      "unbelievable": 8898,
      "uration": 8899,
      "quer": 8900,
      "Through": 8901,
      "precious": 8902,
      "stopping": 8903,
      "download": 8904,
      "disagree": 8905,
      "Netherlands": 8906,
      "Moscow": 8907,
      "Excellent": 8908,
      "2009": 8909,
      "dealer": 8910,
      "Arab": 8911,
      "fourteen": 8912,
      "corrupt": 8913,
      "Jew": 8914,
      "lane": 8915,
      "worrying": 8916,
      "Thom": 8917,
      "destination": 8918,
      "hydro": 8919,
      "packed": 8920,
      "champagne": 8921,
      "Dickie": 8922,
      "democrat": 8923,
      "regarding": 8924,
      "photographed": 8925,
      "expression": 8926,
      "Tolkien": 8927,
      "miserable": 8928,
      ".</": 8929,
      "Bear": 8930,
      "FDR": 8931,
      "Lex": 8932,
      "Mall": 8933,
      "Saint": 8934,
      "Tour": 8935,
      "bump": 8936,
      "tion": 8937,
      "ua": 8938,
      "zards": 8939,
      "anne": 8940,
      "theories": 8941,
      "orship": 8942,
      "doo": 8943,
      "mod": 8944,
      "mock": 8945,
      "wolves": 8946,
      "lotta": 8947,
      "MySpace": 8948,
      "chap": 8949,
      "Arthur": 8950,
      "eval": 8951,
      "Barnes": 8952,
      "relevant": 8953,
      "Franklin": 8954,
      "officially": 8955,
      "experiences": 8956,
      "Awesome": 8957,
      "villain": 8958,
      "Wolf": 8959,
      "Jeanne": 8960,
      "styles": 8961,
      "thirteen": 8962,
      "indones": 8963,
      "GA": 8964,
      "Mun": 8965,
      "bred": 8966,
      "bass": 8967,
      "fet": 8968,
      "nish": 8969,
      "rever": 8970,
      "dece": 8971,
      "console": 8972,
      "resident": 8973,
      "astings": 8974,
      "workin": 8975,
      "functions": 8976,
      "stays": 8977,
      "traveled": 8978,
      "capture": 8979,
      "generous": 8980,
      "compete": 8981,
      "rotten": 8982,
      "Genesis": 8983,
      "Smart": 8984,
      "bonus": 8985,
      "summary": 8986,
      "graduated": 8987,
      "Vincent": 8988,
      "tastes": 8989,
      "Gardiner": 8990,
      "commuter": 8991,
      "organizations": 8992,
      "situations": 8993,
      "Sailor": 8994,
      "Usually": 8995,
      "Cab": 8996,
      "Ender": 8997,
      "Pic": 8998,
      "SP": 8999,
      "Unice": 9000,
      "fence": 9001,
      "vate": 9002,
      "informed": 9003,
      "vet": 9004,
      "leaf": 9005,
      "alphabet": 9006,
      "weed": 9007,
      "shed": 9008,
      "earch": 9009,
      "ittin": 9010,
      "dime": 9011,
      "posal": 9012,
      "Chuck": 9013,
      "disappointed": 9014,
      "Aladdin": 9015,
      "versions": 9016,
      "Bridge": 9017,
      "concerns": 9018,
      "1853": 9019,
      "regions": 9020,
      "1991": 9021,
      "sorts": 9022,
      "Barbara": 9023,
      "bothering": 9024,
      "violin": 9025,
      "registered": 9026,
      "Soviet": 9027,
      "Croatia": 9028,
      "Unicef": 9029,
      "Figu": 9030,
      "Hum": 9031,
      "OM": 9032,
      "Zero": 9033,
      "bm": 9034,
      "cub": 9035,
      "rust": 9036,
      ".\",\"-": 9037,
      "andal": 9038,
      "acing": 9039,
      "chase": 9040,
      "pled": 9041,
      "ulated": 9042,
      "proven": 9043,
      "wont": 9044,
      "blah": 9045,
      "prey": 9046,
      "precise": 9047,
      "ichick": 9048,
      "clos": 9049,
      "crook": 9050,
      "counsel": 9051,
      "touching": 9052,
      "cured": 9053,
      "organized": 9054,
      "opinions": 9055,
      "Susie": 9056,
      "Heather": 9057,
      "consult": 9058,
      "Lantern": 9059,
      "Chicken": 9060,
      "conflict": 9061,
      "Agn": 9062,
      "Ce": 9063,
      "Evan": 9064,
      "Rex": 9065,
      "Sac": 9066,
      "sid": 9067,
      "sits": 9068,
      "anie": 9069,
      "onent": 9070,
      "dos": 9071,
      "aded": 9072,
      "lahoma": 9073,
      "paro": 9074,
      "favour": 9075,
      "classified": 9076,
      "mistaken": 9077,
      "Peace": 9078,
      "Charley": 9079,
      "rotation": 9080,
      "Says": 9081,
      "islands": 9082,
      "Germans": 9083,
      "bastards": 9084,
      "Obviously": 9085,
      "graduate": 9086,
      "earnings": 9087,
      "closest": 9088,
      "\"-": 9089,
      "Bing": 9090,
      "Days": 9091,
      "Morgan": 9092,
      "biz": 9093,
      "oceans": 9094,
      "isters": 9095,
      "enor": 9096,
      "rose": 9097,
      "roots": 9098,
      "agents": 9099,
      "delight": 9100,
      "boards": 9101,
      "cia": 9102,
      "scul": 9103,
      "lazy": 9104,
      "steam": 9105,
      "borough": 9106,
      "promote": 9107,
      "staring": 9108,
      "speakers": 9109,
      "murders": 9110,
      "Quick": 9111,
      "castle": 9112,
      "Scotland": 9113,
      "jumping": 9114,
      "snap": 9115,
      "necessarily": 9116,
      "championships": 9117,
      "newspapers": 9118,
      "patterns": 9119,
      "Animal": 9120,
      "neutral": 9121,
      "focused": 9122,
      "Straight": 9123,
      "Agnes": 9124,
      "60s": 9125,
      "85": 9126,
      "Clo": 9127,
      "CON": 9128,
      "Edu": 9129,
      "Jong": 9130,
      "Kate": 9131,
      "Ple": 9132,
      "Public": 9133,
      "Song": 9134,
      "Sister": 9135,
      "Slow": 9136,
      "cart": 9137,
      "fry": 9138,
      "knight": 9139,
      "ux": 9140,
      "whack": 9141,
      "bein": 9142,
      "uncomfortable": 9143,
      "mathem": 9144,
      "aug": 9145,
      "clin": 9146,
      "joking": 9147,
      "funds": 9148,
      "speaks": 9149,
      "scum": 9150,
      "Rey": 9151,
      "shared": 9152,
      "Marcus": 9153,
      "Board": 9154,
      "travels": 9155,
      "valid": 9156,
      "locations": 9157,
      "137": 9158,
      "Robinson": 9159,
      "increased": 9160,
      "Understand": 9161,
      "Governor": 9162,
      "gorith": 9163,
      "Asian": 9164,
      "possession": 9165,
      "Valent": 9166,
      "Atlanta": 9167,
      "Lemme": 9168,
      "disgusting": 9169,
      "assuming": 9170,
      "currency": 9171,
      "quintillion": 9172,
      "Avenue": 9173,
      "Gab": 9174,
      "Sna": 9175,
      "Twelve": 9176,
      "ggy": 9177,
      "lley": 9178,
      "?\",\"'": 9179,
      "anyhow": 9180,
      "noises": 9181,
      "enda": 9182,
      "itts": 9183,
      "irsty": 9184,
      "sia": 9185,
      "fined": 9186,
      "portion": 9187,
      "lighter": 9188,
      "aterrest": 9189,
      "Lock": 9190,
      "terrified": 9191,
      "messages": 9192,
      "heroes": 9193,
      "vinyl": 9194,
      "electrical": 9195,
      "traded": 9196,
      "Oklahoma": 9197,
      "pencils": 9198,
      "attracted": 9199,
      "SNL": 9200,
      "Honestly": 9201,
      "Zuckerberg": 9202,
      "diplo": 9203,
      "enforcement": 9204,
      "delicious": 9205,
      "Wednesday": 9206,
      "smarter": 9207,
      "tick": 9208,
      "thumb": 9209,
      "icbm": 9210,
      "acce": 9211,
      "Thel": 9212,
      "shy": 9213,
      "sholes": 9214,
      "tears": 9215,
      "goods": 9216,
      "\",\"[": 9217,
      "blan": 9218,
      "assigned": 9219,
      "sible": 9220,
      "positions": 9221,
      "marked": 9222,
      "careers": 9223,
      "badge": 9224,
      "mmm": 9225,
      "athon": 9226,
      "chamber": 9227,
      "governor": 9228,
      "patriots": 9229,
      "trains": 9230,
      "relationships": 9231,
      "reliable": 9232,
      "booth": 9233,
      "additional": 9234,
      "IGHT": 9235,
      "dinosaurs": 9236,
      "consequences": 9237,
      "Catch": 9238,
      "Cooper": 9239,
      "Fi": 9240,
      "Hallow": 9241,
      "Nik": 9242,
      "Sound": 9243,
      "Wish": 9244,
      "pion": 9245,
      "repair": 9246,
      "revenge": 9247,
      "arian": 9248,
      "wears": 9249,
      "cope": 9250,
      "ira": 9251,
      "shif": 9252,
      "aga": 9253,
      "homo": 9254,
      "hollow": 9255,
      "raising": 9256,
      "prop": 9257,
      "span": 9258,
      "internal": 9259,
      "discussion": 9260,
      "1916": 9261,
      "fines": 9262,
      "chef": 9263,
      "gender": 9264,
      "visions": 9265,
      "adding": 9266,
      "engines": 9267,
      "causing": 9268,
      "Drama": 9269,
      "Guin": 9270,
      "territory": 9271,
      "developing": 9272,
      "correctly": 9273,
      "Century": 9274,
      "exercis": 9275,
      "Victo": 9276,
      "committee": 9277,
      "scenes": 9278,
      "disturb": 9279,
      "suspicious": 9280,
      "assignment": 9281,
      "ignore": 9282,
      "Gentle": 9283,
      "Bla": 9284,
      "Kin": 9285,
      "Key": 9286,
      "Penn": 9287,
      "thi": 9288,
      "isol": 9289,
      "enix": 9290,
      "orchestra": 9291,
      "android": 9292,
      "ooh": 9293,
      "outfit": 9294,
      "amps": 9295,
      "implement": 9296,
      "nox": 9297,
      "Doll": 9298,
      "Chance": 9299,
      "finance": 9300,
      "ketch": 9301,
      "highway": 9302,
      "Shark": 9303,
      "images": 9304,
      "swallow": 9305,
      "operate": 9306,
      "magn": 9307,
      "packing": 9308,
      "cultures": 9309,
      "regularly": 9310,
      "tunnel": 9311,
      "endorsement": 9312,
      "relatively": 9313,
      "sacrific": 9314,
      "jungle": 9315,
      "Hudson": 9316,
      "sylvan": 9317,
      "Creat": 9318,
      "Drew": 9319,
      "Fal": 9320,
      "Mem": 9321,
      "Word": 9322,
      "gills": 9323,
      "hen": 9324,
      "rely": 9325,
      "toast": 9326,
      "algorith": 9327,
      "indic": 9328,
      "spons": 9329,
      "shoulda": 9330,
      "identified": 9331,
      "serial": 9332,
      "district": 9333,
      "centuries": 9334,
      "surrender": 9335,
      "symp": 9336,
      "Shar": 9337,
      "burgh": 9338,
      "Jeez": 9339,
      "Spark": 9340,
      "covering": 9341,
      "controlled": 9342,
      "professor": 9343,
      "deeper": 9344,
      "1972": 9345,
      "squad": 9346,
      "crossed": 9347,
      "articles": 9348,
      "globe": 9349,
      "fruits": 9350,
      "Electr": 9351,
      "croco": 9352,
      "Otis": 9353,
      "Violet": 9354,
      "Building": 9355,
      "Dance": 9356,
      "Gri": 9357,
      "Int": 9358,
      "MJ": 9359,
      "Main": 9360,
      "RY": 9361,
      "Ses": 9362,
      "Town": 9363,
      "cadillac": 9364,
      "dell": 9365,
      "eve": 9366,
      "reverse": 9367,
      "assholes": 9368,
      "stall": 9369,
      "soil": 9370,
      "usions": 9371,
      "pepper": 9372,
      "upper": 9373,
      "exposed": 9374,
      "umes": 9375,
      "proposed": 9376,
      "proceed": 9377,
      "prefers": 9378,
      "buzz": 9379,
      "click": 9380,
      "hiking": 9381,
      "craz": 9382,
      "mars": 9383,
      "Forty": 9384,
      "bases": 9385,
      "hardware": 9386,
      "polite": 9387,
      "Dean": 9388,
      "ninety": 9389,
      "Freddy": 9390,
      "Sandy": 9391,
      "Tyler": 9392,
      "accomplished": 9393,
      "debate": 9394,
      "bleeding": 9395,
      "Halloween": 9396,
      ">?\"": 9397,
      "Bri": 9398,
      "Cry": 9399,
      "Kit": 9400,
      "Lay": 9401,
      "Lily": 9402,
      "Winter": 9403,
      "fried": 9404,
      "lers": 9405,
      "oy": 9406,
      "restr": 9407,
      "icon": 9408,
      "arest": 9409,
      "shire": 9410,
      "shorter": 9411,
      "trapped": 9412,
      "tiger": 9413,
      "Inspector": 9414,
      "timore": 9415,
      "smash": 9416,
      "Roth": 9417,
      "basket": 9418,
      "Def": 9419,
      "Explain": 9420,
      "eva": 9421,
      "Northern": 9422,
      "patience": 9423,
      "patients": 9424,
      "Starling": 9425,
      "safely": 9426,
      "bankrupt": 9427,
      "Lucy": 9428,
      "kissing": 9429,
      "Kinda": 9430,
      "trumpet": 9431,
      "granted": 9432,
      "accommodate": 9433,
      "diseases": 9434,
      "CP": 9435,
      "Grail": 9436,
      "Lab": 9437,
      "Screw": 9438,
      "junior": 9439,
      "nations": 9440,
      "forbid": 9441,
      "admir": 9442,
      "outer": 9443,
      "unte": 9444,
      "...!\"": 9445,
      "cancel": 9446,
      "trau": 9447,
      "rapping": 9448,
      "quir": 9449,
      "finals": 9450,
      "realistic": 9451,
      "crete": 9452,
      "Mario": 9453,
      "Willie": 9454,
      "Arnold": 9455,
      "steady": 9456,
      "Phys": 9457,
      "distinct": 9458,
      "celebrate": 9459,
      "packages": 9460,
      "cules": 9461,
      "Ellis": 9462,
      "HAHA": 9463,
      "softball": 9464,
      "democratic": 9465,
      "Horse": 9466,
      "ghosts": 9467,
      "challenging": 9468,
      "warranty": 9469,
      "CEO": 9470,
      "torized": 9471,
      "Phoenix": 9472,
      "extraterrest": 9473,
      "battles": 9474,
      "sylvania": 9475,
      "Sesame": 9476,
      "Bi": 9477,
      "Came": 9478,
      "Fle": 9479,
      "Rom": 9480,
      "Theres": 9481,
      "fond": 9482,
      "fying": 9483,
      "tables": 9484,
      "von": 9485,
      "wrap": 9486,
      "retain": 9487,
      "icans": 9488,
      "riosity": 9489,
      "wels": 9490,
      "absur": 9491,
      "absolute": 9492,
      "...!": 9493,
      "homic": 9494,
      "resent": 9495,
      "couldnt": 9496,
      "interrup": 9497,
      "timing": 9498,
      "cheating": 9499,
      "yah": 9500,
      "burst": 9501,
      "freezing": 9502,
      "Claudi": 9503,
      "Point": 9504,
      "Lois": 9505,
      "testimony": 9506,
      "fellas": 9507,
      "approximately": 9508,
      "physically": 9509,
      "golfer": 9510,
      "blowing": 9511,
      "robbed": 9512,
      "motel": 9513,
      "racing": 9514,
      "Mexican": 9515,
      "GOT": 9516,
      "Magic": 9517,
      "Despite": 9518,
      "nails": 9519,
      "escaped": 9520,
      "discipl": 9521,
      "canceled": 9522,
      "Diane": 9523,
      "nineteen": 9524,
      "Cand": 9525,
      "Clear": 9526,
      "Dal": 9527,
      "Food": 9528,
      "Gener": 9529,
      "HS": 9530,
      "Hob": 9531,
      "Led": 9532,
      "SU": 9533,
      "Vik": 9534,
      "equi": 9535,
      "toine": 9536,
      "beats": 9537,
      "...!\",\"": 9538,
      "iley": 9539,
      "drivers": 9540,
      "polar": 9541,
[...]
